{
  "version": "1.0",
  "truncation": null,
  "padding": null,
  "added_tokens": [
    {
      "id": 0,
      "content": "<|endoftext|>",
      "single_word": false,
      "lstrip": false,
      "rstrip": false,
      "normalized": false,
      "special": true
    },
    {
      "id": 1,
      "content": "<|startoftext|>",
      "single_word": false,
      "lstrip": false,
      "rstrip": false,
      "normalized": false,
      "special": true
    },
    {
      "id": 2,
      "content": "<|pad|>",
      "single_word": false,
      "lstrip": false,
      "rstrip": false,
      "normalized": false,
      "special": true
    }
  ],
  "normalizer": null,
  "pre_tokenizer": {
    "type": "ByteLevel",
    "add_prefix_space": false,
    "trim_offsets": true,
    "use_regex": true
  },
  "post_processor": {
    "type": "ByteLevel",
    "add_prefix_space": true,
    "trim_offsets": false,
    "use_regex": true
  },
  "decoder": null,
  "model": {
    "type": "BPE",
    "dropout": null,
    "unk_token": null,
    "continuing_subword_prefix": null,
    "end_of_word_suffix": null,
    "fuse_unk": false,
    "byte_fallback": false,
    "vocab": {
      "<|endoftext|>": 0,
      "<|startoftext|>": 1,
      "<|pad|>": 2,
      "!": 3,
      "\"": 4,
      "$": 5,
      "%": 6,
      "&": 7,
      "'": 8,
      "+": 9,
      ",": 10,
      "-": 11,
      ".": 12,
      "/": 13,
      "0": 14,
      "1": 15,
      "2": 16,
      "3": 17,
      "4": 18,
      "5": 19,
      "6": 20,
      "7": 21,
      "8": 22,
      "9": 23,
      ":": 24,
      ";": 25,
      "?": 26,
      "A": 27,
      "B": 28,
      "C": 29,
      "D": 30,
      "E": 31,
      "F": 32,
      "G": 33,
      "H": 34,
      "I": 35,
      "J": 36,
      "K": 37,
      "L": 38,
      "M": 39,
      "N": 40,
      "O": 41,
      "P": 42,
      "Q": 43,
      "R": 44,
      "S": 45,
      "T": 46,
      "U": 47,
      "V": 48,
      "W": 49,
      "X": 50,
      "Y": 51,
      "Z": 52,
      "a": 53,
      "b": 54,
      "c": 55,
      "d": 56,
      "e": 57,
      "f": 58,
      "g": 59,
      "h": 60,
      "i": 61,
      "j": 62,
      "k": 63,
      "l": 64,
      "m": 65,
      "n": 66,
      "o": 67,
      "p": 68,
      "q": 69,
      "r": 70,
      "s": 71,
      "t": 72,
      "u": 73,
      "v": 74,
      "w": 75,
      "x": 76,
      "y": 77,
      "z": 78,
      "§": 79,
      "©": 80,
      "¬": 81,
      "°": 82,
      "¶": 83,
      "º": 84,
      "Â": 85,
      "Ã": 86,
      "Ð": 87,
      "â": 88,
      "Ġ": 89,
      "Ģ": 90,
      "Ĥ": 91,
      "ĵ": 92,
      "Ķ": 93,
      "ĺ": 94,
      "Ļ": 95,
      "ł": 96,
      "Ń": 97,
      "Ġt": 98,
      "ou": 99,
      "he": 100,
      "Ġa": 101,
      "in": 102,
      "Ġw": 103,
      "re": 104,
      "Ġs": 105,
      "Ġy": 106,
      "ha": 107,
      "Ġyou": 108,
      "Ġto": 109,
      "on": 110,
      "Ġd": 111,
      "is": 112,
      "Ġm": 113,
      "ve": 114,
      "Ġb": 115,
      "Ġc": 116,
      "Ġthe": 117,
      "om": 118,
      "ing": 119,
      "an": 120,
      "Ġf": 121,
      "Ġl": 122,
      "ed": 123,
      "ll": 124,
      "it": 125,
      "hat": 126,
      "or": 127,
      "'t": 128,
      "en": 129,
      "er": 130,
      "Ġn": 131,
      "Ġg": 132,
      "Ġp": 133,
      "Ġha": 134,
      "ow": 135,
      "as": 136,
      "Ġo": 137,
      "ar": 138,
      "Ġh": 139,
      "Ġth": 140,
      "es": 141,
      "Ġis": 142,
      "ot": 143,
      "Ġbe": 144,
      "at": 145,
      "Tom": 146,
      "Ġhe": 147,
      "id": 148,
      "et": 149,
      "Ġin": 150,
      "ay": 151,
      "Ġof": 152,
      "Ġdo": 153,
      "ld": 154,
      "ĠI": 155,
      "le": 156,
      "'s": 157,
      "Ġthat": 158,
      "us": 159,
      "Ġme": 160,
      "ke": 161,
      "Ġe": 162,
      "You": 163,
      "The": 164,
      "Ġan": 165,
      "ver": 166,
      "im": 167,
      "Ġwas": 168,
      "oo": 169,
      "He": 170,
      "gh": 171,
      "Ġhave": 172,
      "Ġon": 173,
      "Ġre": 174,
      "Ġit": 175,
      "ic": 176,
      "ant": 177,
      "Ġli": 178,
      "Ġfor": 179,
      "Ġk": 180,
      "Ġwe": 181,
      "Ġst": 182,
      "Ġdon": 183,
      "ould": 184,
      "Ġwant": 185,
      "Ġyour": 186,
      "Ġthis": 187,
      "'m": 188,
      "ght": 189,
      "Ġne": 190,
      "ri": 191,
      "al": 192,
      "ch": 193,
      "out": 194,
      "Ġkn": 195,
      "Ġnot": 196,
      "Ġgo": 197,
      "We": 198,
      "ad": 199,
      "Ġcan": 200,
      "'re": 201,
      "Ġmy": 202,
      "st": 203,
      "ome": 204,
      "se": 205,
      "Ġknow": 206,
      "un": 207,
      "Ġdid": 208,
      "ly": 209,
      "very": 210,
      "ent": 211,
      "Ġare": 212,
      "ith": 213,
      "Ġwith": 214,
      "her": 215,
      "Ġlike": 216,
      "ter": 217,
      "ro": 218,
      "ee": 219,
      "all": 220,
      "pp": 221,
      "It": 222,
      "She": 223,
      "ink": 224,
      "ill": 225,
      "ut": 226,
      "one": 227,
      "ion": 228,
      "ac": 229,
      "Ġat": 230,
      "hing": 231,
      "ĠTom": 232,
      "Ġas": 233,
      "ust": 234,
      "am": 235,
      "Ġsh": 236,
      "ir": 237,
      "ook": 238,
      "Ġwhat": 239,
      "Ġsu": 240,
      "Ġj": 241,
      "Ġthink": 242,
      "Ġab": 243,
      "ain": 244,
      "What": 245,
      "ake": 246,
      "Ġall": 247,
      "Ġany": 248,
      "ore": 249,
      "Ġhim": 250,
      "Ġte": 251,
      "Do": 252,
      "Ġwor": 253,
      "Ġhis": 254,
      "ry": 255,
      "if": 256,
      "'ll": 257,
      "ce": 258,
      "end": 259,
      "Ġr": 260,
      "Ġtim": 261,
      "Ġso": 262,
      "ur": 263,
      "'ve": 264,
      "up": 265,
      "Ġus": 266,
      "op": 267,
      "Ġal": 268,
      "Wh": 269,
      "Ġand": 270,
      "They": 271,
      "ood": 272,
      "ea": 273,
      "Ġabout": 274,
      "Ġtime": 275,
      "Ġget": 276,
      "ct": 277,
      "Th": 278,
      "Ġhere": 279,
      "Ġvery": 280,
      "han": 281,
      "ren": 282,
      "Ġwh": 283,
      "Ġdidn": 284,
      "ally": 285,
      "Ġsee": 286,
      "ong": 287,
      "This": 288,
      "ive": 289,
      "Ġout": 290,
      "That": 291,
      "ind": 292,
      "Ġup": 293,
      "ary": 294,
      "red": 295,
      "Ġtr": 296,
      "ight": 297,
      "How": 298,
      "Ġhad": 299,
      "Ġsp": 300,
      "ble": 301,
      "Ġwere": 302,
      "Ġneed": 303,
      "Ġhapp": 304,
      "ul": 305,
      "Ġpl": 306,
      "Ġher": 307,
      "Ġex": 308,
      "Ġone": 309,
      "Ġlo": 310,
      "ge": 311,
      "day": 312,
      "Don": 313,
      "Ġhas": 314,
      "alk": 315,
      "Ġun": 316,
      "Ġwill": 317,
      "Ġgoing": 318,
      "est": 319,
      "nd": 320,
      "Ġno": 321,
      "Ġsa": 322,
      "ast": 323,
      "il": 324,
      "Ġshould": 325,
      "rom": 326,
      "'d": 327,
      "Ġjust": 328,
      "art": 329,
      "ase": 330,
      "ĠM": 331,
      "Ġwhe": 332,
      "Are": 333,
      "ie": 334,
      "lp": 335,
      "ate": 336,
      "Ġlook": 337,
      "Ġgood": 338,
      "and": 339,
      "ame": 340,
      "ist": 341,
      "Ġde": 342,
      "qu": 343,
      "ice": 344,
      "Ġhelp": 345,
      "Ġtoo": 346,
      "Ġwork": 347,
      "thing": 348,
      "der": 349,
      "ess": 350,
      "Ġwould": 351,
      "ought": 352,
      "Ġcom": 353,
      "Ġthere": 354,
      "Ġcould": 355,
      "ss": 356,
      "My": 357,
      "Ġreally": 358,
      "Ġtell": 359,
      "ak": 360,
      "Why": 361,
      "Ġse": 362,
      "dy": 363,
      "ack": 364,
      "ave": 365,
      "Ġfrom": 366,
      "ĠMary": 367,
      "our": 368,
      "Ġevery": 369,
      "Ġsome": 370,
      "Ġag": 371,
      "Ġby": 372,
      "Ġman": 373,
      "Whe": 374,
      "Ġcon": 375,
      "omet": 376,
      "lf": 377,
      "ear": 378,
      "lease": 379,
      "Ġtalk": 380,
      "ays": 381,
      "Ġpro": 382,
      "Ġco": 383,
      "ation": 384,
      "Ġdoes": 385,
      "Ġbeen": 386,
      "ck": 387,
      "riend": 388,
      "ig": 389,
      "ous": 390,
      "Ġca": 391,
      "Ġqu": 392,
      "Ġgot": 393,
      "Ġcome": 394,
      "Ġmore": 395,
      "Ġnever": 396,
      "ol": 397,
      "Ġnow": 398,
      "other": 399,
      "Ġthan": 400,
      "ers": 401,
      "ree": 402,
      "There": 403,
      "Ġsomet": 404,
      "fe": 405,
      "ish": 406,
      "Ġri": 407,
      "ort": 408,
      "Ġcar": 409,
      "Ġch": 410,
      "row": 411,
      "Ġint": 412,
      "Can": 413,
      "Is": 414,
      "Ġif": 415,
      "ost": 416,
      "ep": 417,
      "Ġhappen": 418,
      "ound": 419,
      "Ġmu": 420,
      "Ġbut": 421,
      "Ġhome": 422,
      "Ġen": 423,
      "Ġask": 424,
      "Ġar": 425,
      "Ġwr": 426,
      "Ġsomething": 427,
      "Ġcl": 428,
      "Ġmuch": 429,
      "Ġaf": 430,
      "ap": 431,
      "Ġeat": 432,
      "mb": 433,
      "ine": 434,
      "Ġwho": 435,
      "Ġsay": 436,
      "Ġfriend": 437,
      "ob": 438,
      "Ġv": 439,
      "Ġro": 440,
      "Ġoff": 441,
      "Ġwon": 442,
      "Let": 443,
      "Ġtake": 444,
      "Ġread": 445,
      "Ġright": 446,
      "ather": 447,
      "own": 448,
      "Ġmake": 449,
      "Ġhow": 450,
      "Ġlong": 451,
      "ite": 452,
      "eel": 453,
      "Ġpre": 454,
      "Ġam": 455,
      "ard": 456,
      "oney": 457,
      "ody": 458,
      "itt": 459,
      "Ġlove": 460,
      "Did": 461,
      "Ġfeel": 462,
      "Ġbook": 463,
      "Ġmoney": 464,
      "ning": 465,
      "ick": 466,
      "Ġle": 467,
      "Ġthought": 468,
      "self": 469,
      "Ġwhen": 470,
      "Ġexp": 471,
      "Ġback": 472,
      "Ġthey": 473,
      "Ġbet": 474,
      "Ġlast": 475,
      "Ġshe": 476,
      "Ġbus": 477,
      "Ġfe": 478,
      "Ġmad": 479,
      "os": 480,
      "ough": 481,
      "Ġbu": 482,
      "Ġsure": 483,
      "Ġad": 484,
      "Ġstu": 485,
      "Ġanything": 486,
      "Ġbel": 487,
      "Ġnew": 488,
      "Ġtold": 489,
      "Ġlot": 490,
      "ild": 491,
      "Ġday": 492,
      "Ġdr": 493,
      "ried": 494,
      "ool": 495,
      "Ġthing": 496,
      "ure": 497,
      "Ġor": 498,
      "ide": 499,
      "ass": 500,
      "eak": 501,
      "hed": 502,
      "ĠF": 503,
      "ag": 504,
      "eop": 505,
      "eople": 506,
      "Ġagain": 507,
      "Ġdoesn": 508,
      "th": 509,
      "Ġunder": 510,
      "ieve": 511,
      "Ġwat": 512,
      "ect": 513,
      "Ġmust": 514,
      "Where": 515,
      "Ġbo": 516,
      "Ġsm": 517,
      "Please": 518,
      "ng": 519,
      "Ġlet": 520,
      "Ġbr": 521,
      "Who": 522,
      "Ġim": 523,
      "Ġlea": 524,
      "Ġmade": 525,
      "Ġac": 526,
      "Ġway": 527,
      "Ġold": 528,
      "Ġke": 529,
      "Ġsaid": 530,
      "nt": 531,
      "Ġspeak": 532,
      "Ġcomp": 533,
      "pt": 534,
      "ait": 535,
      "If": 536,
      "ouse": 537,
      "Ġlive": 538,
      "ra": 539,
      "Ġgive": 540,
      "Ġcare": 541,
      "ving": 542,
      "Ġstill": 543,
      "Ġbelieve": 544,
      "Ġpeople": 545,
      "ther": 546,
      "Ġtoday": 547,
      "Ġwent": 548,
      "Ġhar": 549,
      "Ġcall": 550,
      "ways": 551,
      "orrow": 552,
      "Ġdoing": 553,
      "Ġhouse": 554,
      "Ġbetter": 555,
      "Ġhappy": 556,
      "Ġyear": 557,
      "rench": 558,
      "Ġalways": 559,
      "body": 560,
      "ach": 561,
      "Ġstay": 562,
      "Ġonly": 563,
      "Ġpr": 564,
      "Ġtw": 565,
      "urn": 566,
      "ft": 567,
      "Ġnight": 568,
      "Ġroom": 569,
      "Ġgu": 570,
      "Ġplay": 571,
      "Ġthem": 572,
      "ĠFrench": 573,
      "fore": 574,
      "ue": 575,
      "Ġleave": 576,
      "ose": 577,
      "age": 578,
      "Ġaw": 579,
      "Have": 580,
      "Ġdis": 581,
      "Ġover": 582,
      "Ġwait": 583,
      "Ġjob": 584,
      "Ġbefore": 585,
      "chool": 586,
      "ts": 587,
      "Ġour": 588,
      "ress": 589,
      "um": 590,
      "Ġpo": 591,
      "ace": 592,
      "mber": 593,
      "Ġmany": 594,
      "Ġtry": 595,
      "Ġdown": 596,
      "Ġrem": 597,
      "Ġapp": 598,
      "ittle": 599,
      "Ġlittle": 600,
      "Ġschool": 601,
      "Ġchild": 602,
      "Ġisn": 603,
      "able": 604,
      "iss": 605,
      "blem": 606,
      "Ġproblem": 607,
      "Ġunderst": 608,
      "ired": 609,
      "Ġpart": 610,
      "Ġhand": 611,
      "get": 612,
      "Every": 613,
      "ester": 614,
      "Ġwanted": 615,
      "Ġmo": 616,
      "Ġchan": 617,
      "Ġbl": 618,
      "No": 619,
      "ff": 620,
      "iz": 621,
      "ting": 622,
      "Ġwhere": 623,
      "Ġdog": 624,
      "reat": 625,
      "ful": 626,
      "ity": 627,
      "Ġtom": 628,
      "Ġafter": 629,
      "Ġwell": 630,
      "esterday": 631,
      "ek": 632,
      "ell": 633,
      "Ġleft": 634,
      "ise": 635,
      "leep": 636,
      "ang": 637,
      "Ġother": 638,
      "Ġhard": 639,
      "Ġplan": 640,
      "ty": 641,
      "Ġunderstand": 642,
      "Ġalone": 643,
      "Ġtomorrow": 644,
      "Ġbec": 645,
      "Ġfather": 646,
      "Ġhappened": 647,
      "Ġfind": 648,
      "Ġimp": 649,
      "Ġweek": 650,
      "Ġfa": 651,
      "use": 652,
      "Ġpa": 653,
      "Ġhop": 654,
      "ew": 655,
      "xt": 656,
      "Ġbuy": 657,
      "Ġgl": 658,
      "Ġenough": 659,
      "ies": 660,
      "Ġseem": 661,
      "Ġsc": 662,
      "Ġthree": 663,
      "Ġsw": 664,
      "Ġyesterday": 665,
      "ved": 666,
      "ied": 667,
      "Ġfin": 668,
      "Ġop": 669,
      "act": 670,
      "Ġmeet": 671,
      "Ġdone": 672,
      "Ġasked": 673,
      "estion": 674,
      "Ġdif": 675,
      "ven": 676,
      "Ġdrink": 677,
      "When": 678,
      "Ġtwo": 679,
      "ire": 680,
      "rest": 681,
      "ict": 682,
      "read": 683,
      "ised": 684,
      "Ġsaw": 685,
      "Ġfl": 686,
      "Ġfriends": 687,
      "ious": 688,
      "ab": 689,
      "ark": 690,
      "Ġplease": 691,
      "Ġinto": 692,
      "ount": 693,
      "Ġquestion": 694,
      "Ġstart": 695,
      "ĠB": 696,
      "Ġacc": 697,
      "Ġid": 698,
      "Ġever": 699,
      "Ġput": 700,
      "Ġeverything": 701,
      "Ġhur": 702,
      "ten": 703,
      "orry": 704,
      "Ġwhy": 705,
      "Ġla": 706,
      "Ġear": 707,
      "Ġhope": 708,
      "irst": 709,
      "Ġnext": 710,
      "Ġsur": 711,
      "Ġdoor": 712,
      "Ġhear": 713,
      "Ġlate": 714,
      "akes": 715,
      "ated": 716,
      "Ġres": 717,
      "Ġgir": 718,
      "ile": 719,
      "Ġbusy": 720,
      "Ġcat": 721,
      "Ġhat": 722,
      "St": 723,
      "Ġwrong": 724,
      "Ġdec": 725,
      "Would": 726,
      "Ġaway": 727,
      "Ġwalk": 728,
      "Ġkind": 729,
      "Ġadv": 730,
      "Ġsleep": 731,
      "mer": 732,
      "ich": 733,
      "Ġfun": 734,
      "sw": 735,
      "ember": 736,
      "ĠE": 737,
      "Ġidea": 738,
      "Ġmat": 739,
      "Ġteac": 740,
      "ence": 741,
      "Ġnothing": 742,
      "ult": 743,
      "Ġfirst": 744,
      "Ġshow": 745,
      "Ġwasn": 746,
      "Ġgr": 747,
      "Ġansw": 748,
      "oy": 749,
      "ĠA": 750,
      "ment": 751,
      "ught": 752,
      "Ġsorry": 753,
      "oston": 754,
      "ĠBoston": 755,
      "Ġmay": 756,
      "Ġcame": 757,
      "Ġturn": 758,
      "Ġalread": 759,
      "Ġremember": 760,
      "Ġalready": 761,
      "Ġmor": 762,
      "Ġyears": 763,
      "Ġgave": 764,
      "Ġteacher": 765,
      "Ġmar": 766,
      "ance": 767,
      "Ġbeing": 768,
      "ĠJ": 769,
      "Ġbed": 770,
      "Ġthings": 771,
      "erest": 772,
      "og": 773,
      "Ġyet": 774,
      "Ġbad": 775,
      "Ġkeep": 776,
      "Ġche": 777,
      "Ġknew": 778,
      "Ġanyone": 779,
      "Ġtook": 780,
      "Ġcouldn": 781,
      "Ġfam": 782,
      "Ġmother": 783,
      "Ġused": 784,
      "Ġbig": 785,
      "Your": 786,
      "Ġlife": 787,
      "Ġsoon": 788,
      "Ġdri": 789,
      "Ġlooking": 790,
      "Ġmorning": 791,
      "Ġlist": 792,
      "Ġpers": 793,
      "Ġname": 794,
      "ci": 795,
      "Ġmind": 796,
      "ory": 797,
      "Ġwithout": 798,
      "Ġrain": 799,
      "Ġtired": 800,
      "Ġsupp": 801,
      "Ġstud": 802,
      "Ġopen": 803,
      "Ġstr": 804,
      "Ġinterest": 805,
      "Ġuse": 806,
      "Ġwatch": 807,
      "Ġbest": 808,
      "Ġfound": 809,
      "ily": 810,
      "Ġheard": 811,
      "His": 812,
      "Ġmist": 813,
      "Ġseen": 814,
      "Ġatt": 815,
      "ted": 816,
      "Ġlost": 817,
      "Ġlear": 818,
      "Ġoften": 819,
      "Ġchildren": 820,
      "Ġtheir": 821,
      "Ġph": 822,
      "Ġtrain": 823,
      "Ġsame": 824,
      "Ġsho": 825,
      "Ġboy": 826,
      "ident": 827,
      "ign": 828,
      "Ġhaven": 829,
      "Ġready": 830,
      "oth": 831,
      "Ġthese": 832,
      "Ġfo": 833,
      "ible": 834,
      "Ġel": 835,
      "ngl": 836,
      "Ġbeg": 837,
      "Ġwater": 838,
      "ok": 839,
      "ull": 840,
      "are": 841,
      "ĠT": 842,
      "Ġanswer": 843,
      "pr": 844,
      "Ġcle": 845,
      "Ġlik": 846,
      "Ġafra": 847,
      "Ġafraid": 848,
      "Ġmean": 849,
      "Ġstudy": 850,
      "Could": 851,
      "Ġpol": 852,
      "All": 853,
      "May": 854,
      "Ġwish": 855,
      "ner": 856,
      "Ġmin": 857,
      "igh": 858,
      "Ġelse": 859,
      "Ġyoung": 860,
      "uck": 861,
      "Ġyourself": 862,
      "Ġmiss": 863,
      "Ġeas": 864,
      "Ġperson": 865,
      "Ġten": 866,
      "Ġcont": 867,
      "Ġstop": 868,
      "Ġword": 869,
      "el": 870,
      "aking": 871,
      "gry": 872,
      "Ġact": 873,
      "orm": 874,
      "ife": 875,
      "apan": 876,
      "osed": 877,
      "ually": 878,
      "ished": 879,
      "lain": 880,
      "rents": 881,
      "Ġpain": 882,
      "Ġsec": 883,
      "Ġcold": 884,
      "ip": 885,
      "nglish": 886,
      "Ġparty": 887,
      "Ġrun": 888,
      "Ġbrother": 889,
      "ail": 890,
      "Ġgreat": 891,
      "Ġsing": 892,
      "Ġpay": 893,
      "Ġmyself": 894,
      "Ġlearn": 895,
      "uth": 896,
      "ister": 897,
      "Ġhour": 898,
      "Ġpret": 899,
      "Ġwar": 900,
      "ian": 901,
      "ince": 902,
      "Ġfew": 903,
      "Ġdes": 904,
      "ĠC": 905,
      "Ġmet": 906,
      "Ġcount": 907,
      "Ġgirl": 908,
      "hes": 909,
      "Ġrep": 910,
      "Ġparents": 911,
      "oke": 912,
      "Ġbought": 913,
      "Ġtalking": 914,
      "Ġglad": 915,
      "Ġmatter": 916,
      "Ġswim": 917,
      "Ġper": 918,
      "Ġbro": 919,
      "Ġstudent": 920,
      "aut": 921,
      "cle": 922,
      "Ġwants": 923,
      "Ġsurpr": 924,
      "oin": 925,
      "Ġeven": 926,
      "ited": 927,
      "Ġwhile": 928,
      "Ġaround": 929,
      "Ġletter": 930,
      "Ġminut": 931,
      "gg": 932,
      "Ġrec": 933,
      "ause": 934,
      "Ġbeaut": 935,
      "ond": 936,
      "Ġplace": 937,
      "ĠEnglish": 938,
      "Ġmight": 939,
      "Ġbre": 940,
      "Ġgetting": 941,
      "Ġearly": 942,
      "Ġnice": 943,
      "Ġable": 944,
      "ud": 945,
      "Ġcha": 946,
      "side": 947,
      "ream": 948,
      "Ġfood": 949,
      "Ġrest": 950,
      "Ġtrue": 951,
      "vor": 952,
      "ĠS": 953,
      "Ġinv": 954,
      "Ġknows": 955,
      "ĠJapan": 956,
      "inner": 957,
      "Ġsister": 958,
      "Ġhot": 959,
      "Ġmarried": 960,
      "ock": 961,
      "ctor": 962,
      "ered": 963,
      "ert": 964,
      "Ġanother": 965,
      "Ġlooks": 966,
      "Ġwonder": 967,
      "iful": 968,
      "Ġexpect": 969,
      "Ġlisten": 970,
      "fic": 971,
      "Ġprom": 972,
      "most": 973,
      "Ġown": 974,
      "Ġtried": 975,
      "Ġcr": 976,
      "any": 977,
      "ced": 978,
      "night": 979,
      "ared": 980,
      "Ġser": 981,
      "Ġaren": 982,
      "Ġhurt": 983,
      "les": 984,
      "more": 985,
      "Be": 986,
      "Ġwind": 987,
      "Ġsuch": 988,
      "Ġanymore": 989,
      "Ġsha": 990,
      "Ġhun": 991,
      "Ġforg": 992,
      "feren": 993,
      "Ġmeeting": 994,
      "Ġwouldn": 995,
      "Ġbeautiful": 996,
      "Some": 997,
      "ret": 998,
      "Ġsit": 999,
      "Ġmov": 1000,
      "joy": 1001,
      "em": 1002,
      "Ġtruth": 1003,
      "ize": 1004,
      "Ġbreak": 1005,
      "pped": 1006,
      "cess": 1007,
      "Ġarri": 1008,
      "ons": 1009,
      "Ġdays": 1010,
      "ork": 1011,
      "Ġdoctor": 1012,
      "be": 1013,
      "ix": 1014,
      "Ġbecause": 1015,
      "Ġfar": 1016,
      "ath": 1017,
      "ffee": 1018,
      "ars": 1019,
      "Ġey": 1020,
      "ater": 1021,
      "Ġcoffee": 1022,
      "Ġcoming": 1023,
      "Ġvis": 1024,
      "Ġimport": 1025,
      "oud": 1026,
      "Ġpict": 1027,
      "Ġpicture": 1028,
      "ens": 1029,
      "Ġpass": 1030,
      "Ġalmost": 1031,
      "Ġenjoy": 1032,
      "Ġwin": 1033,
      "Tell": 1034,
      "Ġdinner": 1035,
      "ank": 1036,
      "Ġdiffic": 1037,
      "ny": 1038,
      "ever": 1039,
      "Everyone": 1040,
      "Ġsn": 1041,
      "Ġmine": 1042,
      "Ġonce": 1043,
      "Ġwaiting": 1044,
      "Ġbooks": 1045,
      "gether": 1046,
      "Ġdifferen": 1047,
      "Ġspend": 1048,
      "Ġfamily": 1049,
      "Ġkid": 1050,
      "Ġshouldn": 1051,
      "no": 1052,
      "Ġtonight": 1053,
      "used": 1054,
      "Ġsk": 1055,
      "Ġtogether": 1056,
      "Ġnews": 1057,
      "Ġcareful": 1058,
      "Ġhate": 1059,
      "Ġtow": 1060,
      "Ġwrite": 1061,
      "lt": 1062,
      "eep": 1063,
      "Ġchange": 1064,
      "ĠO": 1065,
      "Ġsl": 1066,
      "ese": 1067,
      "Ġmon": 1068,
      "Ġsomeone": 1069,
      "Ġtrying": 1070,
      "Ġaccident": 1071,
      "Ġkill": 1072,
      "here": 1073,
      "Ġworking": 1074,
      "Ġfelt": 1075,
      "Ġdrive": 1076,
      "Ġeach": 1077,
      "Ġforget": 1078,
      "Ġlikes": 1079,
      "Ġseems": 1080,
      "ys": 1081,
      "Ġend": 1082,
      "Ġbit": 1083,
      "Ġreal": 1084,
      "Ġlight": 1085,
      "Ġworld": 1086,
      "Ġlonger": 1087,
      "Ġphone": 1088,
      "Ġbir": 1089,
      "llow": 1090,
      "unch": 1091,
      "anger": 1092,
      "Ġcook": 1093,
      "Ġfr": 1094,
      "Ġtrust": 1095,
      "Ġeasy": 1096,
      "Ġdisc": 1097,
      "Ġboth": 1098,
      "ssible": 1099,
      "aught": 1100,
      "Ġpretty": 1101,
      "Ġimportant": 1102,
      "Ġdifficult": 1103,
      "Get": 1104,
      "Will": 1105,
      "Ġsick": 1106,
      "Ġ1": 1107,
      "Ġsound": 1108,
      "ured": 1109,
      "Ġdied": 1110,
      "Ġdress": 1111,
      "ided": 1112,
      "Ġstarted": 1113,
      "Give": 1114,
      "Ġrel": 1115,
      "Ġpolice": 1116,
      "med": 1117,
      "Ġwife": 1118,
      "Ġstation": 1119,
      "ient": 1120,
      "per": 1121,
      "hank": 1122,
      "Ġcho": 1123,
      "Take": 1124,
      "Ġap": 1125,
      "Ġgone": 1126,
      "Ġfinished": 1127,
      "ord": 1128,
      "Ġstand": 1129,
      "Does": 1130,
      "een": 1131,
      "Ġfavor": 1132,
      "Ġwindow": 1133,
      "Ġwear": 1134,
      "Ġunt": 1135,
      "Ġsmall": 1136,
      "Ġsurprised": 1137,
      "Ġmost": 1138,
      "ors": 1139,
      "Ġbor": 1140,
      "Ġcut": 1141,
      "Ġthose": 1142,
      "Thank": 1143,
      "Ġwom": 1144,
      "Ġmus": 1145,
      "fect": 1146,
      "Ġluck": 1147,
      "ason": 1148,
      "sent": 1149,
      "cept": 1150,
      "Ġsuc": 1151,
      "ub": 1152,
      "ged": 1153,
      "Ġlooked": 1154,
      "Ġquestions": 1155,
      "ia": 1156,
      "less": 1157,
      "ug": 1158,
      "Ġclass": 1159,
      "Ġmistake": 1160,
      "Ġfollow": 1161,
      "Ġforgot": 1162,
      "Ġquite": 1163,
      "Go": 1164,
      "ely": 1165,
      "led": 1166,
      "Ġlunch": 1167,
      "Ġconc": 1168,
      "ans": 1169,
      "Stop": 1170,
      "icy": 1171,
      "aper": 1172,
      "where": 1173,
      "ision": 1174,
      "Ġmonth": 1175,
      "zy": 1176,
      "Ġsat": 1177,
      "Ġfire": 1178,
      "iness": 1179,
      "Ġmom": 1180,
      "Ġexact": 1181,
      "Ġnu": 1182,
      "Ġnear": 1183,
      "Ġmovie": 1184,
      "Ġuntil": 1185,
      "Nob": 1186,
      "work": 1187,
      "ition": 1188,
      "Ġdanger": 1189,
      "Ġweather": 1190,
      "Ġoffice": 1191,
      "Ġmusic": 1192,
      "old": 1193,
      "Ġpark": 1194,
      "Ġstory": 1195,
      "Nobody": 1196,
      "Ġdi": 1197,
      "Ġfree": 1198,
      "pe": 1199,
      "Ġmakes": 1200,
      "In": 1201,
      "ned": 1202,
      "Ġfast": 1203,
      "ves": 1204,
      "Ġeveryone": 1205,
      "Ġsupposed": 1206,
      "Ġair": 1207,
      "ating": 1208,
      "ense": 1209,
      "Ġworry": 1210,
      "ĠCh": 1211,
      "Ġeyes": 1212,
      "Come": 1213,
      "app": 1214,
      "Ġson": 1215,
      "Ġsince": 1216,
      "Ġhair": 1217,
      "Ġdream": 1218,
      "Ġhigh": 1219,
      "upid": 1220,
      "Ġyours": 1221,
      "Ġago": 1222,
      "Ġhours": 1223,
      "Ġstupid": 1224,
      "Ġanybody": 1225,
      "ably": 1226,
      "Ġserious": 1227,
      "Ġhead": 1228,
      "Ġangry": 1229,
      "Ġsto": 1230,
      "Ġvisit": 1231,
      "Ġ\"": 1232,
      "Ġreading": 1233,
      "Ġresp": 1234,
      "ouble": 1235,
      "Ġtimes": 1236,
      "Ġcompl": 1237,
      "ĠTV": 1238,
      "ax": 1239,
      "Ġguess": 1240,
      "Ġbroke": 1241,
      "Ġdep": 1242,
      "Ġagree": 1243,
      "ier": 1244,
      "als": 1245,
      "Ġtri": 1246,
      "ne": 1247,
      "Ġhaving": 1248,
      "Ġminutes": 1249,
      "Ġexactly": 1250,
      "olog": 1251,
      "Ġent": 1252,
      "uss": 1253,
      "Ġem": 1254,
      "Ġhimself": 1255,
      "Ġadvice": 1256,
      "Ġsol": 1257,
      "Ġfell": 1258,
      "Ġplaying": 1259,
      "Ġkiss": 1260,
      "ple": 1261,
      "Ġusually": 1262,
      "Ġcons": 1263,
      "Our": 1264,
      "ib": 1265,
      "Ġref": 1266,
      "Ġcalled": 1267,
      "Ġafterno": 1268,
      "sh": 1269,
      "Ġsong": 1270,
      "Ġprob": 1271,
      "Ġexplain": 1272,
      "Ġcaught": 1273,
      "Ġfeeling": 1274,
      "Ġadd": 1275,
      "Ġafternoon": 1276,
      "Ġsays": 1277,
      "Ġfig": 1278,
      "ime": 1279,
      "Ġreason": 1280,
      "Ġlives": 1281,
      "ote": 1282,
      "Ġlaw": 1283,
      "Ġdecided": 1284,
      "Ġstudents": 1285,
      "As": 1286,
      "Ġsent": 1287,
      "Ġturned": 1288,
      "Ġtall": 1289,
      "Ġsafe": 1290,
      "Ġconf": 1291,
      "Ġinc": 1292,
      "alth": 1293,
      "Ġexc": 1294,
      "Ġclose": 1295,
      "Ġhands": 1296,
      "Ġclean": 1297,
      "Ġbicy": 1298,
      "Ġinterested": 1299,
      "man": 1300,
      "Ġtable": 1301,
      "Ġeating": 1302,
      "Just": 1303,
      "Ġreg": 1304,
      "Ġweren": 1305,
      "Ġallow": 1306,
      "Ġappre": 1307,
      "ized": 1308,
      "Ġprobably": 1309,
      "pit": 1310,
      "Ġran": 1311,
      "Ġcost": 1312,
      "Ġproud": 1313,
      "Ġinteresting": 1314,
      "Ġcry": 1315,
      "Ġappreci": 1316,
      "ject": 1317,
      "Ġob": 1318,
      "angu": 1319,
      "Ġglass": 1320,
      "Ġcountry": 1321,
      "Ġarrived": 1322,
      "Sh": 1323,
      "ph": 1324,
      "Ġtrouble": 1325,
      "Ġbicycle": 1326,
      "ention": 1327,
      "reet": 1328,
      "Everybody": 1329,
      "Ġtown": 1330,
      "Her": 1331,
      "air": 1332,
      "Ġfore": 1333,
      "meric": 1334,
      "Ġnumber": 1335,
      "Ġthr": 1336,
      "ross": 1337,
      "Ġthinking": 1338,
      "Ġdead": 1339,
      "Ġdisapp": 1340,
      "00": 1341,
      "Ġlar": 1342,
      "Ġgrow": 1343,
      "Ġdifferent": 1344,
      "du": 1345,
      "Ġbox": 1346,
      "ger": 1347,
      "Ġlangu": 1348,
      "Ġgame": 1349,
      "Ġchance": 1350,
      "irty": 1351,
      "pital": 1352,
      "Not": 1353,
      "ouch": 1354,
      "Ġbegin": 1355,
      "Ġcomm": 1356,
      "ched": 1357,
      "Ġret": 1358,
      "unk": 1359,
      "Ġsnow": 1360,
      "Ġthrough": 1361,
      "Ġinf": 1362,
      "Which": 1363,
      "Ġhomework": 1364,
      "Ġcatch": 1365,
      "Look": 1366,
      "Ġlater": 1367,
      "Ġ2": 1368,
      "Ġdaught": 1369,
      "These": 1370,
      "Ġtele": 1371,
      "Ġdel": 1372,
      "Ġquick": 1373,
      "mmer": 1374,
      "pl": 1375,
      "int": 1376,
      "Ġadvised": 1377,
      "Ġsecret": 1378,
      "Ġage": 1379,
      "uter": 1380,
      "vel": 1381,
      "Ġfull": 1382,
      "ions": 1383,
      ".\"": 1384,
      "vent": 1385,
      "Ġpossible": 1386,
      "Ġappreciate": 1387,
      "ical": 1388,
      "Keep": 1389,
      "cc": 1390,
      "Ġbab": 1391,
      "Ġagainst": 1392,
      "Ġoutside": 1393,
      "ately": 1394,
      "ither": 1395,
      "Ġliving": 1396,
      "Ġsaying": 1397,
      "Ġfinish": 1398,
      "ange": 1399,
      "Ġcoll": 1400,
      "Ġfavorite": 1401,
      "ward": 1402,
      "ison": 1403,
      "Ġcra": 1404,
      "Ġthen": 1405,
      "Ġele": 1406,
      "oking": 1407,
      "ĠAmeric": 1408,
      "te": 1409,
      "Ġmil": 1410,
      "Ġneeds": 1411,
      "Ġcomputer": 1412,
      "Ġsun": 1413,
      "Ġkept": 1414,
      "Ġbecome": 1415,
      "aw": 1416,
      "Ġtree": 1417,
      "ont": 1418,
      "Ġtrave": 1419,
      "Ġclot": 1420,
      "Ġbusiness": 1421,
      "Ġmoment": 1422,
      "Ġter": 1423,
      "Ġwine": 1424,
      "ustr": 1425,
      "ience": 1426,
      "Ġtaking": 1427,
      "Ġlie": 1428,
      "Ġshort": 1429,
      "lfriend": 1430,
      "Ġstrong": 1431,
      "ĠJapanese": 1432,
      "Ġhungry": 1433,
      "br": 1434,
      "onday": 1435,
      "ower": 1436,
      "Ġshoes": 1437,
      "Ġtrip": 1438,
      "Ġcomplain": 1439,
      "ces": 1440,
      "hind": 1441,
      "Ġexam": 1442,
      "Ġgirlfriend": 1443,
      "Ġbehind": 1444,
      "Ġhealth": 1445,
      "irt": 1446,
      "Ġpromise": 1447,
      "Ġborn": 1448,
      "Ġmess": 1449,
      "Ġbuild": 1450,
      "Ġmaking": 1451,
      "Ġpen": 1452,
      "Ġpri": 1453,
      "Ġdoll": 1454,
      "Ġwrit": 1455,
      "Ġaccept": 1456,
      "Ġdiscuss": 1457,
      "Ġdaughter": 1458,
      "fer": 1459,
      "umb": 1460,
      "Ġteam": 1461,
      "ming": 1462,
      "ative": 1463,
      "Ġolder": 1464,
      "Ġcheck": 1465,
      "Ġperfect": 1466,
      "ĠMonday": 1467,
      "ying": 1468,
      "Ġdie": 1469,
      "Ġinter": 1470,
      "imes": 1471,
      "Ġexpens": 1472,
      "Ġguy": 1473,
      "Ġcomplet": 1474,
      "Ġlose": 1475,
      "aken": 1476,
      "ressed": 1477,
      "Ġwoman": 1478,
      "Mary": 1479,
      "Ġcam": 1480,
      "Ġfive": 1481,
      "Ġhos": 1482,
      "ets": 1483,
      "Ġsummer": 1484,
      "Ġrich": 1485,
      "Ġneeded": 1486,
      "Maybe": 1487,
      "Ġbirth": 1488,
      "Ġchoice": 1489,
      "fast": 1490,
      "ugh": 1491,
      "rew": 1492,
      "Ġred": 1493,
      "Ġworks": 1494,
      "Ġstayed": 1495,
      "Ġpaid": 1496,
      "Ġlaugh": 1497,
      "Ġapolog": 1498,
      "Ġhor": 1499,
      "Ġtea": 1500,
      "Ġeaten": 1501,
      "Ġpresent": 1502,
      "Ġorder": 1503,
      "Ġbaby": 1504,
      "iet": 1505,
      "Ġcompany": 1506,
      "dd": 1507,
      "Ġpat": 1508,
      "erv": 1509,
      "Ġate": 1510,
      "Ġhurry": 1511,
      "ended": 1512,
      "Ġfail": 1513,
      "Ġdecision": 1514,
      "ertain": 1515,
      "Ġclothes": 1516,
      "Ġhospital": 1517,
      "not": 1518,
      "Ġsuit": 1519,
      "ual": 1520,
      "Ġdark": 1521,
      "Ġmed": 1522,
      "Ġface": 1523,
      "Ġdeal": 1524,
      "Ġbreakfast": 1525,
      "Ġcity": 1526,
      "Ġfish": 1527,
      "Ġpie": 1528,
      "Ġpick": 1529,
      "Ġarm": 1530,
      "Ġadm": 1531,
      "Ġpoint": 1532,
      "Ġdisappoin": 1533,
      "nis": 1534,
      "vers": 1535,
      "Ġseat": 1536,
      "ĠOK": 1537,
      "Ġsugg": 1538,
      "Ġkey": 1539,
      "Ġcor": 1540,
      "Ġins": 1541,
      "Ġtennis": 1542,
      "ustral": 1543,
      "Ġtick": 1544,
      "Ġbeer": 1545,
      "ular": 1546,
      "Ġprep": 1547,
      "Ġfunny": 1548,
      "Ġquickly": 1549,
      "Ġcrazy": 1550,
      "ike": 1551,
      "uation": 1552,
      "Ġsal": 1553,
      "Ġeverybody": 1554,
      "ps": 1555,
      "Ġbag": 1556,
      "Ġgun": 1557,
      "Ġquit": 1558,
      "aur": 1559,
      "ring": 1560,
      "Ġinvited": 1561,
      "Ġexpensive": 1562,
      "Ġdist": 1563,
      "Ġfix": 1564,
      "Ġlarge": 1565,
      "ustralia": 1566,
      "Ġtouch": 1567,
      "ash": 1568,
      "leas": 1569,
      "Ġwatching": 1570,
      "eal": 1571,
      "Ġfall": 1572,
      "Ġass": 1573,
      "Ġasleep": 1574,
      "Ġart": 1575,
      "Ġchar": 1576,
      "port": 1577,
      "ĠP": 1578,
      "ush": 1579,
      "Ġstore": 1580,
      "Ġstreet": 1581,
      "Ġgrand": 1582,
      "bed": 1583,
      "ken": 1584,
      "ling": 1585,
      "Ġcup": 1586,
      "ump": 1587,
      "Ġscared": 1588,
      "Ġwearing": 1589,
      "Ġbuilding": 1590,
      "az": 1591,
      "Ġsign": 1592,
      "Ġthank": 1593,
      "Ġsituation": 1594,
      "Ġdet": 1595,
      "Ġheart": 1596,
      "Ġcomes": 1597,
      "To": 1598,
      "Ġill": 1599,
      "Ġnecess": 1600,
      "Ġdrunk": 1601,
      "Ġbring": 1602,
      "ĠAustralia": 1603,
      "Ġhotel": 1604,
      "ween": 1605,
      "Ġcannot": 1606,
      "Ġspent": 1607,
      "Ġdeath": 1608,
      "Ġquiet": 1609,
      "Ġwhole": 1610,
      "iction": 1611,
      "Ġsecond": 1612,
      "Ġlucky": 1613,
      "Ġhit": 1614,
      "Ġneigh": 1615,
      "Ġworried": 1616,
      "Ġworth": 1617,
      "itten": 1618,
      "Ġrestaur": 1619,
      "Ġkids": 1620,
      "Ġinform": 1621,
      "Ġmilk": 1622,
      "Ġneighb": 1623,
      "Ġrestaurant": 1624,
      "Ġbegan": 1625,
      "Ġreport": 1626,
      "Ġminute": 1627,
      "Try": 1628,
      "Ġes": 1629,
      "Ġgoes": 1630,
      "pping": 1631,
      "ird": 1632,
      "Ġris": 1633,
      "Ġboss": 1634,
      "Ġlived": 1635,
      "30": 1636,
      "Somet": 1637,
      "Ġfight": 1638,
      "Ġleg": 1639,
      "Ġproblems": 1640,
      "ness": 1641,
      "set": 1642,
      "Ġwall": 1643,
      "Ġset": 1644,
      "Ġless": 1645,
      "Here": 1646,
      "arth": 1647,
      "Ġothers": 1648,
      "Ġbecame": 1649,
      "ider": 1650,
      "Ġspe": 1651,
      "Ġtelling": 1652,
      "ully": 1653,
      "room": 1654,
      "ceed": 1655,
      "Ġlock": 1656,
      "Ġbetween": 1657,
      "Everything": 1658,
      "Ġchanged": 1659,
      "Ġswe": 1660,
      "fort": 1661,
      "Ġsix": 1662,
      "ates": 1663,
      "Ġteach": 1664,
      "Ġriver": 1665,
      "Ġhandle": 1666,
      "Ġweekend": 1667,
      "Ġclear": 1668,
      "Ġstudying": 1669,
      "Ġcake": 1670,
      "Ġpaper": 1671,
      "ott": 1672,
      "unday": 1673,
      "Ġfront": 1674,
      "Ġlanguage": 1675,
      "Ġbirthday": 1676,
      "aged": 1677,
      "Ġdro": 1678,
      "ĠSunday": 1679,
      "Ġkilled": 1680,
      "by": 1681,
      "cl": 1682,
      "fully": 1683,
      "ove": 1684,
      "rist": 1685,
      "Ġtakes": 1686,
      "Ġborrow": 1687,
      "oose": 1688,
      "Ġwhich": 1689,
      "Ġext": 1690,
      "Ġconv": 1691,
      "Ġwrote": 1692,
      "Ġclosed": 1693,
      "Ġallowed": 1694,
      "Ġcertain": 1695,
      "Ġliked": 1696,
      "Ġstopped": 1697,
      "ract": 1698,
      "Ġrather": 1699,
      "Ġexper": 1700,
      "Many": 1701,
      "Was": 1702,
      "Ġsim": 1703,
      "Ġtalked": 1704,
      "Ġprison": 1705,
      "Ġmistakes": 1706,
      "Ġmissed": 1707,
      "Ġhelped": 1708,
      "Ġhappening": 1709,
      "Ġprefer": 1710,
      "Ġexpl": 1711,
      "Ġstrange": 1712,
      "Ġesc": 1713,
      "ined": 1714,
      "Ġhalf": 1715,
      "Ġgets": 1716,
      "Ġtrans": 1717,
      "itting": 1718,
      "Ġflo": 1719,
      "Ġsuccess": 1720,
      "Ġnecessary": 1721,
      "ĠG": 1722,
      "Ġearth": 1723,
      "Ġwords": 1724,
      "ead": 1725,
      "ĠN": 1726,
      "onest": 1727,
      "Ġknown": 1728,
      "Ġworked": 1729,
      "One": 1730,
      "era": 1731,
      "Ġpleas": 1732,
      "Ġhid": 1733,
      "Ġcoat": 1734,
      "Ġspeaking": 1735,
      "Ġdangerous": 1736,
      "At": 1737,
      "lic": 1738,
      "Ġsense": 1739,
      "ĠIt": 1740,
      "Ġforward": 1741,
      "Ġjoin": 1742,
      "Ġalong": 1743,
      "Ġdiction": 1744,
      "vening": 1745,
      "Ġcour": 1746,
      "Ġupset": 1747,
      "Ġsuggest": 1748,
      "ball": 1749,
      "Ġow": 1750,
      "Ġevening": 1751,
      "Ġsell": 1752,
      "Ġfigured": 1753,
      "Ġterri": 1754,
      "Ġcop": 1755,
      "Ġcase": 1756,
      "Ġfut": 1757,
      "Ġimag": 1758,
      "Ġspeaks": 1759,
      "Ġfinally": 1760,
      "Ġopin": 1761,
      "Ġexpected": 1762,
      "airs": 1763,
      "mas": 1764,
      "reed": 1765,
      "Ġpian": 1766,
      "Ġthirty": 1767,
      "ics": 1768,
      "Were": 1769,
      "Ġbrought": 1770,
      "io": 1771,
      "Ġbeach": 1772,
      "Ġvac": 1773,
      "ages": 1774,
      "Ġblack": 1775,
      "Ġplane": 1776,
      "fied": 1777,
      "Ġgard": 1778,
      "Ġits": 1779,
      "ored": 1780,
      "Ġsmoking": 1781,
      "cial": 1782,
      "phone": 1783,
      "Ġdictionary": 1784,
      "oub": 1785,
      "rect": 1786,
      "owers": 1787,
      "Ġhappens": 1788,
      "Ġoffer": 1789,
      "Ġleast": 1790,
      "Ġcompletely": 1791,
      "ristmas": 1792,
      "ding": 1793,
      "Ġtax": 1794,
      "Ġmen": 1795,
      "Ġrunning": 1796,
      "Ġbroken": 1797,
      "Ġgarden": 1798,
      "Ġrid": 1799,
      "Ġsold": 1800,
      "Ġloves": 1801,
      "Ġsmell": 1802,
      "Ġmove": 1803,
      "Ġsucceed": 1804,
      "Ġfuture": 1805,
      "sel": 1806,
      "enty": 1807,
      "Ġrul": 1808,
      "Ġleaving": 1809,
      "Ġdisappointed": 1810,
      "Ġinst": 1811,
      "Ġwalked": 1812,
      "Someone": 1813,
      "Ġslow": 1814,
      "Ġdollars": 1815,
      "Ġdance": 1816,
      "aster": 1817,
      "uit": 1818,
      "Ġtest": 1819,
      "Ġroad": 1820,
      "Ġfamous": 1821,
      "Ġcou": 1822,
      "ift": 1823,
      "Ġnovel": 1824,
      "Ġcol": 1825,
      "ations": 1826,
      "Ġescap": 1827,
      "ric": 1828,
      "ule": 1829,
      "Ġhold": 1830,
      "Ġsub": 1831,
      "Ġwritten": 1832,
      "Ġreturn": 1833,
      "Ġrisk": 1834,
      "Ch": 1835,
      "av": 1836,
      "iv": 1837,
      "Ġtreat": 1838,
      "Ġpun": 1839,
      "Ġlibr": 1840,
      "uring": 1841,
      "Ġseeing": 1842,
      "ility": 1843,
      "Ġdogs": 1844,
      "Ġdrinking": 1845,
      "Ġdeser": 1846,
      "Ġlawy": 1847,
      "Un": 1848,
      "Ġaff": 1849,
      "ffic": 1850,
      "Ġswimming": 1851,
      "Ġmedic": 1852,
      "cy": 1853,
      "rell": 1854,
      "Ġbill": 1855,
      "Ġweight": 1856,
      "Ġactually": 1857,
      "Thanks": 1858,
      "Aren": 1859,
      "dered": 1860,
      "Ġwhether": 1861,
      "Ġsomewhere": 1862,
      "Ġchair": 1863,
      "Ġbird": 1864,
      "Ġumb": 1865,
      "Ġbank": 1866,
      "Ġbott": 1867,
      "Ġnerv": 1868,
      "ries": 1869,
      "Ġtem": 1870,
      "Ġlearned": 1871,
      "Ġcamera": 1872,
      "Ġinformation": 1873,
      "Ġopinion": 1874,
      "Ġpiano": 1875,
      "selves": 1876,
      "Ġumbrell": 1877,
      "Ġnervous": 1878,
      "band": 1879,
      "Ġav": 1880,
      "ination": 1881,
      "Ġfine": 1882,
      "Ġnoise": 1883,
      "Ġaddress": 1884,
      "Ġcrying": 1885,
      "Ġrules": 1886,
      "Ġtaken": 1887,
      "Ġsmoke": 1888,
      "ogn": 1889,
      "Ġrecogn": 1890,
      "Ġapologize": 1891,
      "Ġlibrary": 1892,
      "People": 1893,
      "pect": 1894,
      "Ġpop": 1895,
      "Ġopp": 1896,
      "usband": 1897,
      "road": 1898,
      "ction": 1899,
      "Ġhasn": 1900,
      "Ġflowers": 1901,
      "Stay": 1902,
      "Ġfoot": 1903,
      "Ġconsider": 1904,
      "Ġwriting": 1905,
      "Ġfat": 1906,
      "Ġwaste": 1907,
      "Ġsatis": 1908,
      "clock": 1909,
      "rem": 1910,
      "Ġpub": 1911,
      "Ġhonest": 1912,
      "Ġhusband": 1913,
      "Ġabs": 1914,
      "Ġsomebody": 1915,
      "Ġprot": 1916,
      "Ġpainting": 1917,
      "Ġfloor": 1918,
      "Ġguit": 1919,
      "Ġpoor": 1920,
      "Ġsad": 1921,
      "Ġfool": 1922,
      "Ġrece": 1923,
      "Ġrad": 1924,
      "ived": 1925,
      "Ġsmart": 1926,
      "ountain": 1927,
      "Ġattention": 1928,
      "Ġumbrella": 1929,
      "Ġgen": 1930,
      "Ġalive": 1931,
      "Now": 1932,
      "Ġbath": 1933,
      "Ġstar": 1934,
      "right": 1935,
      "Ġuncle": 1936,
      "che": 1937,
      "Ġtast": 1938,
      "Ġanim": 1939,
      "ĠChristmas": 1940,
      "Ġtravel": 1941,
      "Ġlawyer": 1942,
      "Ġguitar": 1943,
      "head": 1944,
      "rees": 1945,
      "Ġloved": 1946,
      "Ġphot": 1947,
      "ude": 1948,
      "Ġlistening": 1949,
      "Ġnewsp": 1950,
      "Nothing": 1951,
      "Ġowe": 1952,
      "Am": 1953,
      "oh": 1954,
      "Ġsil": 1955,
      "Ġcal": 1956,
      "ently": 1957,
      "Ġshowed": 1958,
      "Ġsolve": 1959,
      "Ġside": 1960,
      "Ġdoub": 1961,
      "Ġclim": 1962,
      "Ġguys": 1963,
      "Ġsleeping": 1964,
      "Put": 1965,
      "Ġdate": 1966,
      "Ġbother": 1967,
      "Ġship": 1968,
      "Ġthinks": 1969,
      "Ġwhite": 1970,
      "ager": 1971,
      "Ġopened": 1972,
      "Ġdesk": 1973,
      "Ġforeign": 1974,
      "Ġpatient": 1975,
      "fter": 1976,
      "friend": 1977,
      "ution": 1978,
      "Ġimmed": 1979,
      "Ġrespons": 1980,
      "Ġregret": 1981,
      "Ġimmedi": 1982,
      "way": 1983,
      "Ġduring": 1984,
      "Ġmountain": 1985,
      "ustom": 1986,
      "ames": 1987,
      "Ġcard": 1988,
      "Ġgirls": 1989,
      "Ġcorrect": 1990,
      "Ġvacation": 1991,
      "Ġsus": 1992,
      "oned": 1993,
      "ishing": 1994,
      "Ġpe": 1995,
      "Ġhum": 1996,
      "Ġshot": 1997,
      "Ġspee": 1998,
      "Ġprop": 1999,
      "Ġarg": 2000,
      "Ġblame": 2001,
      "Ġsuppose": 2002,
      "oky": 2003,
      "Ġmeans": 2004,
      "Ġticket": 2005,
      "Ġmedicine": 2006,
      "ĠH": 2007,
      "Ġmis": 2008,
      "erg": 2009,
      "Ġbeha": 2010,
      "atur": 2011,
      "Ġheav": 2012,
      "olved": 2013,
      "Ġkeys": 2014,
      "Ġradio": 2015,
      "Any": 2016,
      "ĠCan": 2017,
      "Ġce": 2018,
      "Ġtra": 2019,
      "Ġwilling": 2020,
      "Ġsometimes": 2021,
      "Ġfair": 2022,
      "Ġshopping": 2023,
      "Ġprepared": 2024,
      "After": 2025,
      "ege": 2026,
      "ĠL": 2027,
      "Ġign": 2028,
      "Ġeither": 2029,
      "Ġwarm": 2030,
      "Ġcollege": 2031,
      "Ġhorse": 2032,
      "Ġpiece": 2033,
      "Ġtransl": 2034,
      "okyo": 2035,
      "Ġve": 2036,
      "Ġlying": 2037,
      "Ġpost": 2038,
      "Ġinj": 2039,
      "Ġabroad": 2040,
      "Ġvo": 2041,
      "Ġsurv": 2042,
      "Ġmessage": 2043,
      "Ġspeech": 2044,
      "Ġsy": 2045,
      "Ġsle": 2046,
      "Ġsudd": 2047,
      "Ġjoke": 2048,
      "Ġspoke": 2049,
      "Ġbelong": 2050,
      "Ġcontin": 2051,
      "Ġapart": 2052,
      "Ġconcert": 2053,
      "Ġsudden": 2054,
      "vious": 2055,
      "Ġbreat": 2056,
      "Ġasking": 2057,
      "Ġappro": 2058,
      "Ġboyfriend": 2059,
      "Ġsounds": 2060,
      "ĠChin": 2061,
      "Ġtelephone": 2062,
      "Ġcolor": 2063,
      "bit": 2064,
      "ial": 2065,
      "Ġfre": 2066,
      "Ġshut": 2067,
      "Ġsave": 2068,
      "ilt": 2069,
      "Ġplans": 2070,
      "Ġpromised": 2071,
      "Ġarrive": 2072,
      "Ġsend": 2073,
      "Ġtop": 2074,
      "Ġwaited": 2075,
      "Ġearl": 2076,
      "Ġglasses": 2077,
      "Ġafford": 2078,
      "Both": 2079,
      "Ġty": 2080,
      "rol": 2081,
      "Those": 2082,
      "Ġeng": 2083,
      "ĠTokyo": 2084,
      "Ġdifference": 2085,
      "Ġdressed": 2086,
      "Something": 2087,
      "Ġpur": 2088,
      "Ġann": 2089,
      "Ġshirt": 2090,
      "Ġacross": 2091,
      "Ġpictures": 2092,
      "Ġpriv": 2093,
      "Ġimmediately": 2094,
      "cent": 2095,
      "so": 2096,
      "Ġcross": 2097,
      "Ġfact": 2098,
      "outh": 2099,
      "Ġcarefully": 2100,
      "Ġprice": 2101,
      "Ġdeep": 2102,
      "ened": 2103,
      "ature": 2104,
      "ained": 2105,
      "Ġvol": 2106,
      "Ġapple": 2107,
      "Ġmach": 2108,
      "Ġstorm": 2109,
      "Ġharder": 2110,
      "Ġimpo": 2111,
      "Ġshower": 2112,
      "Ġmovies": 2113,
      "gar": 2114,
      "Ġice": 2115,
      "Ġwake": 2116,
      "Ġfour": 2117,
      "Ġpast": 2118,
      "Ġinside": 2119,
      "ade": 2120,
      "Ġgiven": 2121,
      "Ġdriving": 2122,
      "Ġinvolved": 2123,
      "Ġspecial": 2124,
      "oup": 2125,
      "Ġfired": 2126,
      "Ġlend": 2127,
      "Ġemb": 2128,
      "Ġegg": 2129,
      "veral": 2130,
      "Ġwhatever": 2131,
      "Ġra": 2132,
      "Ġride": 2133,
      "Ġunl": 2134,
      "Ġseveral": 2135,
      "Ġagreed": 2136,
      "Ġpartic": 2137,
      "Ġfault": 2138,
      "Ġperm": 2139,
      "Ġsatisfied": 2140,
      "Ġimpossible": 2141,
      "On": 2142,
      "Since": 2143,
      "arr": 2144,
      "Ġthrow": 2145,
      "Ġind": 2146,
      "Ġrent": 2147,
      "pty": 2148,
      "Ġrespect": 2149,
      "Ġprotect": 2150,
      "Ex": 2151,
      "gan": 2152,
      "ĠR": 2153,
      "Ġtie": 2154,
      "rodu": 2155,
      "Ġworse": 2156,
      "Ġarrest": 2157,
      "Ġpres": 2158,
      "Ġwomen": 2159,
      "Ġkissed": 2160,
      "Ġcouple": 2161,
      "come": 2162,
      "dred": 2163,
      "Ġahead": 2164,
      "ins": 2165,
      "Ġdan": 2166,
      "ator": 2167,
      "Ġchoose": 2168,
      "Ġclos": 2169,
      "ĠFr": 2170,
      "Ġearlier": 2171,
      "Sorry": 2172,
      "ges": 2173,
      "ze": 2174,
      "ĠYou": 2175,
      "Ġbar": 2176,
      "Ġpower": 2177,
      "Ġshop": 2178,
      "Ġring": 2179,
      "ief": 2180,
      "Ġcarry": 2181,
      "Ġtwice": 2182,
      "ument": 2183,
      "Ġraining": 2184,
      "Ġenjoyed": 2185,
      "Ġcute": 2186,
      "Ġfigure": 2187,
      "ĠCanad": 2188,
      "vision": 2189,
      "reen": 2190,
      "Ġmid": 2191,
      "iday": 2192,
      "Ġjump": 2193,
      "Ġplayed": 2194,
      "Ġeasily": 2195,
      "Ġslept": 2196,
      "An": 2197,
      "iving": 2198,
      "uri": 2199,
      "ĠK": 2200,
      "Ġide": 2201,
      "omp": 2202,
      "Ġlake": 2203,
      "Ġmem": 2204,
      "Ġweird": 2205,
      "alent": 2206,
      "Ġanywhere": 2207,
      "Ġtraffic": 2208,
      "Ġheld": 2209,
      "ants": 2210,
      "Ġdem": 2211,
      "ortun": 2212,
      "Isn": 2213,
      "Ġboat": 2214,
      "Ġblue": 2215,
      "Ġhardly": 2216,
      "Ġpassed": 2217,
      "Ġmail": 2218,
      "Ġbur": 2219,
      "idge": 2220,
      "oof": 2221,
      "icated": 2222,
      "stairs": 2223,
      "Ġlikely": 2224,
      "itted": 2225,
      "Ġdecide": 2226,
      "Ġconcer": 2227,
      "Ġdepend": 2228,
      "Ġempty": 2229,
      "Ġmachine": 2230,
      "land": 2231,
      "Ġur": 2232,
      "ities": 2233,
      "Ġhol": 2234,
      "Ġrequ": 2235,
      "ists": 2236,
      "Ġcond": 2237,
      "Ġintrodu": 2238,
      "Ġstuff": 2239,
      "Ġstaying": 2240,
      "Ġweeks": 2241,
      "Ġboys": 2242,
      "Ġsinging": 2243,
      "Ġrelax": 2244,
      "Show": 2245,
      "Ġtelevision": 2246,
      "Ġneighbor": 2247,
      "So": 2248,
      "cer": 2249,
      "cil": 2250,
      "Ġma": 2251,
      "Ġmag": 2252,
      "Ġcur": 2253,
      "Ġline": 2254,
      "Ġmeat": 2255,
      "Ġlied": 2256,
      "Ġuni": 2257,
      "Ġterrible": 2258,
      "ĠD": 2259,
      "Ġir": 2260,
      "Ġpull": 2261,
      "eth": 2262,
      "Ġenem": 2263,
      "Ġpress": 2264,
      "Ġattend": 2265,
      "Ġski": 2266,
      "Ġexperience": 2267,
      "Make": 2268,
      "oid": 2269,
      "ton": 2270,
      "Ġbas": 2271,
      "Ġfit": 2272,
      "ices": 2273,
      "uty": 2274,
      "arket": 2275,
      "Ġsurprise": 2276,
      "Ġwonderful": 2277,
      "Ġhundred": 2278,
      "Ġ19": 2279,
      "Ġfollowed": 2280,
      "Ġairport": 2281,
      "Ġnewspaper": 2282,
      "Turn": 2283,
      "Wait": 2284,
      "dle": 2285,
      "Ġamb": 2286,
      "Ġalso": 2287,
      "aked": 2288,
      "Ġgotten": 2289,
      "Ġlaug": 2290,
      "Ġmarry": 2291,
      "Ġdriver": 2292,
      "Ġyounger": 2293,
      "Ġrefused": 2294,
      "Ġelect": 2295,
      "ĠAmerican": 2296,
      "fortable": 2297,
      "Ġpublic": 2298,
      "Ġinjured": 2299,
      "Ġideas": 2300,
      "Ġlaughed": 2301,
      "Lea": 2302,
      "ĠY": 2303,
      "ĠSt": 2304,
      "ises": 2305,
      "Ġfly": 2306,
      "erc": 2307,
      "Ġocc": 2308,
      "idence": 2309,
      "iling": 2310,
      "orts": 2311,
      "Ġdrank": 2312,
      "Ġeye": 2313,
      "Ġwinter": 2314,
      "ibility": 2315,
      "Ġbeginning": 2316,
      "Ġheavy": 2317,
      "Ġembarr": 2318,
      "Ġembarrass": 2319,
      "rup": 2320,
      "ued": 2321,
      "Ġden": 2322,
      "Ġcrow": 2323,
      "ane": 2324,
      "Ġfishing": 2325,
      "Ġgift": 2326,
      "Ġpack": 2327,
      "Ġherself": 2328,
      "Should": 2329,
      "Ġconvin": 2330,
      "Ġanimals": 2331,
      "For": 2332,
      "father": 2333,
      "Ġz": 2334,
      "erm": 2335,
      "ery": 2336,
      "Ġstra": 2337,
      "ults": 2338,
      "Ġposs": 2339,
      "Ġwalking": 2340,
      "Ġshock": 2341,
      "Ġcontrol": 2342,
      "Ġpainted": 2343,
      "Ġshare": 2344,
      "Ġcooking": 2345,
      "Ġfailed": 2346,
      "Bring": 2347,
      "Even": 2348,
      "ef": 2349,
      "uro": 2350,
      "Ġsitting": 2351,
      "Ġbase": 2352,
      "ots": 2353,
      "iced": 2354,
      "Ġliar": 2355,
      "Ġbuilt": 2356,
      "Ġleaves": 2357,
      "Ġmoved": 2358,
      "Ġsupport": 2359,
      "Ġbottle": 2360,
      "Ġveget": 2361,
      "iol": 2362,
      "ugg": 2363,
      "ushed": 2364,
      "Ġplenty": 2365,
      "Ġlos": 2366,
      "ĠAmerica": 2367,
      "Ġsuitc": 2368,
      "ealous": 2369,
      "col": 2370,
      "ging": 2371,
      "hood": 2372,
      "rit": 2373,
      "Ġwood": 2374,
      "Ġsight": 2375,
      "Ġduty": 2376,
      "Ġbody": 2377,
      "ayed": 2378,
      "Ġwel": 2379,
      "Ġjealous": 2380,
      "Ġabsent": 2381,
      "olen": 2382,
      "Ġlead": 2383,
      "Ġremind": 2384,
      "Ġgrad": 2385,
      "Ġsentence": 2386,
      "Ġlaughing": 2387,
      "Ġpropos": 2388,
      "Leave": 2389,
      "Ġought": 2390,
      "Ġdire": 2391,
      "Ġland": 2392,
      "ering": 2393,
      "Ġmeant": 2394,
      "Ġev": 2395,
      "vern": 2396,
      "Ġknife": 2397,
      "iled": 2398,
      "Ġorgan": 2399,
      "useum": 2400,
      "Ġseemed": 2401,
      "Ġaccused": 2402,
      "Ġgrandfather": 2403,
      "ĠCanadian": 2404,
      "Ġconvinced": 2405,
      "Ġtaught": 2406,
      "Ġsand": 2407,
      "Ġball": 2408,
      "Ġlad": 2409,
      "Ġhang": 2410,
      "Ġeight": 2411,
      "icious": 2412,
      "ached": 2413,
      "Ġhadn": 2414,
      "Didn": 2415,
      "Ġimpressed": 2416,
      "Ġcharge": 2417,
      "Ġdetail": 2418,
      "Ġtaxi": 2419,
      "Ġrecognize": 2420,
      "Ġed": 2421,
      "Ġtot": 2422,
      "Ġinno": 2423,
      "Ġkit": 2424,
      "Ġstolen": 2425,
      "Ġsuper": 2426,
      "Ġplays": 2427,
      "iew": 2428,
      "Ġprodu": 2429,
      "olut": 2430,
      "Ġapples": 2431,
      "ploy": 2432,
      "Ġcondition": 2433,
      "cing": 2434,
      "od": 2435,
      "Ġdest": 2436,
      "Ġgovern": 2437,
      "aded": 2438,
      "Ġviol": 2439,
      "Ġdraw": 2440,
      "ission": 2441,
      "Ġcats": 2442,
      "Ġsky": 2443,
      "Ġseriously": 2444,
      "Ġadmit": 2445,
      "ĠNew": 2446,
      "Ġdoubt": 2447,
      "Ġwed": 2448,
      "Ġmur": 2449,
      "Ġmuseum": 2450,
      "ards": 2451,
      "Ġfeed": 2452,
      "Whose": 2453,
      "Ġplanning": 2454,
      "Ġstudied": 2455,
      "Ġforgive": 2456,
      "Ġfeelings": 2457,
      "Ġpencil": 2458,
      "Today": 2459,
      "Ġextrem": 2460,
      "con": 2461,
      "ior": 2462,
      "Ġtrees": 2463,
      "hamed": 2464,
      "Ġlone": 2465,
      "Ġloud": 2466,
      "atch": 2467,
      "Ġashamed": 2468,
      "Ġsugar": 2469,
      "Ġval": 2470,
      "Ġordered": 2471,
      "Ġfruit": 2472,
      "Ġexplan": 2473,
      "Ġabsolut": 2474,
      "chen": 2475,
      "Ġeggs": 2476,
      "Ġkitchen": 2477,
      "Ġwedding": 2478,
      "book": 2479,
      "Ġyell": 2480,
      "Ġfac": 2481,
      "arter": 2482,
      "Ġprog": 2483,
      "Ġblood": 2484,
      "oint": 2485,
      "Ġrealize": 2486,
      "Ġmonths": 2487,
      "Ġdeserve": 2488,
      "Ġcrowd": 2489,
      "cri": 2490,
      "mp": 2491,
      "rap": 2492,
      "ĠW": 2493,
      "oun": 2494,
      "Ġthough": 2495,
      "illed": 2496,
      "Ġhist": 2497,
      "ili": 2498,
      "Ġdeb": 2499,
      "Ġfeels": 2500,
      "Ġaware": 2501,
      "Ġblind": 2502,
      "Ġpair": 2503,
      "Ġpolit": 2504,
      "Ġwarned": 2505,
      "Ġtaller": 2506,
      "Has": 2507,
      "time": 2508,
      "Ġopt": 2509,
      "att": 2510,
      "Ġsaved": 2511,
      "ousand": 2512,
      "Ġsooner": 2513,
      "Ġsimple": 2514,
      "Ġopportun": 2515,
      "Ġlonely": 2516,
      "Ġfing": 2517,
      "Ġfaster": 2518,
      "Ġstick": 2519,
      "Ġseven": 2520,
      "ounded": 2521,
      "Ġbutton": 2522,
      "Ġsmile": 2523,
      "Ġpersonal": 2524,
      "Ġpaint": 2525,
      "ohn": 2526,
      "Ġarrested": 2527,
      "urope": 2528,
      "Ġproposal": 2529,
      "Most": 2530,
      "Sp": 2531,
      "ĠUn": 2532,
      "vest": 2533,
      "Ġnorm": 2534,
      "ats": 2535,
      "Ġproject": 2536,
      "Ġawake": 2537,
      "Ġappear": 2538,
      "Ġaccount": 2539,
      "Ġsleepy": 2540,
      "sidered": 2541,
      "Ġexpecting": 2542,
      "Ġstole": 2543,
      "Ġgener": 2544,
      "Ġapartment": 2545,
      "Ġgovernment": 2546,
      "Ġbread": 2547,
      "ific": 2548,
      "Ġdef": 2549,
      "Ġprof": 2550,
      "Ġcalling": 2551,
      "ume": 2552,
      "arely": 2553,
      "Ġobvious": 2554,
      "Ġpopular": 2555,
      "Ġreceived": 2556,
      "Ġstood": 2557,
      "Ġworst": 2558,
      "urch": 2559,
      "Ġnobody": 2560,
      "Ġbuying": 2561,
      "Ġpersu": 2562,
      "Ġmissing": 2563,
      "God": 2564,
      "Ġsweet": 2565,
      "Ġescape": 2566,
      "Ġvoice": 2567,
      "Ġparticular": 2568,
      "urious": 2569,
      "Ġextremely": 2570,
      "Ġexplanation": 2571,
      "Ġhistory": 2572,
      "Ġcool": 2573,
      "Ġforced": 2574,
      "ppy": 2575,
      "Ġteeth": 2576,
      "Ġhelping": 2577,
      "Ġimpro": 2578,
      "Ġsched": 2579,
      "Ġflu": 2580,
      "oken": 2581,
      "Ġboring": 2582,
      "Ġdivor": 2583,
      "Ġcommon": 2584,
      "Ġcalm": 2585,
      "Ġsuddenly": 2586,
      "Ġbreath": 2587,
      "Ġdemand": 2588,
      "Ġbaseball": 2589,
      "ex": 2590,
      "ror": 2591,
      "ines": 2592,
      "Ġmap": 2593,
      "Ġfear": 2594,
      "Help": 2595,
      "Ġunc": 2596,
      "Ġconsidered": 2597,
      "Ġchurch": 2598,
      "Ġwatched": 2599,
      "Ġbridge": 2600,
      "ables": 2601,
      "ĠJohn": 2602,
      "Ġacting": 2603,
      "ondon": 2604,
      "Ġlocked": 2605,
      "Ġslowly": 2606,
      "bs": 2607,
      "Ġmouth": 2608,
      "Ġburn": 2609,
      "Ġcustom": 2610,
      "Ġhide": 2611,
      "Ġmeal": 2612,
      "une": 2613,
      "unt": 2614,
      "uts": 2615,
      "urry": 2616,
      "ctob": 2617,
      "ilty": 2618,
      "Ġclub": 2619,
      "Ġvill": 2620,
      "Ġamaz": 2621,
      "Ġpract": 2622,
      "Ġguilty": 2623,
      "ĠEurope": 2624,
      "Ask": 2625,
      "Ġwelcome": 2626,
      "ctober": 2627,
      "Call": 2628,
      "oon": 2629,
      "ram": 2630,
      "Ġnative": 2631,
      "Ġeff": 2632,
      "tern": 2633,
      "ache": 2634,
      "Ġmanager": 2635,
      "rab": 2636,
      "ĠOctober": 2637,
      "ccer": 2638,
      "Ġneighbors": 2639,
      "Ġsubject": 2640,
      "ĠYork": 2641,
      "Ne": 2642,
      "Never": 2643,
      "ber": 2644,
      "gen": 2645,
      "ms": 2646,
      "ru": 2647,
      "Ġcried": 2648,
      "Ġgar": 2649,
      "Ġgrew": 2650,
      "Ġwash": 2651,
      "Ġrob": 2652,
      "Ġfeet": 2653,
      "Ġappoint": 2654,
      "Ġattract": 2655,
      "Ġpolite": 2656,
      "Ġsolution": 2657,
      "Ġlanguages": 2658,
      "Ġfresh": 2659,
      "Ġenemy": 2660,
      "Ġappointment": 2661,
      "Al": 2662,
      "Cl": 2663,
      "Hurry": 2664,
      "cuse": 2665,
      "uge": 2666,
      "Ġsea": 2667,
      "Ġdirty": 2668,
      "Ġmot": 2669,
      "Ġgiving": 2670,
      "aris": 2671,
      "Ġjud": 2672,
      "Ġtears": 2673,
      "Ġsoccer": 2674,
      "acks": 2675,
      "Ġcars": 2676,
      "Ġprevent": 2677,
      "Ġpock": 2678,
      "Ġbrothers": 2679,
      "Ġsinger": 2680,
      "Ġvisited": 2681,
      "Ġchocol": 2682,
      "Excuse": 2683,
      "Ġstraight": 2684,
      "None": 2685,
      "bo": 2686,
      "uc": 2687,
      "Ġsort": 2688,
      "Ġbike": 2689,
      "Ġbored": 2690,
      "omm": 2691,
      "omed": 2692,
      "Ġfur": 2693,
      "Ġgreen": 2694,
      "usted": 2695,
      "eared": 2696,
      "rent": 2697,
      "mbers": 2698,
      "ildren": 2699,
      "Ġattack": 2700,
      "Ġlearning": 2701,
      "Ġpeace": 2702,
      "Ġprivate": 2703,
      "Ġmemory": 2704,
      "Life": 2705,
      "ches": 2706,
      "sy": 2707,
      "Ġ5": 2708,
      "Ġtill": 2709,
      "Ġtight": 2710,
      "Ġtalent": 2711,
      "Ġmill": 2712,
      "Ġcell": 2713,
      "ories": 2714,
      "Ġstam": 2715,
      "Ġexcept": 2716,
      "Ġcaused": 2717,
      "izz": 2718,
      "Ġimpress": 2719,
      "Ġscream": 2720,
      "Ġflight": 2721,
      "Ġidi": 2722,
      "Somebody": 2723,
      "Ġ10": 2724,
      "versity": 2725,
      "Ġartic": 2726,
      "Ġpleased": 2727,
      "Ġcourse": 2728,
      "Ġcontinue": 2729,
      "Ġsuitcase": 2730,
      "Ġnormal": 2731,
      "res": 2732,
      "Ġmood": 2733,
      "Ġbri": 2734,
      "Ġpot": 2735,
      "Ġpos": 2736,
      "arch": 2737,
      "Ġthousand": 2738,
      "ety": 2739,
      "Ġstep": 2740,
      "Ġnotice": 2741,
      "Ġru": 2742,
      "Ġrule": 2743,
      "Ġspring": 2744,
      "Ġcause": 2745,
      "Ġresult": 2746,
      "Ġhates": 2747,
      "Ġkeeps": 2748,
      "Ġlistened": 2749,
      "Ġcrime": 2750,
      "Ġstanding": 2751,
      "Ġfollowing": 2752,
      "Ġdepressed": 2753,
      "Ġobject": 2754,
      "Ġabsolutely": 2755,
      "Ġschedule": 2756,
      "ns": 2757,
      "yed": 2758,
      "Ġsqu": 2759,
      "Ġcance": 2760,
      "Ġrum": 2761,
      "Ġspoken": 2762,
      "Ġexerc": 2763,
      "acket": 2764,
      "Ġeats": 2765,
      "uel": 2766,
      "Ġdrinks": 2767,
      "Ġstarting": 2768,
      "Ġrains": 2769,
      "Ġexcited": 2770,
      "Ġhiding": 2771,
      "Ġpresident": 2772,
      "Ġinnocent": 2773,
      "den": 2774,
      "eg": 2775,
      "Ġer": 2776,
      "Ġcow": 2777,
      "Ġlic": 2778,
      "Ġreach": 2779,
      "under": 2780,
      "astic": 2781,
      "ilar": 2782,
      "Ġcomfortable": 2783,
      "Ġtalks": 2784,
      "Ġbigger": 2785,
      "Ġmeaning": 2786,
      "Ġlights": 2787,
      "Ġentire": 2788,
      "Ġcollect": 2789,
      "Ġgunsh": 2790,
      "Ġdrop": 2791,
      "Ġresponsible": 2792,
      "ergy": 2793,
      "ĠLondon": 2794,
      "iliar": 2795,
      "de": 2796,
      "line": 2797,
      "Ġdam": 2798,
      "Ġcent": 2799,
      "Ġfed": 2800,
      "Ġgas": 2801,
      "oted": 2802,
      "Hey": 2803,
      "Ġfort": 2804,
      "Ġshy": 2805,
      "Ġnose": 2806,
      "Ġstuck": 2807,
      "Ġlots": 2808,
      "Ġbelieved": 2809,
      "Ġcrit": 2810,
      "Ġexplained": 2811,
      "Children": 2812,
      "Ġtemper": 2813,
      "Ġavoid": 2814,
      "Ġannoy": 2815,
      "Ġopportunity": 2816,
      "Ġvillage": 2817,
      "Read": 2818,
      "Ġmention": 2819,
      "Ġlow": 2820,
      "Ġthreat": 2821,
      "Ġknock": 2822,
      "Ġintend": 2823,
      "Ġenergy": 2824,
      "Ġmoon": 2825,
      "Ġlazy": 2826,
      "Ġsingle": 2827,
      "Ġpermission": 2828,
      "Ġtotally": 2829,
      "Ġwoke": 2830,
      "Ġfright": 2831,
      "Ġinvest": 2832,
      "Ġwashing": 2833,
      "Ġneg": 2834,
      "ains": 2835,
      "Ġexha": 2836,
      "Ġunha": 2837,
      "apers": 2838,
      "Ġfriendly": 2839,
      "Ġplayer": 2840,
      "ires": 2841,
      "Ġbedroom": 2842,
      "Ġchess": 2843,
      "Ġfamiliar": 2844,
      "Ġgrowing": 2845,
      "Ġcomplaining": 2846,
      "Ġpicked": 2847,
      "Ġsalt": 2848,
      "ĠParis": 2849,
      "Ġwallet": 2850,
      "Ġreturned": 2851,
      "Ġurg": 2852,
      "Ġshocked": 2853,
      "Ġvegetables": 2854,
      "underst": 2855,
      "Hold": 2856,
      "Japan": 2857,
      "Ġwise": 2858,
      "haps": 2859,
      "Ġcurious": 2860,
      "itive": 2861,
      "Ġstone": 2862,
      "Ġself": 2863,
      "Ġrope": 2864,
      "Ġpoem": 2865,
      "Ġmatch": 2866,
      "Ġshar": 2867,
      "Ġsongs": 2868,
      "Ġ20": 2869,
      "Ġhealthy": 2870,
      "Ġconvince": 2871,
      "Ġearthqu": 2872,
      "Ġpurp": 2873,
      "Ġmillion": 2874,
      "Ġlicense": 2875,
      "See": 2876,
      "ĠWe": 2877,
      "Ġnine": 2878,
      "Ġpizz": 2879,
      "Ġevent": 2880,
      "Ġnoticed": 2881,
      "ional": 2882,
      "amed": 2883,
      "Ġsuff": 2884,
      "Ġdev": 2885,
      "Ġclock": 2886,
      "icked": 2887,
      "Ġguest": 2888,
      "Ġmistaken": 2889,
      "Ġshoot": 2890,
      "Ġcountries": 2891,
      "Ġnearly": 2892,
      "Ġdepart": 2893,
      "ship": 2894,
      "Ġconfused": 2895,
      "Ġinterrup": 2896,
      "Sometimes": 2897,
      "Ġcertainly": 2898,
      "ĠChinese": 2899,
      "Ġlady": 2900,
      "ĠUnited": 2901,
      "Ġchocolate": 2902,
      "Ġidiot": 2903,
      "mother": 2904,
      "inal": 2905,
      "Ġcream": 2906,
      "Ġfil": 2907,
      "Ġhabit": 2908,
      "Ġobe": 2909,
      "Ġbeat": 2910,
      "Ġreached": 2911,
      "Ġlift": 2912,
      "Ġrude": 2913,
      "Ġtruck": 2914,
      "ighted": 2915,
      "istic": 2916,
      "Ġamong": 2917,
      "Ġdisg": 2918,
      "Ġscen": 2919,
      "Ġskin": 2920,
      "Ġentered": 2921,
      "Ġemploy": 2922,
      "Ġfighting": 2923,
      "Ġsusp": 2924,
      "Ġsuspect": 2925,
      "Ġholiday": 2926,
      "Ġmaj": 2927,
      "Ġarticle": 2928,
      "Ġpurpose": 2929,
      "cious": 2930,
      "iers": 2931,
      "oes": 2932,
      "Ġyen": 2933,
      "Ġban": 2934,
      "Ġble": 2935,
      "itation": 2936,
      "erman": 2937,
      "Ġnatur": 2938,
      "ldom": 2939,
      "Ġsteal": 2940,
      "Well": 2941,
      "Ġrice": 2942,
      "Ġseldom": 2943,
      "Ġanswered": 2944,
      "Ġclever": 2945,
      "Ġpretend": 2946,
      "Ġpassport": 2947,
      "Ġrealized": 2948,
      "Ġdreams": 2949,
      "000": 2950,
      "Ġdropped": 2951,
      "Ġescaped": 2952,
      "Ġmisunderst": 2953,
      "Ġengine": 2954,
      "Ġmagaz": 2955,
      "Ġfurther": 2956,
      "Ġurgent": 2957,
      "pen": 2958,
      "ury": 2959,
      "Ġdrow": 2960,
      "ising": 2961,
      "Ġmir": 2962,
      "Ġbark": 2963,
      "Ġbright": 2964,
      "Ġhuge": 2965,
      "Ġform": 2966,
      "Ġnote": 2967,
      "Ġgolf": 2968,
      "ified": 2969,
      "Ġrang": 2970,
      "Ġunderstood": 2971,
      "okes": 2972,
      "Ġletters": 2973,
      "Ġcookies": 2974,
      "Ġexcuse": 2975,
      "Ġconcerned": 2976,
      "Ġgradu": 2977,
      "Ġproduct": 2978,
      "Tw": 2979,
      "oc": 2980,
      "rite": 2981,
      "Ġauth": 2982,
      "Ġsoup": 2983,
      "vered": 2984,
      "ides": 2985,
      "Ġequ": 2986,
      "anted": 2987,
      "acy": 2988,
      "cks": 2989,
      "Ġview": 2990,
      "Ġharm": 2991,
      "Ġcalls": 2992,
      "Ġresults": 2993,
      "Ġpretended": 2994,
      "ĠSatur": 2995,
      "Ġforgotten": 2996,
      "Ġenter": 2997,
      "ibly": 2998,
      "Ġdelighted": 2999,
      "Ġtickets": 3000,
      "Ġimagine": 3001,
      "Ġpunished": 3002,
      "Ġtranslate": 3003,
      "ĠStates": 3004,
      "Ġoccur": 3005,
      "Ġunhappy": 3006,
      "Ġpizza": 3007,
      "ĠSaturday": 3008,
      "Watch": 3009,
      "Yesterday": 3010,
      "aive": 3011,
      "gest": 3012,
      "hip": 3013,
      "Ġach": 3014,
      "Ġnaive": 3015,
      "Ġpool": 3016,
      "Ġpush": 3017,
      "Ġisland": 3018,
      "Ġgold": 3019,
      "Ġaband": 3020,
      "Ġusual": 3021,
      "ulation": 3022,
      "Ġproper": 3023,
      "Ġcovered": 3024,
      "Ġcap": 3025,
      "Ġchick": 3026,
      "Ġsmarter": 3027,
      "Ġdishes": 3028,
      "Ġmod": 3029,
      "Ġhearing": 3030,
      "Ġkidding": 3031,
      "Ġincred": 3032,
      "Ġsweater": 3033,
      "fortun": 3034,
      "Ġinstead": 3035,
      "Ġclimb": 3036,
      "Ġuniversity": 3037,
      "Thing": 3038,
      "With": 3039,
      "nect": 3040,
      "over": 3041,
      "Ġaud": 3042,
      "Ġdad": 3043,
      "Ġtheory": 3044,
      "iting": 3045,
      "ased": 3046,
      "Ġbear": 3047,
      "Ġheat": 3048,
      "stem": 3049,
      "ope": 3050,
      "ational": 3051,
      "Ġcab": 3052,
      "Ġvote": 3053,
      "Ġcontact": 3054,
      "Ġmatters": 3055,
      "Ġended": 3056,
      "ording": 3057,
      "Ġassist": 3058,
      "bye": 3059,
      "ĠGerman": 3060,
      "Ġtastes": 3061,
      "Ġsilent": 3062,
      "ĠFrance": 3063,
      "Ġembarrassed": 3064,
      "conom": 3065,
      "Things": 3066,
      "ik": 3067,
      "uing": 3068,
      "yot": 3069,
      "Ġaut": 3070,
      "ony": 3071,
      "Ġdue": 3072,
      "Ġben": 3073,
      "Ġlit": 3074,
      "erve": 3075,
      "Ġhob": 3076,
      "esome": 3077,
      "Ġking": 3078,
      "Ġweak": 3079,
      "Ġweap": 3080,
      "Ġcancer": 3081,
      "Ġtext": 3082,
      "Ġupstairs": 3083,
      "Ġloc": 3084,
      "Ġmanage": 3085,
      "Ġchanges": 3086,
      "ograp": 3087,
      "Ġcheap": 3088,
      "Ġrecomm": 3089,
      "Ġwindows": 3090,
      "ney": 3091,
      "Ġforever": 3092,
      "Ġavail": 3093,
      "Ġphoto": 3094,
      "Ġcards": 3095,
      "Ġtype": 3096,
      "Ġmiddle": 3097,
      "Ġattractive": 3098,
      "vior": 3099,
      "Ġpar": 3100,
      "Ġemer": 3101,
      "Ġspot": 3102,
      "Ġmanaged": 3103,
      "fered": 3104,
      "Ġbetr": 3105,
      "Ġspeaker": 3106,
      "Ġtwenty": 3107,
      "irsty": 3108,
      "Ġadvant": 3109,
      "Ġrecently": 3110,
      "Ġheadache": 3111,
      "overed": 3112,
      "ĠChina": 3113,
      "Ġskiing": 3114,
      "Ġmurder": 3115,
      "Ġexercise": 3116,
      "Ġexhausted": 3117,
      "yoto": 3118,
      "gth": 3119,
      "iest": 3120,
      "ls": 3121,
      "nic": 3122,
      "ĠU": 3123,
      "Ġtour": 3124,
      "Ġtough": 3125,
      "ings": 3126,
      "ority": 3127,
      "Ġnames": 3128,
      "Ġpu": 3129,
      "Ġthief": 3130,
      "Ġeconom": 3131,
      "Their": 3132,
      "Ġwashed": 3133,
      "ify": 3134,
      "Ġspell": 3135,
      "Ġconst": 3136,
      "Ġdrug": 3137,
      "ieved": 3138,
      "Ġacqu": 3139,
      "Ġsisters": 3140,
      "Ġcruel": 3141,
      "Ġpoliceman": 3142,
      "Ġdiet": 3143,
      "Ġprize": 3144,
      "Ġaccepted": 3145,
      "Ġcamp": 3146,
      "Ġdistur": 3147,
      "Ġgrandmother": 3148,
      "Ġlegs": 3149,
      "Ġbehavior": 3150,
      "Ġdancing": 3151,
      "Ġzoo": 3152,
      "Ġprofess": 3153,
      "Ġamazing": 3154,
      "but": 3155,
      "na": 3156,
      "ĠGod": 3157,
      "Ġcous": 3158,
      "Ġfro": 3159,
      "orn": 3160,
      "Ġnap": 3161,
      "Ġhes": 3162,
      "Ġhero": 3163,
      "aces": 3164,
      "Ġjacket": 3165,
      "Ġcarried": 3166,
      "Ġvide": 3167,
      "Ġbrave": 3168,
      "Ġoldest": 3169,
      "Ġawesome": 3170,
      "Ġpaying": 3171,
      "Ġrepe": 3172,
      "Ġserv": 3173,
      "Ġtrusted": 3174,
      "Ġconfident": 3175,
      "Ġtraveling": 3176,
      "Ġhorri": 3177,
      "Ġdistance": 3178,
      "Ġsimilar": 3179,
      "Ġtaste": 3180,
      "Ġsystem": 3181,
      "Ġpossibility": 3182,
      "Ġlosing": 3183,
      "Ġjudge": 3184,
      "Acc": 3185,
      "host": 3186,
      "ien": 3187,
      "lies": 3188,
      "ole": 3189,
      "ĠHe": 3190,
      "hered": 3191,
      "Ġast": 3192,
      "ining": 3193,
      "Ġdent": 3194,
      "Ġdying": 3195,
      "Ġbat": 3196,
      "Ġband": 3197,
      "Ġcred": 3198,
      "Ġcash": 3199,
      "Ġlim": 3200,
      "orter": 3201,
      "ows": 3202,
      "ases": 3203,
      "Ġhy": 3204,
      "Ġbell": 3205,
      "unte": 3206,
      "aint": 3207,
      "Ġunf": 3208,
      "Ġprove": 3209,
      "Ġcapt": 3210,
      "Ġprin": 3211,
      "Ġdise": 3212,
      "Ġhoping": 3213,
      "empt": 3214,
      "Ġspends": 3215,
      "Ġdiary": 3216,
      "Ġincre": 3217,
      "Ġdeterm": 3218,
      "Ġimagination": 3219,
      "Ġunlike": 3220,
      "Ġintroduce": 3221,
      "Ġelectric": 3222,
      "Ġsandw": 3223,
      "Ġearthquake": 3224,
      "Rem": 3225,
      "Sm": 3226,
      "Write": 3227,
      "ees": 3228,
      "pri": 3229,
      "zen": 3230,
      "ĠV": 3231,
      "Ġwet": 3232,
      "Ġmarket": 3233,
      "llen": 3234,
      "itch": 3235,
      "Ġghost": 3236,
      "Ġpic": 3237,
      "Ġhire": 3238,
      "uses": 3239,
      "cell": 3240,
      "Ġexcell": 3241,
      "Ġund": 3242,
      "Ġgoodbye": 3243,
      "Ġvict": 3244,
      "ures": 3245,
      "Ġourselves": 3246,
      "Ġmoving": 3247,
      "Ġdescri": 3248,
      "Ġdiscussion": 3249,
      "Ġraise": 3250,
      "Ġdirect": 3251,
      "Ġdetails": 3252,
      "gency": 3253,
      "Close": 3254,
      "Two": 3255,
      "Ġavailable": 3256,
      "Ġadvantage": 3257,
      "Of": 3258,
      "cut": 3259,
      "light": 3260,
      "Ġcir": 3261,
      "Ġfilled": 3262,
      "Ġnuts": 3263,
      "Ġgames": 3264,
      "Ġthird": 3265,
      "iment": 3266,
      "ung": 3267,
      "Ġjour": 3268,
      "Ġintention": 3269,
      "Ġthemselves": 3270,
      "Ġhurts": 3271,
      "Ġteachers": 3272,
      "Ġeasier": 3273,
      "Ġemail": 3274,
      "Ġcosts": 3275,
      "Ġperfectly": 3276,
      "Ġcopy": 3277,
      "Ġpunct": 3278,
      "Ġbirds": 3279,
      "Ġstaring": 3280,
      "Ġfinger": 3281,
      "omeday": 3282,
      "Ġnatural": 3283,
      "Ġhobby": 3284,
      "Ġdentist": 3285,
      "Ġcredit": 3286,
      "Ġunlikely": 3287,
      "cument": 3288,
      "Ġpred": 3289,
      "ashed": 3290,
      "Ġhired": 3291,
      "Ġdocument": 3292,
      "using": 3293,
      "irm": 3294,
      "Ġanyway": 3295,
      "Ġprov": 3296,
      "Ġdisag": 3297,
      "Ġresign": 3298,
      "Ġgroup": 3299,
      "Ġstranger": 3300,
      "Ġreply": 3301,
      "Ġrefuse": 3302,
      "Ġteaching": 3303,
      "Ġsoldiers": 3304,
      "Ġvolunte": 3305,
      "Ġbask": 3306,
      "Ġdenied": 3307,
      "Ġorganized": 3308,
      "Ġsuperm": 3309,
      "Ġfacts": 3310,
      "Ġburned": 3311,
      "Ġrumor": 3312,
      "Ġobey": 3313,
      "Ġexcellent": 3314,
      "Per": 3315,
      "Ġtou": 3316,
      "Ġcig": 3317,
      "Ġthrew": 3318,
      "Ġunless": 3319,
      "Ġtells": 3320,
      "Ġgives": 3321,
      "Ġbecom": 3322,
      "Ġrained": 3323,
      "Ġattempt": 3324,
      "Ġwarn": 3325,
      "Ġcomplicated": 3326,
      "Ġilleg": 3327,
      "Ġsuggested": 3328,
      "Ġhuman": 3329,
      "Ġpostp": 3330,
      "Ġsharp": 3331,
      "fortunately": 3332,
      "By": 3333,
      "Last": 3334,
      "Open": 3335,
      "coh": 3336,
      "let": 3337,
      "mat": 3338,
      "Ġ4": 3339,
      "Ġug": 3340,
      "Ġsize": 3341,
      "Ġyes": 3342,
      "Ġcouch": 3343,
      "Ġlay": 3344,
      "Ġnur": 3345,
      "Ġhous": 3346,
      "Ġroof": 3347,
      "Ġsports": 3348,
      "Ġloss": 3349,
      "romise": 3350,
      "ateful": 3351,
      "Ġconnect": 3352,
      "Ġbutter": 3353,
      "Ġbelieves": 3354,
      "Ġaccustom": 3355,
      "Ġears": 3356,
      "Ġgrateful": 3357,
      "Ġanswers": 3358,
      "ngland": 3359,
      "Ġinvitation": 3360,
      "perate": 3361,
      "Ġhighly": 3362,
      "Ġarms": 3363,
      "Ġsurvive": 3364,
      "Ġdestro": 3365,
      "Ġgunshot": 3366,
      "Ġemergency": 3367,
      "Ġhesit": 3368,
      "Ġvideo": 3369,
      "Ġpunctual": 3370,
      "Ġsupermarket": 3371,
      "cohol": 3372,
      "ners": 3373,
      "ones": 3374,
      "Ġfle": 3375,
      "its": 3376,
      "Ġgent": 3377,
      "Ġpage": 3378,
      "arm": 3379,
      "Ġthirsty": 3380,
      "Ġwears": 3381,
      "tery": 3382,
      "Ġabove": 3383,
      "Ġrace": 3384,
      "urance": 3385,
      "ulous": 3386,
      "Ġnoon": 3387,
      "Ġshoulder": 3388,
      "ield": 3389,
      "Ġintell": 3390,
      "Ġdownstairs": 3391,
      "Ġscient": 3392,
      "ments": 3393,
      "Ġcheer": 3394,
      "Ġrecord": 3395,
      "Ġexamination": 3396,
      "Ġfailure": 3397,
      "Ġfixed": 3398,
      "Ġexplos": 3399,
      "Ġcourage": 3400,
      "Ġcops": 3401,
      "Ġpopulation": 3402,
      "Ġfairly": 3403,
      "Ġintroduced": 3404,
      "Ġeduc": 3405,
      "ruct": 3406,
      "Ġchicken": 3407,
      "Ġpicnic": 3408,
      "Perhaps": 3409,
      "Fr": 3410,
      "fa": 3411,
      "gers": 3412,
      "Ġ3": 3413,
      "Ġ6": 3414,
      "Ġ8": 3415,
      "Ġfurn": 3416,
      "Ġmeals": 3417,
      "Ġlies": 3418,
      "Ġstom": 3419,
      "Ġgoal": 3420,
      "entr": 3421,
      "Ġwithin": 3422,
      "Ġjail": 3423,
      "Whatever": 3424,
      "Ġsofa": 3425,
      "Ġconvers": 3426,
      "Ġcapital": 3427,
      "Ġrock": 3428,
      "Ġfever": 3429,
      "Ġremained": 3430,
      "Ġscare": 3431,
      "Ġflat": 3432,
      "Ġkinds": 3433,
      "cient": 3434,
      "Ġuseful": 3435,
      "Ġtowel": 3436,
      "Shut": 3437,
      "Ġchecked": 3438,
      "Ġcomplete": 3439,
      "Ġartist": 3440,
      "Ġclearly": 3441,
      "Ġpleasure": 3442,
      "Unfortunately": 3443,
      "Ġbathroom": 3444,
      "Ġjumped": 3445,
      "Ġwoods": 3446,
      "Ġcritic": 3447,
      "Ġaccustomed": 3448,
      "Ġgentle": 3449,
      "Ġintellig": 3450,
      "English": 3451,
      "Good": 3452,
      "iable": 3453,
      "rat": 3454,
      "ses": 3455,
      "Ġdish": 3456,
      "Ġbrow": 3457,
      "Ġbarely": 3458,
      "ances": 3459,
      "Ġnaked": 3460,
      "Ġef": 3461,
      "antly": 3462,
      "Ġwebs": 3463,
      "Ġneither": 3464,
      "ainted": 3465,
      "ives": 3466,
      "Ġeverywhere": 3467,
      "Ġcoin": 3468,
      "Ġdoors": 3469,
      "Ġfoc": 3470,
      "Ġacted": 3471,
      "Ġruns": 3472,
      "Ġretired": 3473,
      "Ġdelicious": 3474,
      "Ġinsurance": 3475,
      "Ġborrowed": 3476,
      "Ġprisoners": 3477,
      "Ġdepends": 3478,
      "Ġneighborhood": 3479,
      "Ġprogram": 3480,
      "Ġgarage": 3481,
      "Ġposition": 3482,
      "Ġfrightened": 3483,
      "Mother": 3484,
      "Sha": 3485,
      "gl": 3486,
      "Ġ30": 3487,
      "Ġtend": 3488,
      "Ġwore": 3489,
      "rets": 3490,
      "Ġcast": 3491,
      "llo": 3492,
      "Ġhig": 3493,
      "atoes": 3494,
      "lect": 3495,
      "lebr": 3496,
      "key": 3497,
      "Ġrese": 3498,
      "icer": 3499,
      "Ġste": 3500,
      "Ġhappiness": 3501,
      "ulty": 3502,
      "Ġunable": 3503,
      "orth": 3504,
      "Ġcloud": 3505,
      "Ġoffended": 3506,
      "Ġcompet": 3507,
      "Ġpron": 3508,
      "Ġchildhood": 3509,
      "Ġsurf": 3510,
      "ĠEngland": 3511,
      "Ġground": 3512,
      "aret": 3513,
      "ians": 3514,
      "Ġcrim": 3515,
      "Ġslight": 3516,
      "Ġairpl": 3517,
      "Ġsolved": 3518,
      "Ġexchan": 3519,
      "Ġobs": 3520,
      "Ġexample": 3521,
      "Ġsalary": 3522,
      "Ġspeed": 3523,
      "Ġtreated": 3524,
      "Ġresponsibility": 3525,
      "Ġcelebr": 3526,
      "Ġbelongs": 3527,
      "Ġcloser": 3528,
      "Ġrequest": 3529,
      "Ġtemperature": 3530,
      "Ġguests": 3531,
      "Ġmagazine": 3532,
      "Ġabandoned": 3533,
      "Ġrecommend": 3534,
      "Ġdisease": 3535,
      "Ġugly": 3536,
      "Ġconversation": 3537,
      "Ġeffect": 3538,
      "Comp": 3539,
      "arest": 3540,
      "fety": 3541,
      "ker": 3542,
      "par": 3543,
      "xious": 3544,
      "Ġver": 3545,
      "Ġaim": 3546,
      "Ġwis": 3547,
      "Ġsang": 3548,
      "Ġsens": 3549,
      "Ġtooth": 3550,
      "Ġdating": 3551,
      "Ġcoo": 3552,
      "Ġfif": 3553,
      "iture": 3554,
      "Ġodd": 3555,
      "Ġinvent": 3556,
      "Ġwasting": 3557,
      "Ġrely": 3558,
      "Ġstren": 3559,
      "Ġnearest": 3560,
      "ribut": 3561,
      "aly": 3562,
      "Ġarea": 3563,
      "Ġjokes": 3564,
      "Ġsaving": 3565,
      "Ġqual": 3566,
      "Ġwhenever": 3567,
      "Ġexpress": 3568,
      "osen": 3569,
      "Ġsmiled": 3570,
      "Ġbrush": 3571,
      "Ġdisl": 3572,
      "Ġapply": 3573,
      "icted": 3574,
      "Ġmayor": 3575,
      "Ġcontract": 3576,
      "Ġrepair": 3577,
      "Ġfoods": 3578,
      "Ġpromises": 3579,
      "Ġshape": 3580,
      "Ġpassen": 3581,
      "Ġenjoying": 3582,
      "Ġwinning": 3583,
      "Ġdifficulty": 3584,
      "Ġparked": 3585,
      "Ġexciting": 3586,
      "Ġcleaned": 3587,
      "Ġcomplained": 3588,
      "ashion": 3589,
      "Ġsett": 3590,
      "Ġsmells": 3591,
      "Ġtempt": 3592,
      "Ġcrossed": 3593,
      "ĠFriday": 3594,
      "Ġpocket": 3595,
      "Ġbanan": 3596,
      "Ġoccurred": 3597,
      "ograph": 3598,
      "Ġbetrayed": 3599,
      "Ġbasket": 3600,
      "Ġillegal": 3601,
      "Ġnurse": 3602,
      "Ġexplosion": 3603,
      "Che": 3604,
      "Dr": 3605,
      "Hand": 3606,
      "Say": 3607,
      "form": 3608,
      "ipped": 3609,
      "ler": 3610,
      "tic": 3611,
      "ues": 3612,
      "ĠWhat": 3613,
      "Ġdry": 3614,
      "Ġpushed": 3615,
      "Ġstock": 3616,
      "Ġability": 3617,
      "Ġteen": 3618,
      "Ġsoft": 3619,
      "Ġusing": 3620,
      "Ġspace": 3621,
      "Ġspread": 3622,
      "Ġchosen": 3623,
      "Ġcareless": 3624,
      "Ġprices": 3625,
      "Ġremain": 3626,
      "Ġremark": 3627,
      "Ġscar": 3628,
      "Ġaccomp": 3629,
      "Ġhurried": 3630,
      "Ġhated": 3631,
      "Ġdesp": 3632,
      "Ġhung": 3633,
      "Ġspending": 3634,
      "Ġdrives": 3635,
      "Ġsmaller": 3636,
      "Ġconcentr": 3637,
      "Ġcommun": 3638,
      "Ġelev": 3639,
      "Ġorders": 3640,
      "ĠSundays": 3641,
      "Ġsucceeded": 3642,
      "Ġrecognized": 3643,
      "Ġclimbed": 3644,
      "Ġarguing": 3645,
      "Ġignore": 3646,
      "Ġraised": 3647,
      "Ġpressure": 3648,
      "Ġleader": 3649,
      "Ġdivorced": 3650,
      "board": 3651,
      "Ġstamps": 3652,
      "Ġmisunderstand": 3653,
      "Ġmodel": 3654,
      "Ġcousin": 3655,
      "Ġhouses": 3656,
      "Ġfurniture": 3657,
      "From": 3658,
      "Quit": 3659,
      "Tr": 3660,
      "aired": 3661,
      "ron": 3662,
      "uly": 3663,
      "Ġ$": 3664,
      "Ġtur": 3665,
      "Ġbes": 3666,
      "Ġfence": 3667,
      "Ġpill": 3668,
      "Ġoil": 3669,
      "Ġhill": 3670,
      "Ġiss": 3671,
      "iche": 3672,
      "ically": 3673,
      "Ġyourselves": 3674,
      "Ġsuic": 3675,
      "Ġallerg": 3676,
      "Ġtrick": 3677,
      "Ġexist": 3678,
      "Ġsale": 3679,
      "Ġenc": 3680,
      "Ġcla": 3681,
      "Ġlovely": 3682,
      "Ġflower": 3683,
      "Ġgrass": 3684,
      "Ġchallen": 3685,
      "Ġclassroom": 3686,
      "Ġfoolish": 3687,
      "Ġmidnight": 3688,
      "ĠDay": 3689,
      "Ġpulled": 3690,
      "Ġviolin": 3691,
      "Ġprogress": 3692,
      "Ġpractice": 3693,
      "Ġeffort": 3694,
      "Neither": 3695,
      "Ġinvestig": 3696,
      "According": 3697,
      "Ġtouched": 3698,
      "Ġcigaret": 3699,
      "Few": 3700,
      "Pl": 3701,
      "ks": 3702,
      "me": 3703,
      "phan": 3704,
      "word": 3705,
      "zz": 3706,
      "inite": 3707,
      "Ġbite": 3708,
      "lled": 3709,
      "Ġnone": 3710,
      "Ġgreet": 3711,
      "Ġthin": 3712,
      "Ġmembers": 3713,
      "riage": 3714,
      "amb": 3715,
      "amp": 3716,
      "Ġworkers": 3717,
      "Ġadop": 3718,
      "Ġhanded": 3719,
      "Ġimpat": 3720,
      "Ġresc": 3721,
      "Ġmath": 3722,
      "ĠJacks": 3723,
      "Ġbadly": 3724,
      "Ġrepl": 3725,
      "Ġrepaired": 3726,
      "Ġconcl": 3727,
      "Ġworrying": 3728,
      "Ġseats": 3729,
      "Ġcorner": 3730,
      "Ġfootball": 3731,
      "Ġignored": 3732,
      "Ġtyp": 3733,
      "Ġobviously": 3734,
      "Ġpersuade": 3735,
      "Ġdamage": 3736,
      "Ġnegot": 3737,
      "Ġdrowned": 3738,
      "Ġhorrible": 3739,
      "Father": 3740,
      "ius": 3741,
      "Ġaunt": 3742,
      "Ġwit": 3743,
      "Ġdiz": 3744,
      "Ġdare": 3745,
      "ism": 3746,
      "Ġcreat": 3747,
      "Ġfile": 3748,
      "Ġnor": 3749,
      "Ġpan": 3750,
      "Ġpsy": 3751,
      "Ġstairs": 3752,
      "und": 3753,
      "ute": 3754,
      "Ġalcohol": 3755,
      "Ġsafety": 3756,
      "Ġsepar": 3757,
      "ounds": 3758,
      "Ġamount": 3759,
      "Ġproof": 3760,
      "Ġblock": 3761,
      "Ġplanned": 3762,
      "Ġoper": 3763,
      "Ġlately": 3764,
      "Ġadvance": 3765,
      "Ġwondering": 3766,
      "Ġwriter": 3767,
      "ĠKyoto": 3768,
      "Ġrelaxed": 3769,
      "Ġyellow": 3770,
      "Ġpersuaded": 3771,
      "Ġtalented": 3772,
      "Ġruined": 3773,
      "Ġairplane": 3774,
      "Ġelevator": 3775,
      "Ġimpatient": 3776,
      "Ġdizzy": 3777,
      "Yes": 3778,
      "uff": 3779,
      "Ġsomeday": 3780,
      "Ġmaster": 3781,
      "omb": 3782,
      "itious": 3783,
      "itude": 3784,
      "Ġgrab": 3785,
      "Ġpity": 3786,
      "Ġhug": 3787,
      "Ġanxious": 3788,
      "Ġones": 3789,
      "icate": 3790,
      "Ġstri": 3791,
      "Ġjoking": 3792,
      "Doing": 3793,
      "Ġaltern": 3794,
      "Three": 3795,
      "Ġloan": 3796,
      "Ġunus": 3797,
      "Ġseason": 3798,
      "Ġaffect": 3799,
      "Ġvase": 3800,
      "Ġshelf": 3801,
      "Ġbull": 3802,
      "Ġorig": 3803,
      "Ġpoison": 3804,
      "Ġwherever": 3805,
      "Ġcheese": 3806,
      "ĠSp": 3807,
      "Ġserved": 3808,
      "Bec": 3809,
      "Ġincl": 3810,
      "Ġfalling": 3811,
      "Ġextra": 3812,
      "Ġcontinued": 3813,
      "Ġburst": 3814,
      "Ġprevented": 3815,
      "rently": 3816,
      "Ġbrief": 3817,
      "Ġentirely": 3818,
      "Ġeventually": 3819,
      "Ġinterrupt": 3820,
      "Ġsuspicious": 3821,
      "Ġaudience": 3822,
      "Ġsandwich": 3823,
      "do": 3824,
      "ji": 3825,
      "Ġways": 3826,
      "Ġsour": 3827,
      "Ġtong": 3828,
      "Ġfashion": 3829,
      "asons": 3830,
      "aring": 3831,
      "Ġthirt": 3832,
      "Ġmel": 3833,
      "Ġstate": 3834,
      "Ġstars": 3835,
      "Ġneck": 3836,
      "Ġcand": 3837,
      "Ġnowhere": 3838,
      "Ġparties": 3839,
      "Ġpale": 3840,
      "abbit": 3841,
      "Ġdiv": 3842,
      "Ġcleaning": 3843,
      "ĠAmericans": 3844,
      "Ġwrites": 3845,
      "Ġpieces": 3846,
      "Ġarmy": 3847,
      "Ġsuggestion": 3848,
      "Ġassum": 3849,
      "Choose": 3850,
      "Ġanimal": 3851,
      "Ġignor": 3852,
      "Ġevidence": 3853,
      "Ġskinny": 3854,
      "Without": 3855,
      "Ġsuicide": 3856,
      "Ġnegoti": 3857,
      "Ġalternative": 3858,
      "Because": 3859,
      "Ġtongue": 3860,
      "Water": 3861,
      "bb": 3862,
      "ma": 3863,
      "men": 3864,
      "sc": 3865,
      "Ġess": 3866,
      "hemat": 3867,
      "Ġmain": 3868,
      "Ġfog": 3869,
      "Ġfond": 3870,
      "Ġfift": 3871,
      "ĠIn": 3872,
      "Ġmember": 3873,
      "Ġkil": 3874,
      "Ġwealth": 3875,
      "ores": 3876,
      "Ġround": 3877,
      "Ġrarely": 3878,
      "hand": 3879,
      "essed": 3880,
      "Ġsearch": 3881,
      "Ġpoin": 3882,
      "Ġfriendship": 3883,
      "Ġadvise": 3884,
      "Ġteaches": 3885,
      "Ġstudies": 3886,
      "ucky": 3887,
      "ails": 3888,
      "Ġpercent": 3889,
      "ankly": 3890,
      "ledge": 3891,
      "ology": 3892,
      "Ġforest": 3893,
      "Ġtraveled": 3894,
      "Ġpatience": 3895,
      "Ġfallen": 3896,
      "Ġillness": 3897,
      "Ġselling": 3898,
      "Ġsilence": 3899,
      "Ġapproach": 3900,
      "Only": 3901,
      "Ġdemanded": 3902,
      "Ġfortune": 3903,
      "Ġscene": 3904,
      "Ġgraduated": 3905,
      "Ġcapable": 3906,
      "Ġdisagree": 3907,
      "School": 3908,
      "hib": 3909,
      "mon": 3910,
      "ples": 3911,
      "ta": 3912,
      "tes": 3913,
      "oured": 3914,
      "Ġfal": 3915,
      "ening": 3916,
      "owed": 3917,
      "imate": 3918,
      "Ġsty": 3919,
      "Ġstories": 3920,
      "Ġmyst": 3921,
      "Ġshorter": 3922,
      "iring": 3923,
      "Ġrough": 3924,
      "Ġspl": 3925,
      "Ġsport": 3926,
      "Ġplaces": 3927,
      "Ġlog": 3928,
      "Ġcarp": 3929,
      "Ġwhose": 3930,
      "Ġorange": 3931,
      "asses": 3932,
      "Ġguard": 3933,
      "Ġawful": 3934,
      "Ġjobs": 3935,
      "Ġours": 3936,
      "Ġappeared": 3937,
      "Ġunderstands": 3938,
      "Ġscold": 3939,
      "Ġreserv": 3940,
      "Ġinvite": 3941,
      "Ġfarm": 3942,
      "Ġpassword": 3943,
      "Ġrelig": 3944,
      "Ġreliable": 3945,
      "Ġdreaming": 3946,
      "Ġcommitted": 3947,
      "Ġdiscussed": 3948,
      "Ġdrove": 3949,
      "Ġexperien": 3950,
      "Ġargument": 3951,
      "Ġsurvived": 3952,
      "Ġiron": 3953,
      "ermany": 3954,
      "ounce": 3955,
      "Speak": 3956,
      "Ġimprove": 3957,
      "Ġdivorce": 3958,
      "Ġefforts": 3959,
      "Ġsuffering": 3960,
      "Ġstomach": 3961,
      "Ġintelligent": 3962,
      "Ġbrown": 3963,
      "Ġcoinc": 3964,
      "Ġclouds": 3965,
      "Ġcriminal": 3966,
      "Ġstrength": 3967,
      "Ġmisunderstanding": 3968,
      "Ġfalse": 3969,
      "13": 3970,
      "bel": 3971,
      "cul": 3972,
      "to": 3973,
      "ĠThat": 3974,
      "Ġwounded": 3975,
      "Ġtheater": 3976,
      "ompl": 3977,
      "anced": 3978,
      "Ġfield": 3979,
      "Ġpond": 3980,
      "asc": 3981,
      "Ġbeard": 3982,
      "Ġmeas": 3983,
      "Ġknowing": 3984,
      "ential": 3985,
      "usting": 3986,
      "cture": 3987,
      "Ġwhis": 3988,
      "Ġgoods": 3989,
      "ouraged": 3990,
      "Ġenv": 3991,
      "Ġsmiling": 3992,
      "Ġglo": 3993,
      "Ġscrew": 3994,
      "Ġlaid": 3995,
      "Ġshoe": 3996,
      "Ġbeauty": 3997,
      "uded": 3998,
      "Ġrelieved": 3999,
      "orses": 4000,
      "Ġrespond": 4001,
      "Ġbegins": 4002,
      "Ġelection": 4003,
      "pected": 4004,
      "Ġdeeply": 4005,
      "Ġambitious": 4006,
      "Ġdebt": 4007,
      "Ġimpression": 4008,
      "Ġcancel": 4009,
      "Ġmajor": 4010,
      "Ġbleed": 4011,
      "Ġstealing": 4012,
      "Ġpuzz": 4013,
      "Ġservice": 4014,
      "Ġcaptain": 4015,
      "Ġvictim": 4016,
      "Ġeducation": 4017,
      "Ġgentleman": 4018,
      "Ġpassengers": 4019,
      "ĠJackson": 4020,
      "hematics": 4021,
      "Eat": 4022,
      "aff": 4023,
      "gn": 4024,
      "look": 4025,
      "lished": 4026,
      "nal": 4027,
      "Ġest": 4028,
      "rel": 4029,
      "Ġtoil": 4030,
      "Ġdumb": 4031,
      "Ġcro": 4032,
      "erk": 4033,
      "eral": 4034,
      "Ġpants": 4035,
      "Ġpoured": 4036,
      "Ġhost": 4037,
      "Ġinse": 4038,
      "Ġdozen": 4039,
      "ĠInd": 4040,
      "Ġanger": 4041,
      "vert": 4042,
      "Ġreasons": 4043,
      "illy": 4044,
      "irts": 4045,
      "iff": 4046,
      "cean": 4047,
      "Ġsocks": 4048,
      "Ġalarm": 4049,
      "Ġhappier": 4050,
      "Ġdece": 4051,
      "acked": 4052,
      "ationship": 4053,
      "Ġroses": 4054,
      "ittee": 4055,
      "Ġboard": 4056,
      "Ġapplic": 4057,
      "Ġblank": 4058,
      "anged": 4059,
      "Ġunderstanding": 4060,
      "Ġcontent": 4061,
      "Ġcontest": 4062,
      "Ġactor": 4063,
      "Ġgreatest": 4064,
      "Ġmeth": 4065,
      "ference": 4066,
      "Ġemot": 4067,
      "Ġincome": 4068,
      "Ġboxes": 4069,
      "Ġcommittee": 4070,
      "Ġinfl": 4071,
      "velop": 4072,
      "Ġfully": 4073,
      "Ġterms": 4074,
      "Ġstronger": 4075,
      "Ġadmire": 4076,
      "Ġprepare": 4077,
      "Ġdistract": 4078,
      "umped": 4079,
      "Ġpleasant": 4080,
      "Ġholding": 4081,
      "Ġbottom": 4082,
      "Ġgenius": 4083,
      "Ġnewspapers": 4084,
      "Ġdoubts": 4085,
      "Ġargue": 4086,
      "Ġunlucky": 4087,
      "Once": 4088,
      "Ġflying": 4089,
      "Ġcrowded": 4090,
      "Ġpolitics": 4091,
      "Ġappears": 4092,
      "Ġdefinite": 4093,
      "Ġcanceled": 4094,
      "Ġknocked": 4095,
      "Ġproperly": 4096,
      "Ġincredible": 4097,
      "Ġcastle": 4098,
      "Ġfifty": 4099,
      "Ġwitness": 4100,
      "Ġpsych": 4101,
      "Ġfifteen": 4102,
      "Act": 4103,
      "apped": 4104,
      "bum": 4105,
      "cha": 4106,
      "ev": 4107,
      "Ġ7": 4108,
      "ĠDo": 4109,
      "Ġded": 4110,
      "Ġbass": 4111,
      "Ġbaked": 4112,
      "Ġlack": 4113,
      "ites": 4114,
      "Ġnons": 4115,
      "Ġnamed": 4116,
      "Ġgate": 4117,
      "ask": 4118,
      "arrow": 4119,
      "Ġhole": 4120,
      "Ġthick": 4121,
      "ata": 4122,
      "idays": 4123,
      "Ġoffered": 4124,
      "Ġstun": 4125,
      "Ġaside": 4126,
      "Ġplants": 4127,
      "Ġplanted": 4128,
      "Ġgotta": 4129,
      "apt": 4130,
      "Ġwondered": 4131,
      "Ġlasted": 4132,
      "Ġreme": 4133,
      "angers": 4134,
      "Ġfaith": 4135,
      "Ġfinal": 4136,
      "Ġaccompl": 4137,
      "Ġdecl": 4138,
      "Ġkindness": 4139,
      "Ġcheated": 4140,
      "Ġstruck": 4141,
      "Ġphys": 4142,
      "Ġperform": 4143,
      "Ġshame": 4144,
      "Ġtoward": 4145,
      "Ġbitter": 4146,
      "Ġsincere": 4147,
      "Ġhandsome": 4148,
      "Ġmiles": 4149,
      "Ġbags": 4150,
      "fficient": 4151,
      "ĠRuss": 4152,
      "Ġpowerful": 4153,
      "Ġdeny": 4154,
      "Ġdrawer": 4155,
      "Ġvalue": 4156,
      "Ġrobbed": 4157,
      "Ġmirac": 4158,
      "Ġbecoming": 4159,
      "Ġdestroyed": 4160,
      "Ġhesitate": 4161,
      "Ġunusual": 4162,
      "Ġcoincidence": 4163,
      "Ġmethod": 4164,
      "Cle": 4165,
      "Gu": 4166,
      "Oh": 4167,
      "Pric": 4168,
      "go": 4169,
      "gain": 4170,
      "Ġ9": 4171,
      "Ġsink": 4172,
      "Ġfake": 4173,
      "Ġfirm": 4174,
      "Ġlines": 4175,
      "ences": 4176,
      "Ġnarrow": 4177,
      "Ġpapers": 4178,
      "Tomorrow": 4179,
      "Ġheight": 4180,
      "lex": 4181,
      "Ġrev": 4182,
      "ician": 4183,
      "Ġforce": 4184,
      "Ġweigh": 4185,
      "Ġstared": 4186,
      "Ġcandy": 4187,
      "Ġjam": 4188,
      "Ġalbum": 4189,
      "Ġspo": 4190,
      "Ġspare": 4191,
      "Ġunex": 4192,
      "iev": 4193,
      "Ġhelps": 4194,
      "dern": 4195,
      "Ġconven": 4196,
      "Ġrose": 4197,
      "Ġcares": 4198,
      "Ġfinding": 4199,
      "Ġearns": 4200,
      "Ġresour": 4201,
      "Ġmarriage": 4202,
      "Ġtrained": 4203,
      "Ġwarning": 4204,
      "Ġrelationship": 4205,
      "Ġdelayed": 4206,
      "Ġeleven": 4207,
      "Ġcomplaints": 4208,
      "Ġapologized": 4209,
      "Ġlesson": 4210,
      "Ġinstruct": 4211,
      "Ġphotos": 4212,
      "Ġcerem": 4213,
      "Ġengaged": 4214,
      "Ġparticip": 4215,
      "Ġindust": 4216,
      "Ġcloset": 4217,
      "Ġholidays": 4218,
      "Ġcurt": 4219,
      "Ġelected": 4220,
      "Forget": 4221,
      "ugged": 4222,
      "Ġoptions": 4223,
      "Almost": 4224,
      "Ġpockets": 4225,
      "Ġ2013": 4226,
      "Ġbarking": 4227,
      "Ġnotebook": 4228,
      "Ġbench": 4229,
      "Ġrepeat": 4230,
      "Ġdetermined": 4231,
      "Ġdescribe": 4232,
      "Ġhigher": 4233,
      "Ġclaim": 4234,
      "Ġgreeted": 4235,
      "Ġadopted": 4236,
      "Prices": 4237,
      "Ġunexpected": 4238,
      "List": 4239,
      "Sw": 4240,
      "Sit": 4241,
      "co": 4242,
      "fric": 4243,
      "gs": 4244,
      "ium": 4245,
      "mates": 4246,
      "ĠThe": 4247,
      "Ġtire": 4248,
      "Ġtatt": 4249,
      "Ġaver": 4250,
      "iny": 4251,
      "Ġdea": 4252,
      "Ġcult": 4253,
      "omfortable": 4254,
      "Ġfan": 4255,
      "Ġlower": 4256,
      "Ġitself": 4257,
      "iculous": 4258,
      "Ġrate": 4259,
      "Ġrub": 4260,
      "Think": 4261,
      "Ġtruly": 4262,
      "Ġplain": 4263,
      "Ġarr": 4264,
      "Ġbuck": 4265,
      "Ġoverw": 4266,
      "Ġblo": 4267,
      "Ġblow": 4268,
      "Ġhopes": 4269,
      "Ġswear": 4270,
      "Ġopening": 4271,
      "Ġstrict": 4272,
      "Ġattended": 4273,
      "Ġbegun": 4274,
      "Ġsecrets": 4275,
      "Ġdesperate": 4276,
      "Ġowns": 4277,
      "Ġdoctors": 4278,
      "Ġskill": 4279,
      "Ġcooked": 4280,
      "Ġclosely": 4281,
      "Ġlarger": 4282,
      "Ġlargest": 4283,
      "Ġdisappoint": 4284,
      "Ġinsist": 4285,
      "Ġsalad": 4286,
      "Ġsuccessful": 4287,
      "Ġnovels": 4288,
      "Ġpaintings": 4289,
      "Ġdanced": 4290,
      "Ġconcern": 4291,
      "Ġreminds": 4292,
      "attle": 4293,
      "Ġuncomfortable": 4294,
      "Ġannoying": 4295,
      "Ġthreatened": 4296,
      "Ġauthor": 4297,
      "Ġtextbook": 4298,
      "Ġeconomy": 4299,
      "priate": 4300,
      "Ġjournal": 4301,
      "Frankly": 4302,
      "Ġconcentrate": 4303,
      "Ġthirteen": 4304,
      "Ġtoilet": 4305,
      "Ġnonsense": 4306,
      "Ġstunned": 4307,
      "Ġdeaf": 4308,
      "Ab": 4309,
      "Cats": 4310,
      "Find": 4311,
      "French": 4312,
      "Me": 4313,
      "Re": 4314,
      "Time": 4315,
      "ey": 4316,
      "ivor": 4317,
      "rance": 4318,
      "sed": 4319,
      "Ġsilly": 4320,
      "Ġdess": 4321,
      "isy": 4322,
      "Ġment": 4323,
      "Ġfill": 4324,
      "Ġfate": 4325,
      "Ġfasc": 4326,
      "Ġlent": 4327,
      "eds": 4328,
      "Ġnon": 4329,
      "Ġhall": 4330,
      "Ġhammer": 4331,
      "pper": 4332,
      "Ġshook": 4333,
      "Ġsum": 4334,
      "Ġtech": 4335,
      "Ġrabbit": 4336,
      "Ġsoph": 4337,
      "ilities": 4338,
      "Ġdeg": 4339,
      "Ġdevelop": 4340,
      "Ġhelpful": 4341,
      "Ġsometime": 4342,
      "Ġintended": 4343,
      "Ġexpert": 4344,
      "Ġbelt": 4345,
      "Ġguide": 4346,
      "umn": 4347,
      "Ġappl": 4348,
      "Ġputting": 4349,
      "Ġsurr": 4350,
      "Ġresist": 4351,
      "Ġwalks": 4352,
      "Ġmater": 4353,
      "Ġmaybe": 4354,
      "Ġcheaper": 4355,
      "Ġbiggest": 4356,
      "Ġfold": 4357,
      "Ġchoices": 4358,
      "Ġvisiting": 4359,
      "Ġreasonable": 4360,
      "wards": 4361,
      "Ġcomputers": 4362,
      "ĠMondays": 4363,
      "Ġadmitted": 4364,
      "Ġpreparing": 4365,
      "Ġinformed": 4366,
      "Ġexperiment": 4367,
      "Anybody": 4368,
      "Ġsurvivor": 4369,
      "Ġpackage": 4370,
      "Ġhanging": 4371,
      "Ġfingers": 4372,
      "Ġgenerous": 4373,
      "Ġmotor": 4374,
      "Ġattacked": 4375,
      "Ġcenter": 4376,
      "Ġdeparture": 4377,
      "Ġmirror": 4378,
      "Ġachieve": 4379,
      "Ġliter": 4380,
      "Ġweapon": 4381,
      "Ġdisturb": 4382,
      "Ġhyp": 4383,
      "Smoking": 4384,
      "Ġwebsite": 4385,
      "Check": 4386,
      "Ġallergic": 4387,
      "Ġconclus": 4388,
      "Ġscolded": 4389,
      "Ġinstructions": 4390,
      "Ġceremony": 4391,
      "Ġfascin": 4392,
      "Each": 4393,
      "Sever": 4394,
      "arents": 4395,
      "ipt": 4396,
      "mail": 4397,
      "now": 4398,
      "oll": 4399,
      "oved": 4400,
      "pre": 4401,
      "por": 4402,
      "sak": 4403,
      "ĠLet": 4404,
      "Ġwave": 4405,
      "har": 4406,
      "Ġmob": 4407,
      "Ġbitten": 4408,
      "Ġlugg": 4409,
      "Ġgain": 4410,
      "Ġgamb": 4411,
      "Ġocean": 4412,
      "Ġhorses": 4413,
      "Ġthro": 4414,
      "esp": 4415,
      "Ġredu": 4416,
      "Ġweb": 4417,
      "riger": 4418,
      "Ġrac": 4419,
      "Ġrail": 4420,
      "Ġupon": 4421,
      "Ġplant": 4422,
      "Ġchose": 4423,
      "raw": 4424,
      "Ġrooms": 4425,
      "Ġmodern": 4426,
      "ization": 4427,
      "Ġplanet": 4428,
      "Stand": 4429,
      "Ġfarmer": 4430,
      "Ġdiscovered": 4431,
      "Ġdreamed": 4432,
      "Ġkissing": 4433,
      "Ġrefriger": 4434,
      "Ġapology": 4435,
      "Ġsignific": 4436,
      "Ġlegal": 4437,
      "Ġridiculous": 4438,
      "ivid": 4439,
      "Ġsatisf": 4440,
      "Ġbothering": 4441,
      "Ġmountains": 4442,
      "Ġtranslated": 4443,
      "Ġvalu": 4444,
      "ounced": 4445,
      "Ġoptim": 4446,
      "Ġcustomers": 4447,
      "Ġscreaming": 4448,
      "Ġpotatoes": 4449,
      "Ġfilm": 4450,
      "Ġdisgusting": 4451,
      "Ġassistance": 4452,
      "Ġweapons": 4453,
      "Ġdrugs": 4454,
      "Ġprofessional": 4455,
      "Ġelectricity": 4456,
      "Ġinvented": 4457,
      "Ġissue": 4458,
      "Ġchallenge": 4459,
      "Ġassumed": 4460,
      "Ġreservation": 4461,
      "Listen": 4462,
      "Ġtattoo": 4463,
      "Ġdessert": 4464,
      "Several": 4465,
      "saka": 4466,
      "Ġluggage": 4467,
      "Bl": 4468,
      "Fo": 4469,
      "Fill": 4470,
      "Money": 4471,
      "Promise": 4472,
      "fers": 4473,
      "king": 4474,
      "pha": 4475,
      "ped": 4476,
      "rand": 4477,
      "ouder": 4478,
      "Ġsou": 4479,
      "Ġsore": 4480,
      "Ġsons": 4481,
      "Ġtor": 4482,
      "Ġdumped": 4483,
      "Ġdata": 4484,
      "Ġmark": 4485,
      "Ġfought": 4486,
      "Ġleak": 4487,
      "Ġlouder": 4488,
      "Ġnature": 4489,
      "Ġgat": 4490,
      "Ġpet": 4491,
      "arian": 4492,
      "Ġhoney": 4493,
      "antic": 4494,
      "aled": 4495,
      "Ġknowledge": 4496,
      "Ġshout": 4497,
      "Ġtimid": 4498,
      "urity": 4499,
      "Ġalike": 4500,
      "Ġspy": 4501,
      "Ġspite": 4502,
      "Ġcomment": 4503,
      "Ġconference": 4504,
      "Ġlecture": 4505,
      "Ġadvert": 4506,
      "ĠFu": 4507,
      "Ġimm": 4508,
      "Ġcompos": 4509,
      "ption": 4510,
      "ummer": 4511,
      "Ġpoet": 4512,
      "Ġremoved": 4513,
      "Ġhandy": 4514,
      "Ġscience": 4515,
      "Ġflood": 4516,
      "Ġstarts": 4517,
      "Ġsleeps": 4518,
      "ĠAs": 4519,
      "Ġsupper": 4520,
      "Ġwarmer": 4521,
      "Ġchamp": 4522,
      "Ġ100": 4523,
      "Ġhaircut": 4524,
      "Ġentrance": 4525,
      "Ġdisappeared": 4526,
      "Ġstreets": 4527,
      "Ġsells": 4528,
      "Ġimagined": 4529,
      "Ġtaxes": 4530,
      "Ġpublished": 4531,
      "Anyone": 4532,
      "Ġpurse": 4533,
      "Ġringing": 4534,
      "Ġoccas": 4535,
      "Ġfluently": 4536,
      "Ġemployees": 4537,
      "Ġfocus": 4538,
      "Ġresearch": 4539,
      "Ġaccompan": 4540,
      "Ġturning": 4541,
      "Ġgloves": 4542,
      "Ġdefinitely": 4543,
      "Ġmiracle": 4544,
      "frica": 4545,
      "Ġrefrigerator": 4546,
      "Ġgathered": 4547,
      "Americ": 4548,
      "Bu": 4549,
      "En": 4550,
      "More": 4551,
      "bage": 4552,
      "gu": 4553,
      "gage": 4554,
      "mar": 4555,
      "pir": 4556,
      "ray": 4557,
      "year": 4558,
      "Ġtar": 4559,
      "Ġtip": 4560,
      "Ġwha": 4561,
      "Ġdig": 4562,
      "Ġdouble": 4563,
      "Ġbi": 4564,
      "Ġcre": 4565,
      "Ġcities": 4566,
      "omen": 4567,
      "Ġfant": 4568,
      "Ġlab": 4569,
      "Ġnerve": 4570,
      "Ġgif": 4571,
      "Ġpra": 4572,
      "asing": 4573,
      "arily": 4574,
      "Ġhook": 4575,
      "Ġhello": 4576,
      "Ġeager": 4577,
      "Ġwasted": 4578,
      "eered": 4579,
      "oph": 4580,
      "While": 4581,
      "ongrat": 4582,
      "Ġtrap": 4583,
      "Ġuns": 4584,
      "Ġnoisy": 4585,
      "isticated": 4586,
      "Ġseated": 4587,
      "Ġcover": 4588,
      "Ġcoach": 4589,
      "ept": 4590,
      "Ġarmed": 4591,
      "mbered": 4592,
      "Ġvar": 4593,
      "Ġroll": 4594,
      "osqu": 4595,
      "agement": 4596,
      "Ġhandled": 4597,
      "Ġfinan": 4598,
      "Ġfuneral": 4599,
      "Ġgranted": 4600,
      "Ġattitude": 4601,
      "Ġcontribut": 4602,
      "ĠCD": 4603,
      "Ġsurprising": 4604,
      "Ġrecent": 4605,
      "Ġrecovered": 4606,
      "Ġcrack": 4607,
      "Ġsounded": 4608,
      "Ġborder": 4609,
      "Ġnearby": 4610,
      "Ġconfidence": 4611,
      "Ġsnowing": 4612,
      "Ġdeli": 4613,
      "Ġintern": 4614,
      "Ġsales": 4615,
      "Ġsigned": 4616,
      "Ġdetect": 4617,
      "Ġcoun": 4618,
      "Ġsubway": 4619,
      "Ġmiser": 4620,
      "Ġbehave": 4621,
      "Anything": 4622,
      "Ġvolunt": 4623,
      "Ġbargain": 4624,
      "Ġburning": 4625,
      "Ġenemies": 4626,
      "Ġambul": 4627,
      "rupt": 4628,
      "Shouldn": 4629,
      "Ġpossibly": 4630,
      "Ġyelling": 4631,
      "Ġblew": 4632,
      "Ġincredibly": 4633,
      "Ġlocal": 4634,
      "Ġdisturbed": 4635,
      "Ġvolunteer": 4636,
      "Shall": 4637,
      "Ġsensitive": 4638,
      "Drink": 4639,
      "Ġteenager": 4640,
      "Ġbleeding": 4641,
      "Ġinflu": 4642,
      "Guess": 4643,
      "Ġindustry": 4644,
      "Ġaverage": 4645,
      "Ġsophisticated": 4646,
      "Ġaccompanied": 4647,
      "ongratul": 4648,
      "App": 4649,
      "Grab": 4650,
      "Luck": 4651,
      "bly": 4652,
      "eight": 4653,
      "eans": 4654,
      "gress": 4655,
      "jud": 4656,
      "kay": 4657,
      "lig": 4658,
      "rain": 4659,
      "yond": 4660,
      "Ġwild": 4661,
      "Ġmer": 4662,
      "Ġmall": 4663,
      "Ġmosqu": 4664,
      "Ġbound": 4665,
      "Ġbare": 4666,
      "Ġbattle": 4667,
      "Ġcott": 4668,
      "Ġnation": 4669,
      "asy": 4670,
      "Ġokay": 4671,
      "Ġhon": 4672,
      "Ġbeyond": 4673,
      "verse": 4674,
      "Ġreject": 4675,
      "Ġstret": 4676,
      "Ġneat": 4677,
      "unate": 4678,
      "aced": 4679,
      "acter": 4680,
      "ament": 4681,
      "Ġju": 4682,
      "Ġtrad": 4683,
      "Ġsail": 4684,
      "aste": 4685,
      "Ġages": 4686,
      "though": 4687,
      "Ġtwin": 4688,
      "Ġident": 4689,
      "Ġcheek": 4690,
      "Ġrainy": 4691,
      "Ġuseless": 4692,
      "Ġpolicy": 4693,
      "Ġtense": 4694,
      "Ġactress": 4695,
      "Ġcounting": 4696,
      "Ġskirt": 4697,
      "Ġ16": 4698,
      "Ġrelated": 4699,
      "Doesn": 4700,
      "Ġmusician": 4701,
      "Ġfastest": 4702,
      "Ġheaded": 4703,
      "Ġregular": 4704,
      "Ġdeadline": 4705,
      "Ġdaughters": 4706,
      "place": 4707,
      "Ġdarker": 4708,
      "Ġinsult": 4709,
      "Ġinsane": 4710,
      "leased": 4711,
      "Ġassume": 4712,
      "azz": 4713,
      "Ġthanks": 4714,
      "Ġsweat": 4715,
      "Ġprisoner": 4716,
      "ĠGermany": 4717,
      "Ġrisks": 4718,
      "Ġdeserves": 4719,
      "Ġclimate": 4720,
      "Ġhumor": 4721,
      "Ġceiling": 4722,
      "Ġsymp": 4723,
      "Ġprivacy": 4724,
      "Ġfactory": 4725,
      "Ġvolume": 4726,
      "Ġrented": 4727,
      "Soon": 4728,
      "Ġembarrassing": 4729,
      "Ġedge": 4730,
      "Ġviolence": 4731,
      "Ġsquare": 4732,
      "Ġfortunate": 4733,
      "Ġselfish": 4734,
      "Ġproducts": 4735,
      "Ġauthority": 4736,
      "Ġassistant": 4737,
      "Ġlimit": 4738,
      "Ġcirc": 4739,
      "Ġpredict": 4740,
      "Ġscientist": 4741,
      "Ġcooper": 4742,
      "Ġinvestigation": 4743,
      "Ġcigarettes": 4744,
      "Ġmystery": 4745,
      "Ġthroat": 4746,
      "ĠFuji": 4747,
      "Ġambulance": 4748,
      "Cut": 4749,
      "Su": 4750,
      "Won": 4751,
      "met": 4752,
      "ply": 4753,
      "vant": 4754,
      "vard": 4755,
      "ĠShe": 4756,
      "inary": 4757,
      "rer": 4758,
      "Ġbomb": 4759,
      "Ġcit": 4760,
      "omat": 4761,
      "orrect": 4762,
      "Ġnin": 4763,
      "Ġgear": 4764,
      "Ġoven": 4765,
      "arvard": 4766,
      "Ġhom": 4767,
      "ids": 4768,
      "Ġink": 4769,
      "Ġancient": 4770,
      "oos": 4771,
      "Ġkicked": 4772,
      "Ġsteak": 4773,
      "ster": 4774,
      "ents": 4775,
      "rop": 4776,
      "aches": 4777,
      "Ġsocial": 4778,
      "Ġwhist": 4779,
      "Ġtroub": 4780,
      "Ġspoon": 4781,
      "ĠMt": 4782,
      "Ġwheel": 4783,
      "Ġdefe": 4784,
      "que": 4785,
      "Ġcomb": 4786,
      "Ġaggress": 4787,
      "Ġmud": 4788,
      "Ġwhoever": 4789,
      "obe": 4790,
      "Ġvain": 4791,
      "Ġvoted": 4792,
      "Ġsheep": 4793,
      "Ġbud": 4794,
      "Ġbelow": 4795,
      "Ġdrag": 4796,
      "Ġcomplex": 4797,
      "issors": 4798,
      "Ġchances": 4799,
      "Ġhoped": 4800,
      "Ġscissors": 4801,
      "Ġmathematics": 4802,
      "ĠAfrica": 4803,
      "Ġmistook": 4804,
      "Ġanswering": 4805,
      "Ġsecurity": 4806,
      "Ġrecover": 4807,
      "Ġcrash": 4808,
      "Ġshall": 4809,
      "employ": 4810,
      "onscious": 4811,
      "ĠOsaka": 4812,
      "Ġagreement": 4813,
      "ologist": 4814,
      "Ġtallest": 4815,
      "Ġbaggage": 4816,
      "Ġcharges": 4817,
      "Ġsimply": 4818,
      "Ġbills": 4819,
      "Ġphotograph": 4820,
      "Ġcalcul": 4821,
      "alentine": 4822,
      "Ġrequired": 4823,
      "Ġdirection": 4824,
      "Ġloudly": 4825,
      "ĠWar": 4826,
      "Ġappearance": 4827,
      "Next": 4828,
      "Ġerror": 4829,
      "Ġcollecting": 4830,
      "Ġunfair": 4831,
      "Remember": 4832,
      "Ġghosts": 4833,
      "Ġpostponed": 4834,
      "Ġflew": 4835,
      "Ġoperation": 4836,
      "Ġstrike": 4837,
      "Ġcandles": 4838,
      "Ġremembered": 4839,
      "Ġtechn": 4840,
      "Ġvaluable": 4841,
      "Ġtarget": 4842,
      "Had": 4843,
      "Hang": 4844,
      "Women": 4845,
      "ai": 4846,
      "aire": 4847,
      "lace": 4848,
      "mate": 4849,
      "pock": 4850,
      "town": 4851,
      "heart": 4852,
      "hetic": 4853,
      "Ġwre": 4854,
      "hache": 4855,
      "isis": 4856,
      "Ġmic": 4857,
      "Ġmouse": 4858,
      "Ġbow": 4859,
      "Ġfuss": 4860,
      "Ġfainted": 4861,
      "Ġnicer": 4862,
      "Ġease": 4863,
      "stick": 4864,
      "Ġjeans": 4865,
      "Ġjazz": 4866,
      "Ġrush": 4867,
      "Ġoutr": 4868,
      "Ġconse": 4869,
      "Ġcoins": 4870,
      "Ġquarter": 4871,
      "agger": 4872,
      "Ġcompared": 4873,
      "Ġtwins": 4874,
      "ĠBrit": 4875,
      "Ġaccur": 4876,
      "Ġfund": 4877,
      "Ġturns": 4878,
      "Ġkeeping": 4879,
      "Ġcleared": 4880,
      "elve": 4881,
      "Ġaction": 4882,
      "Ġdesign": 4883,
      "Ġshaken": 4884,
      "Ġimportance": 4885,
      "Ġends": 4886,
      "Ġfrustr": 4887,
      "Ġ18": 4888,
      "Ġdiam": 4889,
      "Ġstopping": 4890,
      "Ġlawn": 4891,
      "Ġregard": 4892,
      "Ġoblig": 4893,
      "Ġgrown": 4894,
      "Ġgrows": 4895,
      "Ġretire": 4896,
      "Ġsungl": 4897,
      "Ġsuits": 4898,
      "Ġmedical": 4899,
      "Ġbuildings": 4900,
      "Ġspec": 4901,
      "ĠGree": 4902,
      "Christmas": 4903,
      "ivated": 4904,
      "Ġprotest": 4905,
      "Ġreceive": 4906,
      "Ġtranslation": 4907,
      "Ġloser": 4908,
      "Ġparticularly": 4909,
      "Ġimproved": 4910,
      "Ġequal": 4911,
      "ĠValentine": 4912,
      "Ġunderest": 4913,
      "Ġpostpone": 4914,
      "Ġexchange": 4915,
      "Ġaimed": 4916,
      "Ġwishes": 4917,
      "Ġbanana": 4918,
      "Ġbeside": 4919,
      "ĠSpain": 4920,
      "ĠIntern": 4921,
      "Ġdistracted": 4922,
      "ĠRussian": 4923,
      "Ġmentally": 4924,
      "Ġsurvivors": 4925,
      "Ġmotorcy": 4926,
      "Ġsignificant": 4927,
      "Ġfantastic": 4928,
      "Ġmiserable": 4929,
      "Ġjuice": 4930,
      "Ġcitiz": 4931,
      "Ġwreck": 4932,
      "Ġsunglasses": 4933,
      "But": 4934,
      "Cont": 4935,
      "Man": 4936,
      "cast": 4937,
      "jam": 4938,
      "âĢ": 4939,
      "ĠHow": 4940,
      "ĠWhy": 4941,
      "ĠPlease": 4942,
      "Ġtre": 4943,
      "onst": 4944,
      "Ġbal": 4945,
      "Ġloose": 4946,
      "Ġnational": 4947,
      "Ġgather": 4948,
      "arant": 4949,
      "Ġthor": 4950,
      "Ġant": 4951,
      "Ġreleased": 4952,
      "Ġfork": 4953,
      "Ġstaff": 4954,
      "rig": 4955,
      "chief": 4956,
      "Ġknees": 4957,
      "Ġcandle": 4958,
      "utious": 4959,
      "Ġjerk": 4960,
      "ends": 4961,
      "Ġrom": 4962,
      "Ġraw": 4963,
      "urs": 4964,
      "cts": 4965,
      "Ġhers": 4966,
      "Ġexagger": 4967,
      "ĠMay": 4968,
      "Ġsees": 4969,
      "Ġprohib": 4970,
      "Ġcautious": 4971,
      "Ġvan": 4972,
      "Ġstubb": 4973,
      "Ġboots": 4974,
      "Ġbrand": 4975,
      "Ġguarant": 4976,
      "Ġpoll": 4977,
      "Ġdowntown": 4978,
      "Ġremains": 4979,
      "Ġchanging": 4980,
      "Ġblond": 4981,
      "Ġscr": 4982,
      "Ġaccent": 4983,
      "Ġputs": 4984,
      "Ġdecor": 4985,
      "cially": 4986,
      "cience": 4987,
      "Ġstrangers": 4988,
      "Ġpersonally": 4989,
      "Ġmeters": 4990,
      "Ġcrisis": 4991,
      "onsider": 4992,
      "Ġsnakes": 4993,
      "Ġtowards": 4994,
      "Ġnumbers": 4995,
      "Ġparking": 4996,
      "Ġfreez": 4997,
      "Ġcomplaint": 4998,
      "Ġinterse": 4999,
      "Ġadmired": 5000,
      "ĠItaly": 5001,
      "Ġcourt": 5002,
      "Ġterrified": 5003,
      "Ġterribly": 5004,
      "reedom": 5005,
      "ivil": 5006,
      "Ġhonesty": 5007,
      "Ġabsence": 5008,
      "Ġsilver": 5009,
      "Ġbreathe": 5010,
      "Ġappropriate": 5011,
      "Ġrequire": 5012,
      "Ġambition": 5013,
      "Ġpacked": 5014,
      "Ġstraw": 5015,
      "Ġsuitcases": 5016,
      "Ġgrades": 5017,
      "Ġtotal": 5018,
      "Ġconditions": 5019,
      "Ġgarbage": 5020,
      "Although": 5021,
      "Ġcellphone": 5022,
      "Ġstamp": 5023,
      "Ġpositive": 5024,
      "Ġtourists": 5025,
      "Ġincrease": 5026,
      "Ġcircle": 5027,
      "lected": 5028,
      "Ġeffective": 5029,
      "handed": 5030,
      "Actually": 5031,
      "Ġsurrounded": 5032,
      "Ġgambling": 5033,
      "Follow": 5034,
      "Enjoy": 5035,
      "Ġvolunteered": 5036,
      "Ġmosquit": 5037,
      "Ġstubborn": 5038,
      "And": 5039,
      "Either": 5040,
      "Fin": 5041,
      "Light": 5042,
      "Lock": 5043,
      "Men": 5044,
      "Ten": 5045,
      "ald": 5046,
      "cles": 5047,
      "kn": 5048,
      "nel": 5049,
      "rad": 5050,
      "ration": 5051,
      "umber": 5052,
      "wise": 5053,
      "Ġtap": 5054,
      "Ġtied": 5055,
      "Ġtail": 5056,
      "Ġtask": 5057,
      "Ġwire": 5058,
      "Ġtoes": 5059,
      "Ġdy": 5060,
      "Ġcher": 5061,
      "Ġcure": 5062,
      "Ġlat": 5063,
      "itor": 5064,
      "ency": 5065,
      "ero": 5066,
      "Ġgro": 5067,
      "Ġpil": 5068,
      "Ġpig": 5069,
      "ators": 5070,
      "ĠIf": 5071,
      "Ġeld": 5072,
      "Ġitem": 5073,
      "Ġformed": 5074,
      "Ġgoals": 5075,
      "store": 5076,
      "Ġshr": 5077,
      "Ġshirts": 5078,
      "Ġjog": 5079,
      "Ġwhiche": 5080,
      "geous": 5081,
      "Ġunemploy": 5082,
      "Ġsevent": 5083,
      "Ġcode": 5084,
      "Ġenvel": 5085,
      "Ġvot": 5086,
      "Ġofficer": 5087,
      "Ġreads": 5088,
      "Ġlean": 5089,
      "Ġbran": 5090,
      "Ġcompromise": 5091,
      "Ġblamed": 5092,
      "Ġflash": 5093,
      "Ġgram": 5094,
      "Ġstrugg": 5095,
      "Ġattic": 5096,
      "Ġtraining": 5097,
      "Ġbeginner": 5098,
      "Ġbreaking": 5099,
      "Ġserve": 5100,
      "Ġshared": 5101,
      "Ġaccidents": 5102,
      "Ġdiscount": 5103,
      "Ġrelative": 5104,
      "Ġconsult": 5105,
      "iber": 5106,
      "ibilities": 5107,
      "Ġsecretary": 5108,
      "Ġstrongly": 5109,
      "Ġinterv": 5110,
      "Ġinterpre": 5111,
      "Ġpickpock": 5112,
      "Ġwalls": 5113,
      "Ġsoldier": 5114,
      "Ġpunish": 5115,
      "Ġoppos": 5116,
      "Ġreceipt": 5117,
      "ĠHarvard": 5118,
      "Ġcrossing": 5119,
      "Ġrespected": 5120,
      "Ġdancer": 5121,
      "Ġuniverse": 5122,
      "Ġirre": 5123,
      "Ġfits": 5124,
      "Ġ197": 5125,
      "Ġreminded": 5126,
      "Ġdebate": 5127,
      "Ġdebts": 5128,
      "Ġunconscious": 5129,
      "resp": 5130,
      "Ġgunshots": 5131,
      "Ġcentury": 5132,
      "Ġmentioned": 5133,
      "Ġmillionaire": 5134,
      "Ġdevoted": 5135,
      "Ġdepartment": 5136,
      "Ġachieved": 5137,
      "Ġbattery": 5138,
      "Ġdocuments": 5139,
      "Ġprovide": 5140,
      "Ġexchanged": 5141,
      "Ġdespise": 5142,
      "Ġrescued": 5143,
      "Ġgrabbed": 5144,
      "Ġsplit": 5145,
      "Ġcarpet": 5146,
      "Ġdedicated": 5147,
      "Ġconvenient": 5148,
      "Ġbucket": 5149,
      "Ġoverweight": 5150,
      "Ġmobile": 5151,
      "Ġoccasion": 5152,
      "guard": 5153,
      "Ġrejected": 5154,
      "Ġhomes": 5155,
      "Ġaggressive": 5156,
      "ĠInternet": 5157,
      "Ġintersection": 5158,
      "Ġwhichever": 5159,
      "Ġenvelope": 5160,
      "Ad": 5161,
      "Bird": 5162,
      "Hum": 5163,
      "Lear": 5164,
      "Summer": 5165,
      "aving": 5166,
      "arently": 5167,
      "eed": 5168,
      "ffered": 5169,
      "ipp": 5170,
      "lish": 5171,
      "ux": 5172,
      "uct": 5173,
      "uary": 5174,
      "val": 5175,
      "ĠTh": 5176,
      "Ġske": 5177,
      "Ġsouth": 5178,
      "Ġtoy": 5179,
      "Ġtoys": 5180,
      "Ġda": 5181,
      "Ġdust": 5182,
      "Ġmass": 5183,
      "Ġcree": 5184,
      "Ġcough": 5185,
      "Ġcrew": 5186,
      "ength": 5187,
      "erved": 5188,
      "aries": 5189,
      "Ġbeating": 5190,
      "levant": 5191,
      "Ġefficient": 5192,
      "icing": 5193,
      "ication": 5194,
      "Ġforty": 5195,
      "Ġsting": 5196,
      "Ġstat": 5197,
      "stances": 5198,
      "Ġsuffered": 5199,
      "Ġrot": 5200,
      "Ġrare": 5201,
      "Ġoutdo": 5202,
      "geon": 5203,
      "Ġsau": 5204,
      "Ġcomfort": 5205,
      "Ġagrees": 5206,
      "erson": 5207,
      "fere": 5208,
      "Ġburied": 5209,
      "Ġadult": 5210,
      "agers": 5211,
      "Ġhandker": 5212,
      "anges": 5213,
      "Ġfinds": 5214,
      "Ġpajam": 5215,
      "Ġdiffer": 5216,
      "Ġflag": 5217,
      "Ġbedtime": 5218,
      "Ġchest": 5219,
      "Ġmission": 5220,
      "ipl": 5221,
      "uding": 5222,
      "Ġrested": 5223,
      "Ġsneak": 5224,
      "Ġdifficulties": 5225,
      "Ġclassmates": 5226,
      "Ġsafely": 5227,
      "Ġincomp": 5228,
      "Ġdisappear": 5229,
      "gery": 5230,
      "Ġcommit": 5231,
      "Ġexamined": 5232,
      "Ġinterfere": 5233,
      "Ġbringing": 5234,
      "Ġrising": 5235,
      "Ġhalfway": 5236,
      "Ġhidden": 5237,
      "Ġblackboard": 5238,
      "Ġchairs": 5239,
      "Ġengagement": 5240,
      "Ġunlock": 5241,
      "Ġthrown": 5242,
      "Ġpresence": 5243,
      "Ġmaid": 5244,
      "Ġfluent": 5245,
      "Ġruin": 5246,
      "Ġcoward": 5247,
      "Ġcritical": 5248,
      "Japanese": 5249,
      "Ġlifted": 5250,
      "Ġmisunderstood": 5251,
      "iking": 5252,
      "Ġacquainted": 5253,
      "Ġcamping": 5254,
      "Ġjourney": 5255,
      "Ġconnected": 5256,
      "Ġconnection": 5257,
      "Ġdislike": 5258,
      "Ġbananas": 5259,
      "Ġdivided": 5260,
      "Ġstyle": 5261,
      "Ġexperienced": 5262,
      "Ġapplication": 5263,
      "Ġfolded": 5264,
      "Ġfascinating": 5265,
      "Ġsatisfact": 5266,
      "Ġoptimistic": 5267,
      "Ġwhale": 5268,
      "Ġconsequ": 5269,
      "Ġdiamond": 5270,
      "Ġmotorcycle": 5271,
      "Ġprohibited": 5272,
      "Ġhandkerchief": 5273,
      "Ġpajamas": 5274,
      "Fl": 5275,
      "Gen": 5276,
      "Love": 5277,
      "Walk": 5278,
      "lo": 5279,
      "law": 5280,
      "was": 5281,
      "ym": 5282,
      "ĠCould": 5283,
      "Ġwound": 5284,
      "Ġtoler": 5285,
      "onment": 5286,
      "Ġdrew": 5287,
      "vere": 5288,
      "Ġbot": 5289,
      "Ġbone": 5290,
      "Ġcy": 5291,
      "Ġcongratul": 5292,
      "oms": 5293,
      "Ġled": 5294,
      "Ġnorth": 5295,
      "Ġgym": 5296,
      "Ġpin": 5297,
      "Ġpeel": 5298,
      "Ġpens": 5299,
      "Ġham": 5300,
      "arched": 5301,
      "Ġbee": 5302,
      "Ġinfect": 5303,
      "Ġren": 5304,
      "Ġstress": 5305,
      "ales": 5306,
      "Ġknee": 5307,
      "stead": 5308,
      "ters": 5309,
      "rog": 5310,
      "ama": 5311,
      "ironment": 5312,
      "Ġworn": 5313,
      "Ġrap": 5314,
      "Ġloaded": 5315,
      "Ġhelpless": 5316,
      "Ġworker": 5317,
      "Ġsew": 5318,
      "Ġsearched": 5319,
      "Whether": 5320,
      "ears": 5321,
      "Ġclue": 5322,
      "Ġpregn": 5323,
      "Ġsmo": 5324,
      "Ġpray": 5325,
      "Ġpride": 5326,
      "Ġtwelve": 5327,
      "Ġawfully": 5328,
      "Ġpoker": 5329,
      "Ġappet": 5330,
      "Ġglanced": 5331,
      "Ġscary": 5332,
      "Ġsword": 5333,
      "Ġearn": 5334,
      "Ġsurgery": 5335,
      "Ġgrave": 5336,
      "ĠApri": 5337,
      "Ġchem": 5338,
      "Ġcheating": 5339,
      "ciation": 5340,
      "Ġsupply": 5341,
      "Ġsupplies": 5342,
      "Ġfox": 5343,
      "Ġyoungest": 5344,
      "Ġstops": 5345,
      "iped": 5346,
      "ĠSw": 5347,
      "Ġcrashed": 5348,
      "Ġshake": 5349,
      "Ġvisa": 5350,
      "Ġlightning": 5351,
      "Ġfridge": 5352,
      "Ġ15": 5353,
      "Ġguessed": 5354,
      "Ġconscious": 5355,
      "Ġexcuses": 5356,
      "Ġregist": 5357,
      "Ġelephan": 5358,
      "Ġsunsc": 5359,
      "Ġexpenses": 5360,
      "Ġdecisions": 5361,
      "Ġfalls": 5362,
      "Ġcharacter": 5363,
      "Ġseconds": 5364,
      "Ġjoined": 5365,
      "Ġtreating": 5366,
      "Ġdeserted": 5367,
      "Ġabsor": 5368,
      "Ġstarving": 5369,
      "Ġstarved": 5370,
      "Ġapproved": 5371,
      "Ġtopic": 5372,
      "Ġtyph": 5373,
      "Ġindo": 5374,
      "Ġclosest": 5375,
      "Ġburgl": 5376,
      "Ġsupportive": 5377,
      "Ġvegetarian": 5378,
      "Ġevil": 5379,
      "Ġinnoc": 5380,
      "Ġpencils": 5381,
      "Ġoption": 5382,
      "Ġpersonality": 5383,
      "Ġgeneral": 5384,
      "exic": 5385,
      "Ġ50": 5386,
      "Ġimpressive": 5387,
      "Ġscreamed": 5388,
      "Ġnegative": 5389,
      "Ġsuffer": 5390,
      "Ġscenery": 5391,
      "Ġgraduate": 5392,
      "Ġautumn": 5393,
      "Ġprinci": 5394,
      "Ġprovided": 5395,
      "Ġpronounce": 5396,
      "Ġsettle": 5397,
      "Ġsettled": 5398,
      "Ġpills": 5399,
      "Ġcreative": 5400,
      "Ġoriginal": 5401,
      "Ġbriefly": 5402,
      "Ġreligious": 5403,
      "Ġpuzzle": 5404,
      "Ġaccomplish": 5405,
      "Ġperformance": 5406,
      "Ġdegrees": 5407,
      "Ġtradition": 5408,
      "Ġbudget": 5409,
      "âĢĻ": 5410,
      "Ġthorough": 5411,
      "Ġlatest": 5412,
      "Birds": 5413,
      "ĠApril": 5414,
      "Ġsunscreen": 5415,
      "Air": 5416,
      "Add": 5417,
      "Bet": 5418,
      "Co": 5419,
      "Dri": 5420,
      "Fortun": 5421,
      "Hal": 5422,
      "Happ": 5423,
      "New": 5424,
      "Save": 5425,
      "Tie": 5426,
      "bet": 5427,
      "cure": 5428,
      "fet": 5429,
      "ially": 5430,
      "mare": 5431,
      "oard": 5432,
      "round": 5433,
      "sle": 5434,
      "uous": 5435,
      "ware": 5436,
      "xy": 5437,
      "yal": 5438,
      "zed": 5439,
      "Âł": 5440,
      "Ġtent": 5441,
      "Ġsac": 5442,
      "Ġdorm": 5443,
      "Ġdipl": 5444,
      "Ġbunch": 5445,
      "Ġcave": 5446,
      "anish": 5447,
      "Ġfreedom": 5448,
      "itable": 5449,
      "Ġner": 5450,
      "Ġhugged": 5451,
      "ushing": 5452,
      "imp": 5453,
      "Ġonline": 5454,
      "iches": 5455,
      "Ġdonated": 5456,
      "adays": 5457,
      "allow": 5458,
      "Dogs": 5459,
      "iform": 5460,
      "Ġrow": 5461,
      "Ġriche": 5462,
      "Ġuses": 5463,
      "Ġtrunk": 5464,
      "Ġunw": 5465,
      "Ġuniform": 5466,
      "ilies": 5467,
      "ĠMars": 5468,
      "ession": 5469,
      "Ġsem": 5470,
      "Ġmanners": 5471,
      "Ġconce": 5472,
      "Ġproceed": 5473,
      "Ġcarr": 5474,
      "Ġchop": 5475,
      "Ġintrig": 5476,
      "Ġvivid": 5477,
      "Ġoffic": 5478,
      "ardon": 5479,
      "Ġbookstore": 5480,
      "Ġbug": 5481,
      "Ġwatches": 5482,
      "Ġbold": 5483,
      "Ġnightmare": 5484,
      "Haven": 5485,
      "umstances": 5486,
      "Ġswam": 5487,
      "Ġopera": 5488,
      "Ġlaund": 5489,
      "Ġsurren": 5490,
      "Start": 5491,
      "Ġdecent": 5492,
      "Ġgray": 5493,
      "ĠAl": 5494,
      "ĠJune": 5495,
      "ipe": 5496,
      "Ġsings": 5497,
      "Ġperhaps": 5498,
      "Ġrecall": 5499,
      "Ġpromoted": 5500,
      "Before": 5501,
      "Ġshave": 5502,
      "Ġhunting": 5503,
      "Ġbreaks": 5504,
      "Ġskate": 5505,
      "Ġdiscouraged": 5506,
      "Ġ12": 5507,
      "Ġcompliment": 5508,
      "Ġentertain": 5509,
      "Ġconsists": 5510,
      "ibi": 5511,
      "Ġaddressed": 5512,
      "Ġlaws": 5513,
      "Ġconfessed": 5514,
      "Ġincident": 5515,
      "Ġclothing": 5516,
      "Ġexams": 5517,
      "Ġdisappointing": 5518,
      "Ġcharming": 5519,
      "Ġowes": 5520,
      "Ġblackmail": 5521,
      "Ġrisky": 5522,
      "ival": 5523,
      "Ġdeserved": 5524,
      "Ġheavily": 5525,
      "Ġpostc": 5526,
      "Ġcarrying": 5527,
      "Ġpressed": 5528,
      "Ġconditioner": 5529,
      "Ġfaces": 5530,
      "Ġpolitical": 5531,
      "Ġpolitician": 5532,
      "Ġmotivated": 5533,
      "resident": 5534,
      "Reading": 5535,
      "Ġmagazines": 5536,
      "Ġspotted": 5537,
      "Ġconstantly": 5538,
      "Ġaston": 5539,
      "Ġdishwas": 5540,
      "Ġsurface": 5541,
      "Ġverify": 5542,
      "Ġquality": 5543,
      "Ġtemptation": 5544,
      "Ġbasketball": 5545,
      "Ġremarks": 5546,
      "Trust": 5547,
      "Ġsource": 5548,
      "Ġnecklace": 5549,
      "Ġlogical": 5550,
      "Ġenvironment": 5551,
      "looking": 5552,
      "Ġpsychic": 5553,
      "ievable": 5554,
      "Ġresource": 5555,
      "Ġparticipate": 5556,
      "Ġcurtain": 5557,
      "Ġjournalist": 5558,
      "About": 5559,
      "porary": 5560,
      "Ġwaved": 5561,
      "Ġsoul": 5562,
      "Ġfinancial": 5563,
      "Ġmicro": 5564,
      "Ġjogging": 5565,
      "Ġflashlight": 5566,
      "Ġinterview": 5567,
      "Ġoutdoors": 5568,
      "Ġincompet": 5569,
      "Ġsmooth": 5570,
      "Ġindoors": 5571,
      "Ġinnocence": 5572,
      "Half": 5573,
      "Ġrichest": 5574,
      "Ġdishwasher": 5575,
      "Draw": 5576,
      "Feel": 5577,
      "Honest": 5578,
      "Jud": 5579,
      "Kyoto": 5580,
      "Mom": 5581,
      "OK": 5582,
      "Send": 5583,
      "Talk": 5584,
      "Use": 5585,
      "Wash": 5586,
      "com": 5587,
      "dom": 5588,
      "gy": 5589,
      "ixt": 5590,
      "la": 5591,
      "overy": 5592,
      "rant": 5593,
      "scri": 5594,
      "writ": 5595,
      "ĠThey": 5596,
      "Ġtiny": 5597,
      "Ġack": 5598,
      "Ġwest": 5599,
      "Ġwand": 5600,
      "resent": 5601,
      "Ġsides": 5602,
      "Ġtoot": 5603,
      "Ġdyed": 5604,
      "Ġmix": 5605,
      "omy": 5606,
      "Ġlapt": 5607,
      "itter": 5608,
      "orld": 5609,
      "Ġgor": 5610,
      "Ġgained": 5611,
      "Ġpitch": 5612,
      "ara": 5613,
      "Ġthumb": 5614,
      "Ġantic": 5615,
      "imming": 5616,
      "chite": 5617,
      "acting": 5618,
      "Ġaboard": 5619,
      "ending": 5620,
      "Ġsoci": 5621,
      "Ġalpha": 5622,
      "Ġtrump": 5623,
      "Ġspin": 5624,
      "ulse": 5625,
      "ĠMexic": 5626,
      "olic": 5627,
      "orted": 5628,
      "epend": 5629,
      "Ġarchite": 5630,
      "Ġprecious": 5631,
      "Ġamm": 5632,
      "Ġshel": 5633,
      "osity": 5634,
      "Ġadults": 5635,
      "ieves": 5636,
      "Ġsmok": 5637,
      "Ġimit": 5638,
      "Ġplayers": 5639,
      "acebook": 5640,
      "Ġapplies": 5641,
      "Ġparts": 5642,
      "Ġblown": 5643,
      "Ġbluff": 5644,
      "Ġswitch": 5645,
      "ĠBra": 5646,
      "Ġaccess": 5647,
      "Ġhopeless": 5648,
      "Ġsurgeon": 5649,
      "Ġshows": 5650,
      "Ġchew": 5651,
      "Ġfamilies": 5652,
      "Ġbegged": 5653,
      "Ġactiv": 5654,
      "Ġpainful": 5655,
      "Ġdesert": 5656,
      "udd": 5657,
      "ĠSouth": 5658,
      "ensive": 5659,
      "Ġtower": 5660,
      "Ġslice": 5661,
      "ords": 5662,
      "Instead": 5663,
      "Ġeyesight": 5664,
      "Ġvisitors": 5665,
      "Ġadded": 5666,
      "Ġaddition": 5667,
      "Ġaddicted": 5668,
      "Ġappreciated": 5669,
      "Ġbabys": 5670,
      "Ġcollap": 5671,
      "Ġcraw": 5672,
      "Ġdollar": 5673,
      "Ġacceptable": 5674,
      "Ġassign": 5675,
      "ĠPark": 5676,
      "Ġthanked": 5677,
      "Ġopinions": 5678,
      "Ġmenu": 5679,
      "Ġridden": 5680,
      "Ġsubscri": 5681,
      "Ġtreats": 5682,
      "Ġbehaving": 5683,
      "Ġvoc": 5684,
      "Ġannounced": 5685,
      "Ġpermitted": 5686,
      "Ġmemor": 5687,
      "Ġdemonst": 5688,
      "Ġbased": 5689,
      "Ġlanded": 5690,
      "Ġeighteen": 5691,
      "Ġdestination": 5692,
      "Ġcustomer": 5693,
      "Ġmotion": 5694,
      "Ġrumors": 5695,
      "Ġknocking": 5696,
      "Ġpoems": 5697,
      "Ġpretending": 5698,
      "Ġproductive": 5699,
      "Ġclimbing": 5700,
      "ĠUS": 5701,
      "Ġprofessor": 5702,
      "Ġfrozen": 5703,
      "Ġbecomes": 5704,
      "Ġattempted": 5705,
      "Ġslightly": 5706,
      "Ġcelebrating": 5707,
      "Ġqualified": 5708,
      "Play": 5709,
      "Ġrescue": 5710,
      "Ġbullet": 5711,
      "Ġorigin": 5712,
      "Ġignorant": 5713,
      "Ġessential": 5714,
      "Ġapproaching": 5715,
      "Ġcrops": 5716,
      "Ġemotional": 5717,
      "coat": 5718,
      "Ġbloom": 5719,
      "Ġinsisted": 5720,
      "Ġmaterial": 5721,
      "Ġcomposition": 5722,
      "Ġgifts": 5723,
      "Ġdetective": 5724,
      "Ġmercy": 5725,
      "Ġcottage": 5726,
      "Ġsympath": 5727,
      "Ġaccurate": 5728,
      "Ġunderestimate": 5729,
      "ursday": 5730,
      "known": 5731,
      "ĠThursday": 5732,
      "Ġskept": 5733,
      "Ġbothered": 5734,
      "Ġpregnant": 5735,
      "Ġappetite": 5736,
      "Ġtyphoon": 5737,
      "Ġcarrots": 5738,
      "Ġlaundry": 5739,
      "Ġacknow": 5740,
      "Ġlaptop": 5741,
      "Ġanticip": 5742,
      "Ġalphabet": 5743,
      "Boy": 5744,
      "Chan": 5745,
      "De": 5746,
      "Dinner": 5747,
      "Mar": 5748,
      "Pay": 5749,
      "Pro": 5750,
      "Ra": 5751,
      "Run": 5752,
      "Sud": 5753,
      "Words": 5754,
      "aid": 5755,
      "chan": 5756,
      "comed": 5757,
      "iP": 5758,
      "kward": 5759,
      "nes": 5760,
      "ox": 5761,
      "pered": 5762,
      "tub": 5763,
      "uish": 5764,
      "wood": 5765,
      "yst": 5766,
      "Ã©": 5767,
      "ĠThere": 5768,
      "ĠiP": 5769,
      "Ġtig": 5770,
      "Ġtires": 5771,
      "incol": 5772,
      "Ġwide": 5773,
      "Ġwiped": 5774,
      "Ġyard": 5775,
      "Ġyouth": 5776,
      "Ġmerc": 5777,
      "Ġchat": 5778,
      "Ġlamp": 5779,
      "Ġlength": 5780,
      "itz": 5781,
      "erally": 5782,
      "Ġpath": 5783,
      "Ġpounds": 5784,
      "asure": 5785,
      "otion": 5786,
      "Ġbeef": 5787,
      "ato": 5788,
      "iding": 5789,
      "Ġmechan": 5790,
      "Ġange": 5791,
      "Ġstro": 5792,
      "Ġjoy": 5793,
      "Ġrise": 5794,
      "Ġracket": 5795,
      "Ġalibi": 5796,
      "ivered": 5797,
      "Ġtrait": 5798,
      "Ġspilled": 5799,
      "Ġplate": 5800,
      "Ġplumber": 5801,
      "Ġnodd": 5802,
      "Ġshoulders": 5803,
      "Ġsevere": 5804,
      "Ġprocess": 5805,
      "Ġcared": 5806,
      "Ġintim": 5807,
      "Ġasks": 5808,
      "Ġarrow": 5809,
      "Ġclient": 5810,
      "Ġclung": 5811,
      "Ġrole": 5812,
      "Ġprec": 5813,
      "Ġamends": 5814,
      "Ġbackwards": 5815,
      "Ġord": 5816,
      "Ġoranges": 5817,
      "ĠFacebook": 5818,
      "Ġletting": 5819,
      "Ġbru": 5820,
      "Ġbrain": 5821,
      "Ġharvest": 5822,
      "Ġawkward": 5823,
      "Ġdisor": 5824,
      "Ġoverhe": 5825,
      "ressing": 5826,
      "izing": 5827,
      "Ġhardest": 5828,
      "Ġfined": 5829,
      "Ġflies": 5830,
      "Ġhurting": 5831,
      "Ġgrap": 5832,
      "Ġtrains": 5833,
      "prin": 5834,
      "Ġminim": 5835,
      "Ġcontro": 5836,
      "Ġcontain": 5837,
      "Ġcontains": 5838,
      "Ġactive": 5839,
      "Ġdesire": 5840,
      "Ġreput": 5841,
      "Ġrepresent": 5842,
      "Being": 5843,
      "Ġforgave": 5844,
      "Ġarriving": 5845,
      "Ġslipped": 5846,
      "Ġtrusts": 5847,
      "Ġstands": 5848,
      "Ġclassical": 5849,
      "Ġrefer": 5850,
      "Ġconfirm": 5851,
      "Ġregister": 5852,
      "duct": 5853,
      "Ġ200": 5854,
      "Ġteleph": 5855,
      "Ġdelay": 5856,
      "Ġdelivered": 5857,
      "Ġpresents": 5858,
      "ĠPresident": 5859,
      "Ġgrandp": 5860,
      "Ġsigns": 5861,
      "Ġweekends": 5862,
      "Ġexplod": 5863,
      "Ġsuggesting": 5864,
      "Ġcopies": 5865,
      "Ġtests": 5866,
      "Ġaffair": 5867,
      "Ġoppon": 5868,
      "Ġconsideration": 5869,
      "Ġfooled": 5870,
      "Ġbathtub": 5871,
      "Ġtasted": 5872,
      "Ġcorrectly": 5873,
      "Ġhumid": 5874,
      "Ġhumili": 5875,
      "Ġwarmth": 5876,
      "Ġfrequ": 5877,
      "ĠRome": 5878,
      "ĠCanada": 5879,
      "Ġurged": 5880,
      "Ġmagic": 5881,
      "ĠStreet": 5882,
      "Ġwelcomed": 5883,
      "Ġdirector": 5884,
      "Ġviolent": 5885,
      "Ġmurdered": 5886,
      "Ġvalid": 5887,
      "Ġabsolute": 5888,
      "attered": 5889,
      "Ġdefend": 5890,
      "Ġdemands": 5891,
      "ruction": 5892,
      "Ġexception": 5893,
      "Ġbribe": 5894,
      "Ġsteps": 5895,
      "denly": 5896,
      "Ġannoyed": 5897,
      "Ġdevast": 5898,
      "Ġfiles": 5899,
      "Ġdrowning": 5900,
      "Ġcabin": 5901,
      "Ġbenef": 5902,
      "Ġspelling": 5903,
      "Ġcaptured": 5904,
      "Ġprincess": 5905,
      "Ġflex": 5906,
      "Ġwebsites": 5907,
      "Ġstepped": 5908,
      "Ġcelebrate": 5909,
      "Ġcooperate": 5910,
      "Ġencouraged": 5911,
      "Ġcigarette": 5912,
      "Ġseparated": 5913,
      "Ġblocked": 5914,
      "Ġpointed": 5915,
      "Ġwhispered": 5916,
      "ĠIndia": 5917,
      "Ġblanket": 5918,
      "Clear": 5919,
      "Ġclaims": 5920,
      "Ġculture": 5921,
      "Ġapplied": 5922,
      "Ġrailroad": 5923,
      "Sooner": 5924,
      "hearted": 5925,
      "Ġromantic": 5926,
      "Ġcherry": 5927,
      "Ġpilot": 5928,
      "Ġunemployed": 5929,
      "Ġbranch": 5930,
      "Ġinterpreter": 5931,
      "Ġopposite": 5932,
      "Ġsauce": 5933,
      "Generally": 5934,
      "Ġtolerate": 5935,
      "Ġregistered": 5936,
      "Ġburglar": 5937,
      "Fortunately": 5938,
      "Ġresourceful": 5939,
      "Ġincompetent": 5940,
      "Ġbluffing": 5941,
      "Suddenly": 5942,
      "incoln": 5943,
      "10": 5944,
      "?\"": 5945,
      "Bad": 5946,
      "Dad": 5947,
      "First": 5948,
      "Having": 5949,
      "Ob": 5950,
      "Over": 5951,
      "Pre": 5952,
      "Rep": 5953,
      "War": 5954,
      "ale": 5955,
      "ec": 5956,
      "hlet": 5957,
      "ials": 5958,
      "kin": 5959,
      "min": 5960,
      "oided": 5961,
      "phere": 5962,
      "rime": 5963,
      "rument": 5964,
      "tle": 5965,
      "uine": 5966,
      "zil": 5967,
      "ĠThis": 5968,
      "Ġtid": 5969,
      "Ġtune": 5970,
      "oudy": 5971,
      "Ġwished": 5972,
      "reak": 5973,
      "Ġtore": 5974,
      "Ġmut": 5975,
      "Ġmile": 5976,
      "itary": 5977,
      "orable": 5978,
      "Ġgreed": 5979,
      "Ġgently": 5980,
      "Ġpure": 5981,
      "Ġpace": 5982,
      "Ġpier": 5983,
      "Ġphar": 5984,
      "Ġoyst": 5985,
      "armed": 5986,
      "Ġhitting": 5987,
      "Ġhilar": 5988,
      "Ġhiking": 5989,
      "Ġthieves": 5990,
      "atin": 5991,
      "Ġmere": 5992,
      "Ġang": 5993,
      "Ġreact": 5994,
      "icag": 5995,
      "Ġlion": 5996,
      "Ġstays": 5997,
      "Ġstage": 5998,
      "Ġnotes": 5999,
      "unciation": 6000,
      "lymp": 6001,
      "Ġathlet": 6002,
      "Ġjew": 6003,
      "Ġanytime": 6004,
      "ender": 6005,
      "eable": 6006,
      "inded": 6007,
      "Ġtrack": 6008,
      "Ġtrous": 6009,
      "uled": 6010,
      "ulting": 6011,
      "Ġplastic": 6012,
      "Ġload": 6013,
      "Ġunb": 6014,
      "Ġunre": 6015,
      "iles": 6016,
      "Ġdeals": 6017,
      "Ġmanual": 6018,
      "Ġprover": 6019,
      "igr": 6020,
      "Ġarrog": 6021,
      "Ġcloth": 6022,
      "Ġcloudy": 6023,
      "Ġprefers": 6024,
      "Ġthoughts": 6025,
      "Ġlottery": 6026,
      "ague": 6027,
      "Ġsmokes": 6028,
      "aching": 6029,
      "Ġroommate": 6030,
      "Ġdisp": 6031,
      "Ġdisaster": 6032,
      "Ġoverwork": 6033,
      "Ġremote": 6034,
      "Ġtomatoes": 6035,
      "Ġfaults": 6036,
      "Whenever": 6037,
      "Ġflin": 6038,
      "about": 6039,
      "ĠBe": 6040,
      "Ġlaught": 6041,
      "Ġearned": 6042,
      "Ġearring": 6043,
      "Str": 6044,
      "ĠJust": 6045,
      "Ġminor": 6046,
      "els": 6047,
      "Ġswimmer": 6048,
      "Ġexpectations": 6049,
      "Ġowned": 6050,
      "Ġshade": 6051,
      "Ġshaking": 6052,
      "ĠOlymp": 6053,
      "Ġslipp": 6054,
      "Ġforgetting": 6055,
      "Ġstandards": 6056,
      "Ġclasses": 6057,
      "ĠChicag": 6058,
      "shirt": 6059,
      "Ġconfuse": 6060,
      "Ġcommand": 6061,
      "Ġsunset": 6062,
      "awn": 6063,
      "Ġmessages": 6064,
      "Ġprior": 6065,
      "Ġpriest": 6066,
      "Ġpriority": 6067,
      "Ġsuitable": 6068,
      "Ġdealing": 6069,
      "Ġpicking": 6070,
      "Ġinsp": 6071,
      "Ġlessons": 6072,
      "Ġpianist": 6073,
      "Ġinstrument": 6074,
      "Ġbottles": 6075,
      "Ġavoided": 6076,
      "Ġgenuine": 6077,
      "Ġforeigners": 6078,
      "Ġpepper": 6079,
      "Ġsym": 6080,
      "Ġslee": 6081,
      "Ġbreathing": 6082,
      "Ġapprove": 6083,
      "Ġpermit": 6084,
      "Ġthrowing": 6085,
      "Ġindepend": 6086,
      "uriosity": 6087,
      "Ġmemories": 6088,
      "Ġirrit": 6089,
      "Ġ195": 6090,
      "Ġzero": 6091,
      "Ġloses": 6092,
      "Ġforgiven": 6093,
      "Ġgenerally": 6094,
      "Ġamazed": 6095,
      "berries": 6096,
      "Ġobjective": 6097,
      "Ġerr": 6098,
      "Ġcollection": 6099,
      "Ġshooting": 6100,
      "Ġhabits": 6101,
      "Ġabandon": 6102,
      "Ġrepeated": 6103,
      "Ġdetermine": 6104,
      "Ġsandwiches": 6105,
      "Remove": 6106,
      "Ġcheerful": 6107,
      "Ġcriticism": 6108,
      "Ġpronunciation": 6109,
      "Compared": 6110,
      "Ġtempted": 6111,
      "ography": 6112,
      "Ġremarkable": 6113,
      "Ġscarf": 6114,
      "Ġaccompany": 6115,
      "Ġcommunity": 6116,
      "Ġbesides": 6117,
      "Ġpillow": 6118,
      "Ġpanicked": 6119,
      "Ġalternatives": 6120,
      "Ġwealthy": 6121,
      "Ġstylish": 6122,
      "Ġenvy": 6123,
      "Ġinsecure": 6124,
      "Ġdeceived": 6125,
      "Ġarrange": 6126,
      "Ġoutraged": 6127,
      "Ġseventeen": 6128,
      "Ġpickpockets": 6129,
      "Ġirrelevant": 6130,
      "Ġunlocked": 6131,
      "Ġsacri": 6132,
      "ĠAlice": 6133,
      "Ġpostcard": 6134,
      "Ġgorgeous": 6135,
      "Ġtrumpet": 6136,
      "Ġarchitect": 6137,
      "Ġskeptical": 6138,
      "Ġordinary": 6139,
      "Ġflexible": 6140,
      "Ġpharm": 6141,
      "Ġoysters": 6142,
      "Ġhilarious": 6143,
      "Ġtrousers": 6144,
      "Ġlaughter": 6145,
      "ĠChicago": 6146,
      "Bus": 6147,
      "Drop": 6148,
      "Nice": 6149,
      "Pick": 6150,
      "Parents": 6151,
      "Res": 6152,
      "bon": 6153,
      "iver": 6154,
      "just": 6155,
      "mit": 6156,
      "mos": 6157,
      "oot": 6158,
      "olf": 6159,
      "rim": 6160,
      "rise": 6161,
      "wh": 6162,
      "ĠAre": 6163,
      "ĠDid": 6164,
      "het": 6165,
      "Ġwings": 6166,
      "Ġsir": 6167,
      "Ġsank": 6168,
      "onse": 6169,
      "Ġdried": 6170,
      "Ġdining": 6171,
      "Ġbul": 6172,
      "Ġbanged": 6173,
      "Ġcivil": 6174,
      "Ġfries": 6175,
      "Ġfaint": 6176,
      "ednes": 6177,
      "eness": 6178,
      "erous": 6179,
      "Ġnail": 6180,
      "Ġge": 6181,
      "Ġpoo": 6182,
      "Ġpal": 6183,
      "Ġpays": 6184,
      "Ġport": 6185,
      "Ġhaun": 6186,
      "Ġthri": 6187,
      "Ġheated": 6188,
      "iders": 6189,
      "Ġinev": 6190,
      "verted": 6191,
      "Hello": 6192,
      "Ġreve": 6193,
      "Ġstew": 6194,
      "Ġstead": 6195,
      "alian": 6196,
      "ching": 6197,
      "Ġknitting": 6198,
      "roph": 6199,
      "Ġatmos": 6200,
      "ookie": 6201,
      "Ġjunk": 6202,
      "Ġjury": 6203,
      "Ġteens": 6204,
      "Ġtrade": 6205,
      "Ġtricked": 6206,
      "Ġtracked": 6207,
      "ulf": 6208,
      "Ġloyal": 6209,
      "Ġune": 6210,
      "ilos": 6211,
      "ilient": 6212,
      "Ġwheat": 6213,
      "iece": 6214,
      "lph": 6215,
      "Ġpros": 6216,
      "Ġquar": 6217,
      "olve": 6218,
      "Ġchores": 6219,
      "Ġenvious": 6220,
      "Ġvir": 6221,
      "Ġrights": 6222,
      "Ġlongest": 6223,
      "Ġlevel": 6224,
      "Ġbacked": 6225,
      "Ġadvent": 6226,
      "agious": 6227,
      "thirty": 6228,
      "Ġbrushed": 6229,
      "Ġspeakers": 6230,
      "Ġcareer": 6231,
      "urned": 6232,
      "Ġoverre": 6233,
      "Ġpartner": 6234,
      "elled": 6235,
      "Ġotherwise": 6236,
      "Ġbuys": 6237,
      "Ġflir": 6238,
      "Ġreserve": 6239,
      "Ġresilient": 6240,
      "Step": 6241,
      "swer": 6242,
      "Ġshowing": 6243,
      "Ġgrounded": 6244,
      "Yours": 6245,
      "idents": 6246,
      "ĠTower": 6247,
      "Ġcontagious": 6248,
      "ips": 6249,
      "Ġprett": 6250,
      "Ġcountless": 6251,
      "Ġswims": 6252,
      "clear": 6253,
      "gged": 6254,
      "Ġreconsider": 6255,
      "Ġlistens": 6256,
      "onsible": 6257,
      "Ġwins": 6258,
      "Ġslam": 6259,
      "Ġmonkey": 6260,
      "Ġforgetful": 6261,
      "Ġ17": 6262,
      "pecially": 6263,
      "Ġheading": 6264,
      "Ġresponse": 6265,
      "Ġobst": 6266,
      "Ġ25": 6267,
      "Ġdelicate": 6268,
      "Ġsunny": 6269,
      "Ġsunrise": 6270,
      "Ġmessed": 6271,
      "Ġchecking": 6272,
      "Ġassure": 6273,
      "Ġcharity": 6274,
      "Ġsituations": 6275,
      "Ġheartb": 6276,
      "Ġespecially": 6277,
      "ĠNag": 6278,
      "ĠItalian": 6279,
      "Ġriding": 6280,
      "Ġcolors": 6281,
      "Ġrisked": 6282,
      "Ġlawyers": 6283,
      "Ġbankrupt": 6284,
      "Ġtemporary": 6285,
      "Ġopposed": 6286,
      "Ġconsidering": 6287,
      "Ġfatter": 6288,
      "Ġresponsibilities": 6289,
      "Ġargued": 6290,
      "Ġmisjud": 6291,
      "Ġtrapped": 6292,
      "ĠLatin": 6293,
      "viously": 6294,
      "Answer": 6295,
      "Ġcurrently": 6296,
      "Ġirresp": 6297,
      "Ġbasic": 6298,
      "Ġhundreds": 6299,
      "Ġbodyguard": 6300,
      "Ġladder": 6301,
      "Ġdrawing": 6302,
      "Ġmurde": 6303,
      "ĠWednes": 6304,
      "Ġpairs": 6305,
      "ĠEuropean": 6306,
      "box": 6307,
      "Ġobjection": 6308,
      "Ġsquir": 6309,
      "Ġdamaged": 6310,
      "Ġavoiding": 6311,
      "Ġthreatening": 6312,
      "Ġinterrupted": 6313,
      "Ġproperty": 6314,
      "Ġpuppy": 6315,
      "Ġfrost": 6316,
      "Ġincreased": 6317,
      "Ġincreasing": 6318,
      "Ġvolunteers": 6319,
      "Ġbutterf": 6320,
      "Ġdestroy": 6321,
      "Ġscientists": 6322,
      "Ġfocused": 6323,
      "Ġcompetition": 6324,
      "Compare": 6325,
      "Ġtoothp": 6326,
      "Ġessay": 6327,
      "Ġreligion": 6328,
      "Ġvictims": 6329,
      "Ġhostages": 6330,
      "Ġdeclined": 6331,
      "Clean": 6332,
      "Swimming": 6333,
      "Ġarranged": 6334,
      "Ġblowing": 6335,
      "Ġliterature": 6336,
      "Ġconclusion": 6337,
      "Buy": 6338,
      "Ġpraise": 6339,
      "Ġvarious": 6340,
      "Ġcounter": 6341,
      "Ġinfluence": 6342,
      "Ġhonor": 6343,
      "Ġdefeat": 6344,
      "Ġdragged": 6345,
      "ĠBritish": 6346,
      "ĠHowever": 6347,
      "Ġguarantee": 6348,
      "Ġpollution": 6349,
      "Ġblonde": 6350,
      "Ġscratch": 6351,
      "Ġdye": 6352,
      "Ġitems": 6353,
      "Ġpunishment": 6354,
      "Ġrotten": 6355,
      "Ġsatisfactory": 6356,
      "Ġrenew": 6357,
      "Ġrapid": 6358,
      "Ġdiplomat": 6359,
      "Ġnerves": 6360,
      "Ġsemester": 6361,
      "Judging": 6362,
      "ĠBrazil": 6363,
      "Ġsubscribe": 6364,
      "Raise": 6365,
      "Ġintimid": 6366,
      "prints": 6367,
      "Ġreputation": 6368,
      "Ġtelephoned": 6369,
      "Ġdevastated": 6370,
      "Ġgreedy": 6371,
      "Ġhaunted": 6372,
      "Ġinevitable": 6373,
      "Ġmisjudged": 6374,
      "Ġirresponsible": 6375,
      "Ġmurderer": 6376,
      "ĠWednesday": 6377,
      "Car": 6378,
      "Cows": 6379,
      "Correct": 6380,
      "Ele": 6381,
      "Gl": 6382,
      "Ign": 6383,
      "Long": 6384,
      "Mus": 6385,
      "Pass": 6386,
      "Qu": 6387,
      "Someday": 6388,
      "Wake": 6389,
      "bery": 6390,
      "bulous": 6391,
      "minded": 6392,
      "oe": 6393,
      "off": 6394,
      "uries": 6395,
      "Ġut": 6396,
      "Ġvers": 6397,
      "Ġtun": 6398,
      "hest": 6399,
      "inct": 6400,
      "Ġwolf": 6401,
      "Ġsen": 6402,
      "Ġsake": 6403,
      "onna": 6404,
      "Ġdawn": 6405,
      "anes": 6406,
      "Ġlung": 6407,
      "erland": 6408,
      "Ġnause": 6409,
      "Ġgonna": 6410,
      "Ġpant": 6411,
      "Ġpulse": 6412,
      "Ġhamb": 6413,
      "Ġbeers": 6414,
      "Ġbeans": 6415,
      "atis": 6416,
      "Ġhel": 6417,
      "Ġheater": 6418,
      "Ġinch": 6419,
      "Ġonto": 6420,
      "Ġreci": 6421,
      "anta": 6422,
      "Ġlips": 6423,
      "Ġstink": 6424,
      "Ġstain": 6425,
      "Ġstones": 6426,
      "Ġgoss": 6427,
      "storm": 6428,
      "unition": 6429,
      "teries": 6430,
      "irmed": 6431,
      "Ġrat": 6432,
      "Ġruth": 6433,
      "Ġrug": 6434,
      "Ġrushed": 6435,
      "Ġsoap": 6436,
      "Thousand": 6437,
      "Ġneeding": 6438,
      "Ġexit": 6439,
      "Ġexting": 6440,
      "Ġloving": 6441,
      "Ġunp": 6442,
      "Ġunbel": 6443,
      "Ġunknown": 6444,
      "ils": 6445,
      "Ġtools": 6446,
      "Ġselected": 6447,
      "Ġcauses": 6448,
      "olves": 6449,
      "Ġrif": 6450,
      "Ġcliff": 6451,
      "mbol": 6452,
      "Ġvague": 6453,
      "Ġamusing": 6454,
      "ickering": 6455,
      "Ġleather": 6456,
      "Ġfema": 6457,
      "Ġbum": 6458,
      "assy": 6459,
      "agging": 6460,
      "Ġsmashed": 6461,
      "Whoever": 6462,
      "Ġimage": 6463,
      "Ġprince": 6464,
      "Ġoversle": 6465,
      "Ġappeal": 6466,
      "Ġchildish": 6467,
      "Ġblast": 6468,
      "Ġfabulous": 6469,
      "ewrit": 6470,
      "Ġaccusing": 6471,
      "Ġlaz": 6472,
      "Ġcheat": 6473,
      "Ġdrill": 6474,
      "Ġattached": 6475,
      "pring": 6476,
      "proof": 6477,
      "Ġgreatly": 6478,
      "Ġpayment": 6479,
      "ggy": 6480,
      "Ġdifferences": 6481,
      "Ġkidna": 6482,
      "Ġkilling": 6483,
      "Ġreality": 6484,
      "Ġcooks": 6485,
      "Ġreluct": 6486,
      "Ġchoir": 6487,
      "ception": 6488,
      "Ġincon": 6489,
      "Ġregards": 6490,
      "Ġregrets": 6491,
      "Ġforecast": 6492,
      "Ġbusinessman": 6493,
      "Ġterror": 6494,
      "Ġexamine": 6495,
      "Ġlaughs": 6496,
      "Ġfixing": 6497,
      "Ġasso": 6498,
      "Ġbrings": 6499,
      "Ġrestaurants": 6500,
      "Ġsixty": 6501,
      "Washing": 6502,
      "Ġguitarist": 6503,
      "Ġphotograp": 6504,
      "Ġforeigner": 6505,
      "Ġpatients": 6506,
      "Ġpropose": 6507,
      "Ġvoices": 6508,
      "Ġsymbol": 6509,
      "Ġsending": 6510,
      "Ġprivately": 6511,
      "Exp": 6512,
      "Ġbarber": 6513,
      "Ġpowerless": 6514,
      "ĠKore": 6515,
      "Ġburnt": 6516,
      "Ġrequires": 6517,
      "Ġpulling": 6518,
      "Ġ199": 6519,
      "Ġwooden": 6520,
      "ĠCanadians": 6521,
      "Ġcustoms": 6522,
      "Ġpracticing": 6523,
      "Ġpolitely": 6524,
      "Ġobjected": 6525,
      "Ġcollected": 6526,
      "Ġmajority": 6527,
      "Ġengineer": 6528,
      "Ġlocated": 6529,
      "Ġrecommended": 6530,
      "Ġtourist": 6531,
      "Ġacquired": 6532,
      "Ġvictory": 6533,
      "Ġdirections": 6534,
      "Ġhumanity": 6535,
      "Ġrecords": 6536,
      "Ġhighest": 6537,
      "Ġresemb": 6538,
      "Ġobserv": 6539,
      "ributed": 6540,
      "Ġdislik": 6541,
      "Ġteenagers": 6542,
      "Ġtricks": 6543,
      "Ġencour": 6544,
      "Ġreplace": 6545,
      "Ġreplaced": 6546,
      "Ġtypewrit": 6547,
      "Ġaffects": 6548,
      "Ġmelted": 6549,
      "Ġkilomet": 6550,
      "Ġsearching": 6551,
      "Ġpoints": 6552,
      "Ġexperiences": 6553,
      "Ġmeasures": 6554,
      "Ġinsects": 6555,
      "going": 6556,
      "Ġresources": 6557,
      "Ġskills": 6558,
      "Ġtextbooks": 6559,
      "Meet": 6560,
      "Ġdisturbing": 6561,
      "Ġreduce": 6562,
      "Ġchampion": 6563,
      "Ġcreate": 6564,
      "Ġinternational": 6565,
      "Apparently": 6566,
      "Luckily": 6567,
      "Ġstretched": 6568,
      "amental": 6569,
      "Ġcircumstances": 6570,
      "Ġcooperation": 6571,
      "Such": 6572,
      "oosen": 6573,
      "Ġcitizens": 6574,
      "Ġleaned": 6575,
      "Ġdaily": 6576,
      "Ġstatue": 6577,
      "Ġsneaky": 6578,
      "Ġconsequences": 6579,
      "Ġabsorbed": 6580,
      "Ġtoothache": 6581,
      "Ġammunition": 6582,
      "Change": 6583,
      "itzerland": 6584,
      "Ġangel": 6585,
      "Ġnodded": 6586,
      "Ġprecise": 6587,
      "Ġoverheard": 6588,
      "Ġgrapes": 6589,
      "Ġminimum": 6590,
      "Ġhumiliated": 6591,
      "Ġfrequently": 6592,
      "Clearly": 6593,
      "Obviously": 6594,
      "Ġarrogant": 6595,
      "Ġoverworked": 6596,
      "Ġindependent": 6597,
      "Business": 6598,
      "Ġatmosphere": 6599,
      "Ġflirting": 6600,
      "Ġhambur": 6601,
      "Ġgossip": 6602,
      "Ġruthless": 6603,
      "Thousands": 6604,
      "Ġfemale": 6605,
      "Ġoverslept": 6606,
      "Ġkidnapped": 6607,
      "Br": 6608,
      "Bel": 6609,
      "Con": 6610,
      "Count": 6611,
      "Dis": 6612,
      "Desp": 6613,
      "Hope": 6614,
      "Move": 6615,
      "Te": 6616,
      "Wow": 6617,
      "ah": 6618,
      "avery": 6619,
      "can": 6620,
      "ecut": 6621,
      "for": 6622,
      "live": 6623,
      "ov": 6624,
      "rm": 6625,
      "ral": 6626,
      "sion": 6627,
      "ube": 6628,
      "Ġing": 6629,
      "Ġtank": 6630,
      "ina": 6631,
      "inist": 6632,
      "inos": 6633,
      "resh": 6634,
      "Ġsin": 6635,
      "Ġsush": 6636,
      "Ġmild": 6637,
      "Ġmaint": 6638,
      "Ġbore": 6639,
      "Ġbars": 6640,
      "Ġcured": 6641,
      "omic": 6642,
      "anuary": 6643,
      "Ġfest": 6644,
      "Ġfiled": 6645,
      "Ġfurious": 6646,
      "Ġfuel": 6647,
      "Ġlacks": 6648,
      "Ġlux": 6649,
      "Ġple": 6650,
      "Ġpound": 6651,
      "Ġpets": 6652,
      "Ġpages": 6653,
      "Ġoxy": 6654,
      "Ġhomet": 6655,
      "Ġhint": 6656,
      "atory": 6657,
      "ete": 6658,
      "Ġinher": 6659,
      "usi": 6660,
      "Ġreven": 6661,
      "Ġreward": 6662,
      "icher": 6663,
      "icians": 6664,
      "Ġforb": 6665,
      "Ġforces": 6666,
      "Ġkick": 6667,
      "Ġstall": 6668,
      "Ġstab": 6669,
      "Ġstiff": 6670,
      "Ġgoat": 6671,
      "seas": 6672,
      "roverted": 6673,
      "Ġaspir": 6674,
      "amble": 6675,
      "ooked": 6676,
      "Ġsue": 6677,
      "Ġteased": 6678,
      "Ġricher": 6679,
      "ural": 6680,
      "White": 6681,
      "Throw": 6682,
      "ongress": 6683,
      "Ġupside": 6684,
      "Ġtrout": 6685,
      "Ġspont": 6686,
      "Ġspiders": 6687,
      "Ġhappiest": 6688,
      "Ġexecut": 6689,
      "Ġlob": 6690,
      "qual": 6691,
      "Ġcomments": 6692,
      "aven": 6693,
      "Ġsomeplace": 6694,
      "Ġconduct": 6695,
      "Ġtalkative": 6696,
      "Ġproced": 6697,
      "Ġcoal": 6698,
      "igning": 6699,
      "Ġquitting": 6700,
      "olite": 6701,
      "olution": 6702,
      "Ġrocks": 6703,
      "Ġoffend": 6704,
      "Ġprevious": 6705,
      "Ġlemon": 6706,
      "Ġsheets": 6707,
      "Ġbush": 6708,
      "osit": 6709,
      "Ġadapt": 6710,
      "aging": 6711,
      "agne": 6712,
      "Ġunderw": 6713,
      "fty": 6714,
      "Ġguards": 6715,
      "Ġdisobe": 6716,
      "Ġoverseas": 6717,
      "ums": 6718,
      "Ġremove": 6719,
      "Ġhandwrit": 6720,
      "Ġafterwards": 6721,
      "Ġimpolite": 6722,
      "Ġswept": 6723,
      "Ġdiffers": 6724,
      "Ġflattered": 6725,
      "Ġaccording": 6726,
      "Ġreserved": 6727,
      "ogram": 6728,
      "Ġattor": 6729,
      "Ġphr": 6730,
      "ĠTha": 6731,
      "Allow": 6732,
      "Ġminister": 6733,
      "Ġactions": 6734,
      "Ġcolds": 6735,
      "ipes": 6736,
      "Ġwarrant": 6737,
      "Ġfewer": 6738,
      "ĠCath": 6739,
      "Ġmetal": 6740,
      "Ġsurprises": 6741,
      "ointed": 6742,
      "ĠSanta": 6743,
      "Ġcrush": 6744,
      "Ġcrushed": 6745,
      "Ġenjoys": 6746,
      "Ġending": 6747,
      "Ġrelief": 6748,
      "Ġpolicemen": 6749,
      "working": 6750,
      "Ġdiag": 6751,
      "ĠChrist": 6752,
      "Ġheads": 6753,
      "Ġstove": 6754,
      "Ġagreeing": 6755,
      "Ġrefrain": 6756,
      "Ġaddict": 6757,
      "Ġsentences": 6758,
      "Ġconfirmed": 6759,
      "Ġcostume": 6760,
      "Ġsnowman": 6761,
      "Ġsunb": 6762,
      "awai": 6763,
      "Ġhorror": 6764,
      "Ġtouching": 6765,
      "Ġthankful": 6766,
      "Ġnecessarily": 6767,
      "Ġquietly": 6768,
      "ĠNorth": 6769,
      "Ġvacant": 6770,
      "Ġsmelled": 6771,
      "Ġroads": 6772,
      "Ġtreatment": 6773,
      "Ġpunched": 6774,
      "Ġbillion": 6775,
      "Ġchairman": 6776,
      "Ġtravels": 6777,
      "Ġimmediate": 6778,
      "Ġbehaved": 6779,
      "Ġcease": 6780,
      "Ġapproached": 6781,
      "Ġpurcha": 6782,
      "Ġprotection": 6783,
      "Ġrings": 6784,
      "aneous": 6785,
      "uros": 6786,
      "Ġdestiny": 6787,
      "Ġyelled": 6788,
      "ĠWorld": 6789,
      "Spending": 6790,
      "Ġaccountant": 6791,
      "Ġrobber": 6792,
      "Ġtalents": 6793,
      "Ġpotato": 6794,
      "Ġerrand": 6795,
      "Ġcows": 6796,
      "Ġearthquakes": 6797,
      "ships": 6798,
      "Ġinterrupting": 6799,
      "Ġdisgusted": 6800,
      "ocr": 6801,
      "Ġmodest": 6802,
      "Ġbetray": 6803,
      "Ġeconomic": 6804,
      "Ġconstruct": 6805,
      "Ġcousins": 6806,
      "Ġfrog": 6807,
      "Ġhorrified": 6808,
      "Accidents": 6809,
      "Ġastron": 6810,
      "Ġlimits": 6811,
      "Ġhesitated": 6812,
      "Ġ300": 6813,
      "Ġtends": 6814,
      "Ġsavings": 6815,
      "Ġsoftware": 6816,
      "Ġscarce": 6817,
      "Ġallergies": 6818,
      "Ġtypical": 6819,
      "Ġpanic": 6820,
      "Ġaffected": 6821,
      "Ġignorance": 6822,
      "Ġfields": 6823,
      "Ġestate": 6824,
      "Ġsincerely": 6825,
      "Ġsinking": 6826,
      "Ġspoiled": 6827,
      "Ġcurtains": 6828,
      "Rec": 6829,
      "Ġdeveloped": 6830,
      "Ġhypnot": 6831,
      "Ġmarks": 6832,
      "Ġadvertise": 6833,
      "Ġninety": 6834,
      "sticks": 6835,
      "Ġfrustrated": 6836,
      "Ġobliged": 6837,
      "Ġspecific": 6838,
      "ĠGreek": 6839,
      "Ġtreasure": 6840,
      "Finally": 6841,
      "Ġgrammar": 6842,
      "Ġstruggled": 6843,
      "Ġrelatives": 6844,
      "Ġhomesick": 6845,
      "Learning": 6846,
      "Better": 6847,
      "Ġchopsticks": 6848,
      "Honesty": 6849,
      "Ġsociety": 6850,
      "Ġshelter": 6851,
      "Ġgrandparents": 6852,
      "Ġtidy": 6853,
      "Ġproverb": 6854,
      "Ġerrors": 6855,
      "Respect": 6856,
      "Ġprettier": 6857,
      "Ġtoothpaste": 6858,
      "Ġversion": 6859,
      "Ġrecipe": 6860,
      "Ġrifle": 6861,
      "Ġsushi": 6862,
      "Ġoxygen": 6863,
      "Ġhometown": 6864,
      "Ġspontaneous": 6865,
      "Ġhandwriting": 6866,
      "BI": 6867,
      "Bew": 6868,
      "Break": 6869,
      "FO": 6870,
      "Food": 6871,
      "Fish": 6872,
      "Lie": 6873,
      "Like": 6874,
      "Or": 6875,
      "Pol": 6876,
      "Right": 6877,
      "Sign": 6878,
      "Spring": 6879,
      "Work": 6880,
      "bell": 6881,
      "cher": 6882,
      "cope": 6883,
      "fl": 6884,
      "fight": 6885,
      "fire": 6886,
      "ground": 6887,
      "hor": 6888,
      "how": 6889,
      "husi": 6890,
      "iant": 6891,
      "ivers": 6892,
      "lim": 6893,
      "lcome": 6894,
      "mel": 6895,
      "nical": 6896,
      "oed": 6897,
      "overs": 6898,
      "py": 6899,
      "rs": 6900,
      "rate": 6901,
      "tered": 6902,
      "tles": 6903,
      "toned": 6904,
      "udy": 6905,
      "xoph": 6906,
      "yard": 6907,
      "ĠDon": 6908,
      "ĠHave": 6909,
      "Ġtab": 6910,
      "Ġtub": 6911,
      "inate": 6912,
      "inals": 6913,
      "Ġsch": 6914,
      "Ġsam": 6915,
      "Ġsets": 6916,
      "Ġder": 6917,
      "Ġdread": 6918,
      "vey": 6919,
      "Ġbak": 6920,
      "Ġbowed": 6921,
      "Ġbald": 6922,
      "Ġcuriosity": 6923,
      "iter": 6924,
      "erly": 6925,
      "Ġnails": 6926,
      "Ġpi": 6927,
      "Ġpit": 6928,
      "Ġpear": 6929,
      "Ġpardon": 6930,
      "asant": 6931,
      "Ġbees": 6932,
      "atic": 6933,
      "athetic": 6934,
      "Ġinex": 6935,
      "Ġdolph": 6936,
      "ĠIs": 6937,
      "keys": 6938,
      "Young": 6939,
      "Ġants": 6940,
      "verty": 6941,
      "imated": 6942,
      "ooze": 6943,
      "Ġreception": 6944,
      "Ġweeds": 6945,
      "alif": 6946,
      "Ġknives": 6947,
      "Welcome": 6948,
      "ste": 6949,
      "entive": 6950,
      "acu": 6951,
      "ustri": 6952,
      "aming": 6953,
      "Ġshift": 6954,
      "Ġshining": 6955,
      "Ġsuck": 6956,
      "Ġabol": 6957,
      "Ġtear": 6958,
      "Ġoutcome": 6959,
      "Ġspect": 6960,
      "Ġspicy": 6961,
      "Ġplot": 6962,
      "Ġexhib": 6963,
      "Ġunim": 6964,
      "Ġunne": 6965,
      "Ġsafer": 6966,
      "Ġsaxoph": 6967,
      "Ġjustice": 6968,
      "andal": 6969,
      "isted": 6970,
      "Ġcomic": 6971,
      "Ġsection": 6972,
      "Ġcock": 6973,
      "oles": 6974,
      "oline": 6975,
      "olks": 6976,
      "fel": 6977,
      "Ġchief": 6978,
      "rows": 6979,
      "Ġintr": 6980,
      "Ġvit": 6981,
      "Ġroot": 6982,
      "Ġrolled": 6983,
      "Ġpreaching": 6984,
      "Ġamused": 6985,
      "arded": 6986,
      "Ġsheet": 6987,
      "Ġbuses": 6988,
      "Ġadorable": 6989,
      "Ġorphan": 6990,
      "ĠFBI": 6991,
      "Ġcallous": 6992,
      "fted": 6993,
      "Ġawait": 6994,
      "Ġdiss": 6995,
      "Ġoverlook": 6996,
      "Ġpoverty": 6997,
      "Ġpartners": 6998,
      "Ġhandc": 6999,
      "Ġblaming": 7000,
      "Ġparent": 7001,
      "Ġflunk": 7002,
      "Ġflaw": 7003,
      "Ġflows": 7004,
      "Study": 7005,
      "Wouldn": 7006,
      "ulture": 7007,
      "Ġcheered": 7008,
      "Ġphoned": 7009,
      "Ġphilos": 7010,
      "Ġshovel": 7011,
      "Ġwatermel": 7012,
      "ucked": 7013,
      "Ġcontrad": 7014,
      "Ġmeter": 7015,
      "Ġgladly": 7016,
      "Ġbroad": 7017,
      "Ġchain": 7018,
      "ĠSept": 7019,
      "Ġowner": 7020,
      "Ġcrimes": 7021,
      "Ġwindy": 7022,
      "Ġhunger": 7023,
      "cessary": 7024,
      "Ġarrives": 7025,
      "Ġpassion": 7026,
      "Ġsnack": 7027,
      "Ġslip": 7028,
      "Ġslapped": 7029,
      "Ġdiscover": 7030,
      "Ġ11": 7031,
      "Ġ13": 7032,
      "Ġfollows": 7033,
      "Ġnuclear": 7034,
      "Ġvisits": 7035,
      "ological": 7036,
      "Ġentering": 7037,
      "Ġconsum": 7038,
      "Ġconserv": 7039,
      "Ġconscient": 7040,
      "Ġrefres": 7041,
      "Ġreflect": 7042,
      "Ġincorrect": 7043,
      "Ġsnowstorm": 7044,
      "Ġdeliber": 7045,
      "Ġcrafty": 7046,
      "Ġmilitary": 7047,
      "Ġshortage": 7048,
      "Ġchecks": 7049,
      "iety": 7050,
      "Ġdealt": 7051,
      "Ġadminist": 7052,
      "Ġdisting": 7053,
      "Ġcharged": 7054,
      "Ġstores": 7055,
      "Ġcups": 7056,
      "Ġworthy": 7057,
      "Ġworthless": 7058,
      "Ġimagining": 7059,
      "Ġinstall": 7060,
      "Ġnovelist": 7061,
      "Ġholds": 7062,
      "Ġaffairs": 7063,
      "Ġsilk": 7064,
      "ĠHawai": 7065,
      "Ġinjuries": 7066,
      "Ġvolcan": 7067,
      "Ġrelaxing": 7068,
      "Ġmagn": 7069,
      "Ġunivers": 7070,
      "Ġunique": 7071,
      "Ġbasis": 7072,
      "ĠStation": 7073,
      "Ġoccup": 7074,
      "Ġbasement": 7075,
      "Ġleads": 7076,
      "Ġlanding": 7077,
      "Ġevacu": 7078,
      "Ġorganization": 7079,
      "Ġladies": 7080,
      "Ġopportunities": 7081,
      "Ġimproving": 7082,
      "Ġrobbery": 7083,
      "Ġattracted": 7084,
      "Ġtightly": 7085,
      "Ġflights": 7086,
      "Ġsquee": 7087,
      "Ġlowered": 7088,
      "Ġintends": 7089,
      "Ġselfie": 7090,
      "Ġbeaten": 7091,
      "Ġdisgu": 7092,
      "Ġsuspended": 7093,
      "Ġnaturally": 7094,
      "Ġbarks": 7095,
      "Ġbarked": 7096,
      "Ġformal": 7097,
      "onym": 7098,
      "ĠUFO": 7099,
      "Ġconstruction": 7100,
      "Ġcampus": 7101,
      "ornia": 7102,
      "Ġservant": 7103,
      "ienna": 7104,
      "Ġbatteries": 7105,
      "Ġlimited": 7106,
      "Ġhyd": 7107,
      "Ġdescribed": 7108,
      "Ġpredicted": 7109,
      "Ġ40": 7110,
      "Ġcourageous": 7111,
      "Ġstomac": 7112,
      "Ġintelligence": 7113,
      "Ġrequested": 7114,
      "Ġsensible": 7115,
      "Ġcommunicate": 7116,
      "Ġcommunication": 7117,
      "Ġexistence": 7118,
      "Ġconcluded": 7119,
      "Ġalcoholic": 7120,
      "Ġblocks": 7121,
      "Ġincluded": 7122,
      "Ġcandid": 7123,
      "Ġmeasure": 7124,
      "Ġcontented": 7125,
      "Ġemotions": 7126,
      "Ġaccomplished": 7127,
      "Ġheights": 7128,
      "Ġbloss": 7129,
      "Ġmaterials": 7130,
      "Ġconclusions": 7131,
      "Ġreduced": 7132,
      "Ġtort": 7133,
      "Ġshouting": 7134,
      "ĠAsia": 7135,
      "Ġchampagne": 7136,
      "America": 7137,
      "Buying": 7138,
      "ĠCDs": 7139,
      "Ġdeliver": 7140,
      "Ġwhistle": 7141,
      "Ġwhistling": 7142,
      "Ġbowl": 7143,
      "Ġanti": 7144,
      "Ġexaggerate": 7145,
      "Ġtape": 7146,
      "Ġelderly": 7147,
      "Human": 7148,
      "load": 7149,
      "Ġelephant": 7150,
      "Happy": 7151,
      "Ġintrigued": 7152,
      "Ġsurrender": 7153,
      "Ġwandered": 7154,
      "ĠMexico": 7155,
      "Ġsmoked": 7156,
      "Ġbabysitter": 7157,
      "Playing": 7158,
      "Boys": 7159,
      "Ġmerciful": 7160,
      "Ġmechanic": 7161,
      "Ġtraitor": 7162,
      "Ġdispos": 7163,
      "abouts": 7164,
      "Ġsleeve": 7165,
      "while": 7166,
      "Ġoverreacting": 7167,
      "Ignore": 7168,
      "Ġnauseous": 7169,
      "atisfied": 7170,
      "Ġphotographer": 7171,
      "Ġobservant": 7172,
      "Ġtypewriter": 7173,
      "Ġkilometers": 7174,
      "Despite": 7175,
      "Ġforbid": 7176,
      "Ġattorney": 7177,
      "ĠCatholic": 7178,
      "Recently": 7179,
      "Beware": 7180,
      "alifornia": 7181,
      "Ġunnecessary": 7182,
      "Ġsaxophone": 7183,
      "ĠSeptember": 7184,
      "Ġconservative": 7185,
      "Ġconscientious": 7186,
      "Bea": 7187,
      "During": 7188,
      "Fast": 7189,
      "Friend": 7190,
      "Gir": 7191,
      "Germany": 7192,
      "Hun": 7193,
      "Ind": 7194,
      "Kids": 7195,
      "Mat": 7196,
      "Old": 7197,
      "Ph": 7198,
      "Sing": 7199,
      "Says": 7200,
      "Sleep": 7201,
      "Six": 7202,
      "Sug": 7203,
      "Sitting": 7204,
      "Science": 7205,
      "Tick": 7206,
      "Vis": 7207,
      "ban": 7208,
      "bow": 7209,
      "bag": 7210,
      "case": 7211,
      "dge": 7212,
      "down": 7213,
      "free": 7214,
      "gment": 7215,
      "iversity": 7216,
      "kaid": 7217,
      "lict": 7218,
      "miss": 7219,
      "name": 7220,
      "nails": 7221,
      "put": 7222,
      "pack": 7223,
      "park": 7224,
      "point": 7225,
      "ti": 7226,
      "table": 7227,
      "ĠNo": 7228,
      "ĠWashing": 7229,
      "Ġtit": 7230,
      "Ġtiss": 7231,
      "oups": 7232,
      "Ġaid": 7233,
      "inter": 7234,
      "inci": 7235,
      "Ġwid": 7236,
      "Ġwage": 7237,
      "Ġsar": 7238,
      "Ġsip": 7239,
      "Ġsaint": 7240,
      "Ġsixt": 7241,
      "Ġtons": 7242,
      "Ġdict": 7243,
      "Ġdangers": 7244,
      "Ġbent": 7245,
      "Ġbones": 7246,
      "Ġcakes": 7247,
      "Ġcases": 7248,
      "anuts": 7249,
      "Ġfee": 7250,
      "Ġfart": 7251,
      "Ġfulf": 7252,
      "Ġloo": 7253,
      "lley": 7254,
      "lliant": 7255,
      "eria": 7256,
      "Ġgay": 7257,
      "Ġgall": 7258,
      "Ġgra": 7259,
      "Ġguts": 7260,
      "Ġgamble": 7261,
      "Ġped": 7262,
      "Ġpink": 7263,
      "Ġpipe": 7264,
      "Ġhi": 7265,
      "otel": 7266,
      "Ġheaven": 7267,
      "Ġinha": 7268,
      "Ġinapp": 7269,
      "Ġeast": 7270,
      "Ġeuros": 7271,
      "Ġanonym": 7272,
      "imney": 7273,
      "Ġwashes": 7274,
      "oops": 7275,
      "Ġrebel": 7276,
      "Ġlip": 7277,
      "Ġliqu": 7278,
      "Ġstream": 7279,
      "rived": 7280,
      "unched": 7281,
      "enter": 7282,
      "Ġash": 7283,
      "ooks": 7284,
      "Ġworries": 7285,
      "iffel": 7286,
      "Ġrack": 7287,
      "Ġrational": 7288,
      "Ġsock": 7289,
      "ups": 7290,
      "Ġalert": 7291,
      "Ġalarmed": 7292,
      "Ġoutf": 7293,
      "Ġtroops": 7294,
      "Ġspir": 7295,
      "Ġspag": 7296,
      "Ġunmar": 7297,
      "Ġnoises": 7298,
      "artender": 7299,
      "ĠMin": 7300,
      "ieving": 7301,
      "istry": 7302,
      "Ġmansion": 7303,
      "Ġproved": 7304,
      "Ġprofic": 7305,
      "Ġcoast": 7306,
      "ighed": 7307,
      "Ġcaution": 7308,
      "Ġquant": 7309,
      "olted": 7310,
      "Ġchimney": 7311,
      "Ġenorm": 7312,
      "Ġwrap": 7313,
      "Ġvul": 7314,
      "icky": 7315,
      "Ġexpressed": 7316,
      "Ġshell": 7317,
      "Ġboiling": 7318,
      "Ġguilt": 7319,
      "Ġoverc": 7320,
      "Ġwaitress": 7321,
      "Ġschools": 7322,
      "Ġpartly": 7323,
      "Everywhere": 7324,
      "Ġblink": 7325,
      "izes": 7326,
      "Ġplanes": 7327,
      "Ġscam": 7328,
      "Ġscore": 7329,
      "Ġscrat": 7330,
      "Ġstartled": 7331,
      "ĠBible": 7332,
      "Ġcatches": 7333,
      "Stud": 7334,
      "Ġdecline": 7335,
      "ĠEve": 7336,
      "ĠEiffel": 7337,
      "Ġgrade": 7338,
      "Ġgroups": 7339,
      "Ġremembering": 7340,
      "Ġbeings": 7341,
      "ĠJuly": 7342,
      "ogy": 7343,
      "Ġstrang": 7344,
      "Ġattentive": 7345,
      "okkaid": 7346,
      "ĠTues": 7347,
      "elry": 7348,
      "Ġacts": 7349,
      "Ġpainter": 7350,
      "ĠCla": 7351,
      "Ġcounts": 7352,
      "Ġperman": 7353,
      "gger": 7354,
      "ctors": 7355,
      "Ġpromotion": 7356,
      "Ġshad": 7357,
      "bec": 7358,
      "Ġimports": 7359,
      "Ġpassing": 7360,
      "Ġrealistic": 7361,
      "Ġlighter": 7362,
      "Ġlightly": 7363,
      "Ġcookie": 7364,
      "Ġdiscreet": 7365,
      "Ġdiscovery": 7366,
      "aughter": 7367,
      "Ġdresses": 7368,
      "Ġunturned": 7369,
      "Ġmuscles": 7370,
      "ubby": 7371,
      "Ġnumb": 7372,
      "Ġdeposit": 7373,
      "Ġdeprived": 7374,
      "Ġtrigger": 7375,
      "Ġenthusi": 7376,
      "Ġconscience": 7377,
      "Ġexplaining": 7378,
      "Ġconflict": 7379,
      "Ġexcused": 7380,
      "Ġforehead": 7381,
      "Ġ21": 7382,
      "Ġsung": 7383,
      "awa": 7384,
      "Ġterm": 7385,
      "Ġshortly": 7386,
      "Ġcomplains": 7387,
      "Ġdolls": 7388,
      "Ġcamer": 7389,
      "Ġpresented": 7390,
      "Ġpathetic": 7391,
      "Ġmedal": 7392,
      "Ġpicky": 7393,
      "Ġsalmon": 7394,
      "Ġguns": 7395,
      "ĠPac": 7396,
      "Ġextent": 7397,
      "Ġtransfer": 7398,
      "Ġtransport": 7399,
      "Ġterrific": 7400,
      "iod": 7401,
      "ricane": 7402,
      "avy": 7403,
      "Unless": 7404,
      "Ġreceiving": 7405,
      "headed": 7406,
      "Ġregretted": 7407,
      "Ġpeanuts": 7408,
      "ĠHotel": 7409,
      "Ġheavier": 7410,
      "Ġfairy": 7411,
      "Ġinjury": 7412,
      "Ġvolley": 7413,
      "Ġspeechless": 7414,
      "Ġearliest": 7415,
      "Ġannounce": 7416,
      "Ġcurse": 7417,
      "Ġcurrent": 7418,
      "Ġskipped": 7419,
      "Ġ193": 7420,
      "Ġ194": 7421,
      "Ġmarrying": 7422,
      "Ġpacking": 7423,
      "Ġsuperv": 7424,
      "Ġproduction": 7425,
      "raph": 7426,
      "Ġblinded": 7427,
      "Always": 7428,
      "Ġchocolates": 7429,
      "Ġ500": 7430,
      "Ġcellar": 7431,
      "Ġbrilliant": 7432,
      "Ġinvestment": 7433,
      "Ġsuspected": 7434,
      "ĠSaturdays": 7435,
      "Ġautom": 7436,
      "Ġbene": 7437,
      "Ġparan": 7438,
      "Ġastute": 7439,
      "Ġunfor": 7440,
      "ĠVienna": 7441,
      "Ġintentionally": 7442,
      "Ġvolunteering": 7443,
      "France": 7444,
      "Ġcriticized": 7445,
      "Ġdishonest": 7446,
      "orthy": 7447,
      "Ġspeeding": 7448,
      "Ġeffects": 7449,
      "Ġverge": 7450,
      "Ġwisdom": 7451,
      "Ġinvention": 7452,
      "Ġcarelessness": 7453,
      "phants": 7454,
      "Ġseparate": 7455,
      "ĠSpanish": 7456,
      "Ġnegotiations": 7457,
      "Ġkilogram": 7458,
      "Ġmyster": 7459,
      "Ġpuzzled": 7460,
      "Ġ70": 7461,
      "Ġfaithful": 7462,
      "Ġreview": 7463,
      "Ġparticipated": 7464,
      "Ġdegree": 7465,
      "Ġappla": 7466,
      "Black": 7467,
      "Ġtorn": 7468,
      "Ġshouted": 7469,
      "ĠAsian": 7470,
      "Ġlabor": 7471,
      "ophy": 7472,
      "Ġdelivery": 7473,
      "Ġcouncil": 7474,
      "Ġdefeated": 7475,
      "Ġcalculated": 7476,
      "Ġtechnology": 7477,
      "Ġcitizen": 7478,
      "Ġbalance": 7479,
      "Ġmosquito": 7480,
      "Ġmosquitoes": 7481,
      "Ġelders": 7482,
      "Ġmassage": 7483,
      "Ġcreepy": 7484,
      "Walking": 7485,
      "Ġcongratulated": 7486,
      "Ġstressful": 7487,
      "Ġchemistry": 7488,
      "Coffee": 7489,
      "Ġastonished": 7490,
      "Ġcollapsed": 7491,
      "Ġdemonstration": 7492,
      "Ġsympathy": 7493,
      "Ġacknowled": 7494,
      "Ġexplode": 7495,
      "Ġopponent": 7496,
      "minute": 7497,
      "Ġjewelry": 7498,
      "Ġinspired": 7499,
      "Ġsacrific": 7500,
      "Ġpharmacy": 7501,
      "hetti": 7502,
      "Ġthrilled": 7503,
      "Ġquarrel": 7504,
      "Ġslammed": 7505,
      "Ġsquirrel": 7506,
      "Ġrapidly": 7507,
      "Elephants": 7508,
      "Music": 7509,
      "Ġhelmet": 7510,
      "Ġrugby": 7511,
      "Ġinconven": 7512,
      "Ġresembles": 7513,
      "Believe": 7514,
      "inosaur": 7515,
      "Ġfestival": 7516,
      "Ġinherited": 7517,
      "qualified": 7518,
      "Ġprocedure": 7519,
      "Ġdisobeyed": 7520,
      "Ġdistinguish": 7521,
      "ĠHawaii": 7522,
      "Ġstomachache": 7523,
      "Mathematics": 7524,
      "Tickets": 7525,
      "ĠWashington": 7526,
      "Ġtitle": 7527,
      "Ġsarc": 7528,
      "Ġfarther": 7529,
      "Ġinappro": 7530,
      "Ġanonymous": 7531,
      "Ġspaghetti": 7532,
      "Ġunmarried": 7533,
      "Ġproficient": 7534,
      "Ġenormous": 7535,
      "Ġscratched": 7536,
      "okkaido": 7537,
      "ĠTuesday": 7538,
      "ĠClaus": 7539,
      "Ġpermanent": 7540,
      "Ġvolleyball": 7541,
      "Ġkilograms": 7542,
      "Ap": 7543,
      "Av": 7544,
      "Char": 7545,
      "Five": 7546,
      "Fear": 7547,
      "Hi": 7548,
      "Lend": 7549,
      "London": 7550,
      "Lincoln": 7551,
      "Mr": 7552,
      "Mine": 7553,
      "Monday": 7554,
      "Pr": 7555,
      "Red": 7556,
      "Se": 7557,
      "Seen": 7558,
      "Too": 7559,
      "Taste": 7560,
      "arent": 7561,
      "boy": 7562,
      "berg": 7563,
      "ece": 7564,
      "food": 7565,
      "four": 7566,
      "fish": 7567,
      "ky": 7568,
      "kins": 7569,
      "kesp": 7570,
      "lin": 7571,
      "lor": 7572,
      "lance": 7573,
      "mal": 7574,
      "pipes": 7575,
      "rous": 7576,
      "son": 7577,
      "sis": 7578,
      "what": 7579,
      "war": 7580,
      "walk": 7581,
      "yr": 7582,
      "zard": 7583,
      "ĠZ": 7584,
      "ĠWhere": 7585,
      "Ġult": 7586,
      "ĠEverything": 7587,
      "Ġtales": 7588,
      "hel": 7589,
      "hew": 7590,
      "hens": 7591,
      "Ġain": 7592,
      "Ġwink": 7593,
      "Ġwig": 7594,
      "Ġwages": 7595,
      "Ġwoken": 7596,
      "Ġwounds": 7597,
      "Ġyog": 7598,
      "Ġtone": 7599,
      "onies": 7600,
      "Ġdies": 7601,
      "Ġdull": 7602,
      "Ġdates": 7603,
      "Ġmam": 7604,
      "Ġbom": 7605,
      "Ġcart": 7606,
      "anna": 7607,
      "anji": 7608,
      "Ġlid": 7609,
      "Ġlink": 7610,
      "itled": 7611,
      "itution": 7612,
      "enced": 7613,
      "Ġnet": 7614,
      "Ġgri": 7615,
      "Ġgang": 7616,
      "Ġpowers": 7617,
      "Ġhairsty": 7618,
      "aser": 7619,
      "Ġove": 7620,
      "arse": 7621,
      "Ġhudd": 7622,
      "Ġisol": 7623,
      "Ġheating": 7624,
      "Ġdove": 7625,
      "Ġdogh": 7626,
      "ĠID": 7627,
      "Ġank": 7628,
      "imately": 7629,
      "Ġrew": 7630,
      "Ġrein": 7631,
      "Ġlifet": 7632,
      "Ġformer": 7633,
      "Ġforms": 7634,
      "Ġkite": 7635,
      "Ġwithd": 7636,
      "hern": 7637,
      "roken": 7638,
      "acts": 7639,
      "aceable": 7640,
      "Ġatomic": 7641,
      "Ġwhatso": 7642,
      "Ġabst": 7643,
      "Doctors": 7644,
      "rying": 7645,
      "enda": 7646,
      "Ġrank": 7647,
      "Ġrats": 7648,
      "Ġsober": 7649,
      "eare": 7650,
      "Ġoutra": 7651,
      "Ġtraged": 7652,
      "Ġspr": 7653,
      "Ġspider": 7654,
      "uls": 7655,
      "ules": 7656,
      "Ġplus": 7657,
      "Ġplates": 7658,
      "Ġunple": 7659,
      "Ġunfortun": 7660,
      "Ġsailing": 7661,
      "Ġjustify": 7662,
      "ĠMon": 7663,
      "quate": 7664,
      "Ġtool": 7665,
      "aves": 7666,
      "Ġsomewhat": 7667,
      "ometer": 7668,
      "cked": 7669,
      "Ġcausing": 7670,
      "Ġqueen": 7671,
      "Ġnowadays": 7672,
      "Ġrip": 7673,
      "Ġcarries": 7674,
      "Ġcarbon": 7675,
      "Ġchubby": 7676,
      "Ġhomeless": 7677,
      "Ġwrist": 7678,
      "Ġvoy": 7679,
      "Ġoffensive": 7680,
      "itement": 7681,
      "Ġprem": 7682,
      "Ġprejud": 7683,
      "Ġbackyard": 7684,
      "Ġfellow": 7685,
      "oses": 7686,
      "Ġadjust": 7687,
      "thy": 7688,
      "Ġmustache": 7689,
      "Ġboiled": 7690,
      "Ġlets": 7691,
      "Ġbrick": 7692,
      "Ġcompan": 7693,
      "Ġcompar": 7694,
      "Ġhousework": 7695,
      "Ġprim": 7696,
      "Ġprime": 7697,
      "Ġdispl": 7698,
      "Ġdisres": 7699,
      "Ġdismiss": 7700,
      "Ġovercoat": 7701,
      "Ġbless": 7702,
      "Ġblush": 7703,
      "Ġglance": 7704,
      "Ġscrap": 7705,
      "Ġscandal": 7706,
      "Ġswallow": 7707,
      "Ġflute": 7708,
      "Ġlaunched": 7709,
      "Ġdoorbell": 7710,
      "Ġresume": 7711,
      "Ġdecre": 7712,
      "Ġadvanced": 7713,
      "ĠAn": 7714,
      "ĠArab": 7715,
      "ĠJanuary": 7716,
      "Ġdriven": 7717,
      "Ġminds": 7718,
      "Ġwatering": 7719,
      "ĠTw": 7720,
      "ĠTit": 7721,
      "print": 7722,
      "Ġcolder": 7723,
      "Ġdesires": 7724,
      "ĠCalifornia": 7725,
      "Ġcounted": 7726,
      "Ġbroom": 7727,
      "Ġrecon": 7728,
      "ĠSc": 7729,
      "Ġsits": 7730,
      "Ġvision": 7731,
      "Ġimported": 7732,
      "Ġsnore": 7733,
      "Ġsnickering": 7734,
      "ĠOne": 7735,
      "Ġmonster": 7736,
      "Ġbites": 7737,
      "Ġdiscour": 7738,
      "pering": 7739,
      "Ġmostly": 7740,
      "Ġcutting": 7741,
      "asonable": 7742,
      "Ġdipping": 7743,
      "Ġemp": 7744,
      "shine": 7745,
      "Ġconfess": 7746,
      "Ġconfide": 7747,
      "Ġexcitement": 7748,
      "Ġbicycles": 7749,
      "Ġregion": 7750,
      "Ġcountryside": 7751,
      "Ġgrowth": 7752,
      "Ġdifferently": 7753,
      "Ġsnows": 7754,
      "Ġsnowed": 7755,
      "Ġsecretly": 7756,
      "Ġpenny": 7757,
      "Ġdiscussing": 7758,
      "Ġcompleted": 7759,
      "Ġhoriz": 7760,
      "Ġhospitality": 7761,
      "Ġcorn": 7762,
      "Ġsalty": 7763,
      "Ġassert": 7764,
      "Ġgrandch": 7765,
      "Ġlocker": 7766,
      "Ġescorted": 7767,
      "Ġfloats": 7768,
      "ĠNow": 7769,
      "Ġjoining": 7770,
      "Ġtaxis": 7771,
      "Ġruled": 7772,
      "Ġinstantly": 7773,
      "riculture": 7774,
      "Ġsubur": 7775,
      "Ġmedication": 7776,
      "Ġconsiderate": 7777,
      "Ġfooling": 7778,
      "Nowadays": 7779,
      "Ġstarve": 7780,
      "Ġtravelers": 7781,
      "Ġcalmed": 7782,
      "Ġcorrected": 7783,
      "Ġbehaves": 7784,
      "Ġwarmly": 7785,
      "Ġapproval": 7786,
      "Ġfreaked": 7787,
      "Ġannivers": 7788,
      "Ġdeepest": 7789,
      "Ġspecialist": 7790,
      "Ġindivid": 7791,
      "ĠRom": 7792,
      "ĠRed": 7793,
      "Ġclosing": 7794,
      "Ġbarbec": 7795,
      "Ġmagician": 7796,
      "ĠYear": 7797,
      "Ġeyeb": 7798,
      "Ġorganize": 7799,
      "Ġballs": 7800,
      "Ġdoubtful": 7801,
      "Ġmuseums": 7802,
      "Ġfaced": 7803,
      "Ġpoliticians": 7804,
      "Ġsticky": 7805,
      "ĠUnion": 7806,
      "ĠUniversity": 7807,
      "Ġnormally": 7808,
      "Ġdefine": 7809,
      "Ġdefense": 7810,
      "Ġrobot": 7811,
      "Ġseafood": 7812,
      "Ġjudgment": 7813,
      "Ġpeaceful": 7814,
      "Ġcello": 7815,
      "Ġpotential": 7816,
      "Ġexercising": 7817,
      "Ġsharpen": 7818,
      "Ġdevice": 7819,
      "Ġfilthy": 7820,
      "Ġobeyed": 7821,
      "Ġemployee": 7822,
      "Ġsuspic": 7823,
      "Ġsuspects": 7824,
      "Ġbrightest": 7825,
      "Ġautomat": 7826,
      "Ġlocation": 7827,
      "Ġconstant": 7828,
      "Ġacquitted": 7829,
      "Ġprofession": 7830,
      "Ġdiseases": 7831,
      "Ġdescription": 7832,
      "Ġintentions": 7833,
      "Ġtowels": 7834,
      "Ġprograms": 7835,
      "Ġtendency": 7836,
      "Ġcompete": 7837,
      "Ġobsessed": 7838,
      "Ġwiser": 7839,
      "Ġfifth": 7840,
      "Ġpassenger": 7841,
      "Ġdespises": 7842,
      "Ġturtles": 7843,
      "Ġadopt": 7844,
      "Ġcreated": 7845,
      "undant": 7846,
      "Ġseparately": 7847,
      "Ġinclude": 7848,
      "Ġfashionable": 7849,
      "Ġstatement": 7850,
      "Ġnegotiate": 7851,
      "Ġkilos": 7852,
      "Ġresponded": 7853,
      "Ġestab": 7854,
      "chair": 7855,
      "Ġbassoon": 7856,
      "Ġdeclared": 7857,
      "Ġphysical": 7858,
      "ĠRussia": 7859,
      "Ġspoil": 7860,
      "Ġconvenience": 7861,
      "Ġrubbed": 7862,
      "Ġoverwhel": 7863,
      "Above": 7864,
      "Ġachievement": 7865,
      "Ġfascinated": 7866,
      "olly": 7867,
      "Ġracist": 7868,
      "Ġrailway": 7869,
      "Ġflooded": 7870,
      "Americans": 7871,
      "Ġbiology": 7872,
      "Ġgifted": 7873,
      "Ġpraised": 7874,
      "Ġcontribute": 7875,
      "Ġsalesman": 7876,
      "Ġbaref": 7877,
      "Ġsailor": 7878,
      "Ġidentity": 7879,
      "Ġcheeks": 7880,
      "Ġtroubles": 7881,
      "Ġtroubled": 7882,
      "ĠBritain": 7883,
      "Ġdesigned": 7884,
      "Ġregardless": 7885,
      "Ġspecies": 7886,
      "Ġprotested": 7887,
      "Contact": 7888,
      "Ġgathering": 7889,
      "Ġfreezing": 7890,
      "Lightning": 7891,
      "Ġvotes": 7892,
      "Ġrelatively": 7893,
      "Ġhamm": 7894,
      "Ġinfected": 7895,
      "Ġsewing": 7896,
      "ĠSwitzerland": 7897,
      "Ġprinciples": 7898,
      "Drive": 7899,
      "Ġofficial": 7900,
      "Ġblackmailed": 7901,
      "Ġmicrophone": 7902,
      "Ġmixed": 7903,
      "Ġspinach": 7904,
      "Ġchewed": 7905,
      "Ġcrawling": 7906,
      "Ġassigned": 7907,
      "Ġvocation": 7908,
      "Ġstroke": 7909,
      "Ġcontrolled": 7910,
      "Ġcabinet": 7911,
      "heartedly": 7912,
      "Ġpierced": 7913,
      "Ġunbear": 7914,
      "Ġunreasonable": 7915,
      "ĠOlympics": 7916,
      "Ġbulb": 7917,
      "Ġsteady": 7918,
      "Ġuneasy": 7919,
      "Ġvirus": 7920,
      "Ġheartbroken": 7921,
      "Ġpanting": 7922,
      "Ġstinks": 7923,
      "Ġunbelievable": 7924,
      "Ġassoci": 7925,
      "Brush": 7926,
      "Ġmaintain": 7927,
      "Ġluxury": 7928,
      "Ġrevenge": 7929,
      "Ġaspirin": 7930,
      "Ġpurchase": 7931,
      "ocracy": 7932,
      "Ġscarcely": 7933,
      "Ġsample": 7934,
      "Ġdolphin": 7935,
      "Ġabolished": 7936,
      "Ġvitam": 7937,
      "Ġwatermelon": 7938,
      "Ġuniversal": 7939,
      "Girls": 7940,
      "Sugar": 7941,
      "Ġtissue": 7942,
      "Ġsixteen": 7943,
      "Ġoutfit": 7944,
      "Ġspirits": 7945,
      "Students": 7946,
      "Ġcameras": 7947,
      "ĠPacific": 7948,
      "Ġannouncement": 7949,
      "Ġparanoid": 7950,
      "inosaurs": 7951,
      "kespeare": 7952,
      "Ġhairstyle": 7953,
      "Ġhuddled": 7954,
      "Ġdoghouse": 7955,
      "Ġwhatsoever": 7956,
      "Ġunpleasant": 7957,
      "Ġunfortunate": 7958,
      "Ġvoyage": 7959,
      "Ġdisrespect": 7960,
      "Ġanniversary": 7961,
      "!\"": 7962,
      "20": 7963,
      "Back": 7964,
      "Care": 7965,
      "Certain": 7966,
      "Catch": 7967,
      "Consider": 7968,
      "Crime": 7969,
      "Em": 7970,
      "Fur": 7971,
      "Gas": 7972,
      "Hist": 7973,
      "Langu": 7974,
      "Mo": 7975,
      "Out": 7976,
      "Oil": 7977,
      "Rabbit": 7978,
      "Roll": 7979,
      "Sc": 7980,
      "Sear": 7981,
      "TM": 7982,
      "Very": 7983,
      "Winter": 7984,
      "bl": 7985,
      "bur": 7986,
      "cr": 7987,
      "corn": 7988,
      "da": 7989,
      "dream": 7990,
      "ebr": 7991,
      "five": 7992,
      "hold": 7993,
      "ij": 7994,
      "iar": 7995,
      "jo": 7996,
      "jong": 7997,
      "ked": 7998,
      "liness": 7999,
      "mers": 8000,
      "made": 8001,
      "mission": 8002,
      "moon": 8003,
      "pes": 8004,
      "person": 8005,
      "piece": 8006,
      "phew": 8007,
      "race": 8008,
      "rated": 8009,
      "sm": 8010,
      "sha": 8011,
      "tl": 8012,
      "test": 8013,
      "tray": 8014,
      "uk": 8015,
      "worthy": 8016,
      "zart": 8017,
      "ĠWill": 8018,
      "Ġeth": 8019,
      "ĠWhite": 8020,
      "Ġtrem": 8021,
      "inated": 8022,
      "Ġwinner": 8023,
      "reg": 8024,
      "Ġsorts": 8025,
      "ham": 8026,
      "hakespeare": 8027,
      "oning": 8028,
      "Ġdated": 8029,
      "Ġduck": 8030,
      "Ġdirt": 8031,
      "isc": 8032,
      "isor": 8033,
      "Ġmow": 8034,
      "Ġbartender": 8035,
      "Ġtheft": 8036,
      "anic": 8037,
      "Ġfuse": 8038,
      "Ġfountain": 8039,
      "lling": 8040,
      "itors": 8041,
      "orate": 8042,
      "Ġnut": 8043,
      "Ġnick": 8044,
      "Ġnum": 8045,
      "Ġgre": 8046,
      "Ġgaz": 8047,
      "Ġpee": 8048,
      "Ġpess": 8049,
      "Ġpork": 8050,
      "Ġhacks": 8051,
      "asm": 8052,
      "arate": 8053,
      "Ġho": 8054,
      "Ġhiring": 8055,
      "Ġdope": 8056,
      "Ġdozed": 8057,
      "ĠII": 8058,
      "Ġreck": 8059,
      "Ġlif": 8060,
      "Ġforks": 8061,
      "Ġkanji": 8062,
      "Ġkarate": 8063,
      "Ġstad": 8064,
      "Ġstare": 8065,
      "Ġstressed": 8066,
      "Ġnephew": 8067,
      "rib": 8068,
      "rily": 8069,
      "Ġknot": 8070,
      "ada": 8071,
      "ading": 8072,
      "stand": 8073,
      "lying": 8074,
      "tering": 8075,
      "rogen": 8076,
      "allowed": 8077,
      "Italy": 8078,
      "ambit": 8079,
      "irl": 8080,
      "Ġjar": 8081,
      "ainer": 8082,
      "Ġalley": 8083,
      "orers": 8084,
      "Ġteles": 8085,
      "endar": 8086,
      "Ġrout": 8087,
      "Ġrage": 8088,
      "Ġrud": 8089,
      "urd": 8090,
      "opin": 8091,
      "Ġseek": 8092,
      "Ġoutlive": 8093,
      "redient": 8094,
      "Ġspouse": 8095,
      "ulated": 8096,
      "Ġlover": 8097,
      "Ġlovers": 8098,
      "Ġunint": 8099,
      "Ġunbut": 8100,
      "Ġunambit": 8101,
      "iland": 8102,
      "ĠMother": 8103,
      "ategy": 8104,
      "Ġdeer": 8105,
      "Ġseas": 8106,
      "Ġseeds": 8107,
      "Ġagenda": 8108,
      "Ġmanip": 8109,
      "olumb": 8110,
      "ership": 8111,
      "ortug": 8112,
      "ounding": 8113,
      "Ġmule": 8114,
      "Ġclerk": 8115,
      "obal": 8116,
      "Ġrode": 8117,
      "Ġbooked": 8118,
      "icking": 8119,
      "Ġbelieving": 8120,
      "ĠFebr": 8121,
      "Ġbrace": 8122,
      "Ġawoke": 8123,
      "Ġovercome": 8124,
      "Ġovertime": 8125,
      "Ġwaiter": 8126,
      "Ġappointed": 8127,
      "Ġhandic": 8128,
      "Ġhandles": 8129,
      "Ġhandbag": 8130,
      "esters": 8131,
      "Ġmoves": 8132,
      "Ġblog": 8133,
      "Ġblushed": 8134,
      "Ġblessed": 8135,
      "elling": 8136,
      "angle": 8137,
      "Ġfax": 8138,
      "Ġswallowed": 8139,
      "Ġfinicky": 8140,
      "Ġflames": 8141,
      "abul": 8142,
      "Ġquestioning": 8143,
      "Ġresort": 8144,
      "Ġresched": 8145,
      "Ġhats": 8146,
      "Stock": 8147,
      "Ġmatches": 8148,
      "oyal": 8149,
      "ĠATM": 8150,
      "Ġmarath": 8151,
      "Ġbeds": 8152,
      "Ġraincoat": 8153,
      "Ġstring": 8154,
      "Ġstrategy": 8155,
      "Ġinterests": 8156,
      "Ġattach": 8157,
      "Ġattributed": 8158,
      "Ġtheirs": 8159,
      "ĠCross": 8160,
      "Ġreporter": 8161,
      "Ġperiod": 8162,
      "ĠEnglishman": 8163,
      "Ġchap": 8164,
      "Ġchased": 8165,
      "Ġrestr": 8166,
      "Ġrestroom": 8167,
      "Ġrestored": 8168,
      "ĠShakespeare": 8169,
      "Ġinvaded": 8170,
      "Ġinviting": 8171,
      "Ġinvinci": 8172,
      "ficial": 8173,
      "Ġserver": 8174,
      "Ġmeetings": 8175,
      "Ġarrival": 8176,
      "Ġsnake": 8177,
      "Ġskating": 8178,
      "Ġslower": 8179,
      "Ġfrank": 8180,
      "Ġtrusting": 8181,
      "Ġsickness": 8182,
      "iented": 8183,
      "ublic": 8184,
      "works": 8185,
      "Ġdial": 8186,
      "ĠChopin": 8187,
      "axed": 8188,
      "Ġguessing": 8189,
      "Ġdepressing": 8190,
      "Ġtripped": 8191,
      "Ġsolid": 8192,
      "Ġrefund": 8193,
      "Ġsentenced": 8194,
      "Ġconfron": 8195,
      "Ġallowance": 8196,
      "Ġbeginners": 8197,
      "Ġinfuri": 8198,
      "Ġcatching": 8199,
      "teous": 8200,
      "Ġsunlight": 8201,
      "Ġsunshine": 8202,
      "Ġexamples": 8203,
      "Ġteams": 8204,
      "Ġhospitalized": 8205,
      "Ġmedit": 8206,
      "Ġinsan": 8207,
      "Ġbagpipes": 8208,
      "Ġdistant": 8209,
      "Ġdistances": 8210,
      "Ġsignature": 8211,
      "Ġdrunken": 8212,
      "Ġworthwhile": 8213,
      "Ġextroverted": 8214,
      "Ġsimpl": 8215,
      "Att": 8216,
      "Ġcourteous": 8217,
      "Ġcope": 8218,
      "Ġoffering": 8219,
      "Ġtestify": 8220,
      "Ġtemple": 8221,
      "Ġtemples": 8222,
      "Ġpopcorn": 8223,
      "Ġfootprints": 8224,
      "Ġfatal": 8225,
      "Ġhonestly": 8226,
      "Ġabsurd": 8227,
      "Ġcalendar": 8228,
      "Ġpeas": 8229,
      "Ġprophe": 8230,
      "Ġproposed": 8231,
      "ĠHouse": 8232,
      "Ġfreak": 8233,
      "ilton": 8234,
      "Ġtopics": 8235,
      "Ġpurs": 8236,
      "Ġlending": 8237,
      "Ġpermitting": 8238,
      "dreds": 8239,
      "Ġdependent": 8240,
      "Ġurban": 8241,
      "Ġholes": 8242,
      "Ġ198": 8243,
      "Ġleading": 8244,
      "Ġgradually": 8245,
      "Ġdetailed": 8246,
      "Ġsuperior": 8247,
      "Ġproduce": 8248,
      "Ġfeeds": 8249,
      "Ġforgiveness": 8250,
      "Ġfacing": 8251,
      "cript": 8252,
      "Ġblinds": 8253,
      "Spanish": 8254,
      "Ġscheduled": 8255,
      "Ġdemanding": 8256,
      "berry": 8257,
      "Ġgarlic": 8258,
      "Ġexceptions": 8259,
      "Ġthousands": 8260,
      "Ġfrighten": 8261,
      "Ġfrightening": 8262,
      "Ġwisely": 8263,
      "Ġevents": 8264,
      "Ġdevil": 8265,
      "Ġmajors": 8266,
      "Ġmajored": 8267,
      "Ġequals": 8268,
      "Ġharmful": 8269,
      "Ġacquaint": 8270,
      "Ġdieting": 8271,
      "Ġnapkin": 8272,
      "Ġjudgement": 8273,
      "Ġastrol": 8274,
      "Ġprinter": 8275,
      "Remain": 8276,
      "lights": 8277,
      "Ġresigned": 8278,
      "Ġresignation": 8279,
      "Ġscientific": 8280,
      "Ġeducated": 8281,
      "Ġ80": 8282,
      "cientists": 8283,
      "Ġgentlemen": 8284,
      "Ġsteam": 8285,
      "Ġsurfing": 8286,
      "Ġcriminals": 8287,
      "Ġobserve": 8288,
      "Ġodds": 8289,
      "Ġstrenuous": 8290,
      "Ġissues": 8291,
      "Ġinvestigating": 8292,
      "Ġtypist": 8293,
      "Ġbullets": 8294,
      "Ġincluding": 8295,
      "Ġbriefcase": 8296,
      "Ġmelting": 8297,
      "Ġignoring": 8298,
      "bbing": 8299,
      "Speaking": 8300,
      "Ġdeceased": 8301,
      "Ġblankets": 8302,
      "Ġwitnessed": 8303,
      "Ġremembers": 8304,
      "Ġphysically": 8305,
      "Ġnarrowly": 8306,
      "Ġweighs": 8307,
      "Ġclaimed": 8308,
      "Ġliterally": 8309,
      "Ġgaining": 8310,
      "Ġhoneymoon": 8311,
      "Ġadvertising": 8312,
      "Ġimmigr": 8313,
      "Ġdigest": 8314,
      "Ġdigging": 8315,
      "Ġbiased": 8316,
      "Ġlabel": 8317,
      "Ġfinancially": 8318,
      "Ġinternet": 8319,
      "Ġinfluential": 8320,
      "Ġstretch": 8321,
      "Ġidentify": 8322,
      "Ġsympathetic": 8323,
      "Ġrecovering": 8324,
      "Ġfussy": 8325,
      "Ġoutrank": 8326,
      "Ġfrustrating": 8327,
      "ĠGreece": 8328,
      "Control": 8329,
      "Ġdecorated": 8330,
      "Ġpigs": 8331,
      "Ġgrammat": 8332,
      "Humans": 8333,
      "Learn": 8334,
      "Ġcynical": 8335,
      "Ġconsciousness": 8336,
      "Ġelephants": 8337,
      "Ġtraditional": 8338,
      "Ġdormit": 8339,
      "alloween": 8340,
      "coming": 8341,
      "Ġactivity": 8342,
      "Ġactivities": 8343,
      "Ġmemorized": 8344,
      "Death": 8345,
      "Marriage": 8346,
      "ĠiPad": 8347,
      "Ġtiger": 8348,
      "Ġtigers": 8349,
      "Ġbenefit": 8350,
      "Prep": 8351,
      "Ġmutual": 8352,
      "Ġangrily": 8353,
      "Ġathletic": 8354,
      "Ġflinching": 8355,
      "Ġslippers": 8356,
      "Ġsympt": 8357,
      "Ġgeography": 8358,
      "Ġpoorer": 8359,
      "Ġpalace": 8360,
      "Ġreveal": 8361,
      "Ġadventure": 8362,
      "Ġbutterflies": 8363,
      "Ġtunnel": 8364,
      "ĠKorean": 8365,
      "Ġdislikes": 8366,
      "Hopefully": 8367,
      "Ġingredient": 8368,
      "Ġpleaded": 8369,
      "Ġstalling": 8370,
      "Ġstabbed": 8371,
      "Ġerrands": 8372,
      "Ġbakery": 8373,
      "Ġdissatisfied": 8374,
      "Ġhandcuff": 8375,
      "Ġphilosophy": 8376,
      "Ġvolcano": 8377,
      "Ġevacuate": 8378,
      "Ġdisguised": 8379,
      "Fasten": 8380,
      "Hundreds": 8381,
      "parked": 8382,
      "Ġrebels": 8383,
      "Ġashtray": 8384,
      "Ġapplauded": 8385,
      "Ġacknowledged": 8386,
      "Ġinconvenience": 8387,
      "Ġsarcastic": 8388,
      "Ġinappropriate": 8389,
      "Apart": 8390,
      "Avoid": 8391,
      "Ġisolated": 8392,
      "Ġankle": 8393,
      "Ġlifetime": 8394,
      "Ġtragedy": 8395,
      "Ġcomparison": 8396,
      "Ġprimary": 8397,
      "ĠTitanic": 8398,
      "Ġassertive": 8399,
      "Ġsuburbs": 8400,
      "Ġeyebrows": 8401,
      "Ġsuspicion": 8402,
      "Ġbarefoot": 8403,
      "Ġunbearable": 8404,
      "Rabbits": 8405,
      "Search": 8406,
      "Ġnumerous": 8407,
      "Ġpessim": 8408,
      "Ġhacksaw": 8409,
      "Ġstadium": 8410,
      "Ġtelescope": 8411,
      "Ġunbuttoned": 8412,
      "Ġunambitious": 8413,
      "olumbus": 8414,
      "ĠFebruary": 8415,
      "Ġbracelet": 8416,
      "Ġinvincible": 8417,
      "Ġconfronted": 8418,
      "%.": 8419,
      "14": 8420,
      "500": 8421,
      "Ar": 8422,
      "Aut": 8423,
      "Ant": 8424,
      "Australia": 8425,
      "Congratul": 8426,
      "Eating": 8427,
      "Earth": 8428,
      "Grand": 8429,
      "Kiss": 8430,
      "Living": 8431,
      "Making": 8432,
      "Nap": 8433,
      "Opp": 8434,
      "Pour": 8435,
      "Person": 8436,
      "Pardon": 8437,
      "Rome": 8438,
      "Sn": 8439,
      "Sal": 8440,
      "Sure": 8441,
      "Scientists": 8442,
      "Tea": 8443,
      "Taking": 8444,
      "Wipe": 8445,
      "Yea": 8446,
      "avor": 8447,
      "bu": 8448,
      "back": 8449,
      "cest": 8450,
      "cies": 8451,
      "cond": 8452,
      "cling": 8453,
      "fall": 8454,
      "ffe": 8455,
      "fact": 8456,
      "hjong": 8457,
      "iens": 8458,
      "ique": 8459,
      "nate": 8460,
      "oom": 8461,
      "ollen": 8462,
      "pal": 8463,
      "rid": 8464,
      "ser": 8465,
      "sized": 8466,
      "ximately": 8467,
      "Ġ'": 8468,
      "ĠWould": 8469,
      "ĠGive": 8470,
      "ĠGo": 8471,
      "Ġtan": 8472,
      "Ġted": 8473,
      "Ġtide": 8474,
      "Ġtipt": 8475,
      "Ġtale": 8476,
      "Ġapt": 8477,
      "Ġsed": 8478,
      "Ġsunk": 8479,
      "Ġyach": 8480,
      "Ġtoss": 8481,
      "Ġdim": 8482,
      "Ġdug": 8483,
      "Ġdime": 8484,
      "Ġditch": 8485,
      "isure": 8486,
      "Ġmal": 8487,
      "Ġmult": 8488,
      "Ġbache": 8489,
      "Ġbounds": 8490,
      "Ġbooze": 8491,
      "Ġcas": 8492,
      "Ġtherm": 8493,
      "Ġfans": 8494,
      "Ġfier": 8495,
      "Ġfiction": 8496,
      "Ġfeared": 8497,
      "Ġloosen": 8498,
      "ital": 8499,
      "itched": 8500,
      "erted": 8501,
      "erior": 8502,
      "erlin": 8503,
      "Ġnast": 8504,
      "Ġpour": 8505,
      "Ġpies": 8506,
      "Ġhazard": 8507,
      "aration": 8508,
      "arians": 8509,
      "Ġhoc": 8510,
      "Ġhives": 8511,
      "Ġthinner": 8512,
      "othes": 8513,
      "atles": 8514,
      "Ġheal": 8515,
      "Ġhelic": 8516,
      "etch": 8517,
      "Ġep": 8518,
      "Ġanaly": 8519,
      "Ġancest": 8520,
      "Health": 8521,
      "Ġonions": 8522,
      "Ġliars": 8523,
      "Ġforcing": 8524,
      "Ġsteep": 8525,
      "Ġstoned": 8526,
      "alty": 8527,
      "Ġknit": 8528,
      "Ġgod": 8529,
      "Ġcane": 8530,
      "stra": 8531,
      "sex": 8532,
      "sever": 8533,
      "unior": 8534,
      "allel": 8535,
      "ille": 8536,
      "illing": 8537,
      "uties": 8538,
      "ustroph": 8539,
      "Ġshuff": 8540,
      "Ġshiver": 8541,
      "Ġsued": 8542,
      "Ġjet": 8543,
      "Ġjell": 8544,
      "Ġjunior": 8545,
      "aine": 8546,
      "Ġalleg": 8547,
      "Ġworm": 8548,
      "Ġrash": 8549,
      "Ġsoil": 8550,
      "opter": 8551,
      "opsy": 8552,
      "ctic": 8553,
      "Ġupd": 8554,
      "Ġtrace": 8555,
      "Ġtrash": 8556,
      "Ġtromb": 8557,
      "Ġexcess": 8558,
      "Ġunac": 8559,
      "ests": 8560,
      "ilk": 8561,
      "istics": 8562,
      "ques": 8563,
      "Ġcomed": 8564,
      "Ġsealed": 8565,
      "Ġcoc": 8566,
      "Ġcable": 8567,
      "Ġcafet": 8568,
      "olar": 8569,
      "few": 8570,
      "Ġripped": 8571,
      "Ġripe": 8572,
      "ortal": 8573,
      "Ġchoos": 8574,
      "Ġchips": 8575,
      "Ġmug": 8576,
      "Ġarcha": 8577,
      "Ġclar": 8578,
      "Ġclum": 8579,
      "obile": 8580,
      "Ġvirt": 8581,
      "Ġmakeup": 8582,
      "Ġprev": 8583,
      "icket": 8584,
      "Ġleisure": 8585,
      "Ġthoughtful": 8586,
      "Ġexpand": 8587,
      "Ġexpose": 8588,
      "Ġexpired": 8589,
      "Ġbackpack": 8590,
      "Ġbury": 8591,
      "Ġdrum": 8592,
      "Ġdrastic": 8593,
      "Ġorche": 8594,
      "Wherever": 8595,
      "Ġboil": 8596,
      "Ġbride": 8597,
      "Ġbraces": 8598,
      "Ġleap": 8599,
      "Ġcompre": 8600,
      "Ġharsh": 8601,
      "Ġhousew": 8602,
      "Ġprayed": 8603,
      "Ġnights": 8604,
      "Ġdowns": 8605,
      "Ġapparently": 8606,
      "Ġblouse": 8607,
      "Ġwhereabouts": 8608,
      "Ġhardworking": 8609,
      "Ġglobal": 8610,
      "Ġscan": 8611,
      "Ġsweep": 8612,
      "Ġswollen": 8613,
      "Ġfinishing": 8614,
      "venir": 8615,
      "Ġfled": 8616,
      "Ġflavor": 8617,
      "Ġhurricane": 8618,
      "Ġdeciding": 8619,
      "Ġkindly": 8620,
      "Ġfunction": 8621,
      "ĠEast": 8622,
      "Ġgrump": 8623,
      "oya": 8624,
      "ĠAug": 8625,
      "Ġmargar": 8626,
      "ogen": 8627,
      "Ġrainbow": 8628,
      "Ġfounded": 8629,
      "Ġattained": 8630,
      "Ġbeggar": 8631,
      "ĠTake": 8632,
      "ĠThank": 8633,
      "Ġmisses": 8634,
      "Ġactual": 8635,
      "ipment": 8636,
      "Ġrunner": 8637,
      "Ġgreater": 8638,
      "Ġwarming": 8639,
      "ĠCongress": 8640,
      "Ġrepay": 8641,
      "Ġrepairs": 8642,
      "Ġbroch": 8643,
      "Ġrecy": 8644,
      "Ġrecovery": 8645,
      "udes": 8646,
      "ĠSan": 8647,
      "Ġinval": 8648,
      "Ġshaving": 8649,
      "Ġshaved": 8650,
      "Ġshamp": 8651,
      "beat": 8652,
      "Ġsnee": 8653,
      "Ġsnacks": 8654,
      "Ġskip": 8655,
      "Ġslave": 8656,
      "Ġslavery": 8657,
      "Ġmonument": 8658,
      "Ġmonkeys": 8659,
      "Ġaccidentally": 8660,
      "Ġfrag": 8661,
      "Ġfract": 8662,
      "Ġdiscrim": 8663,
      "Getting": 8664,
      "Ġrelied": 8665,
      "Going": 8666,
      "Ġmonthly": 8667,
      "Ġfireworks": 8668,
      "Ġparks": 8669,
      "Ġfasten": 8670,
      "Ġdreamer": 8671,
      "Ġheadlights": 8672,
      "Ġtries": 8673,
      "Ġentitled": 8674,
      "Ġempha": 8675,
      "Ġconspir": 8676,
      "Ġrefuge": 8677,
      "Ġconfusing": 8678,
      "Ġregained": 8679,
      "Ġcommission": 8680,
      "Ġthroughout": 8681,
      "Looking": 8682,
      "Ġ23": 8683,
      "Ġdeluding": 8684,
      "Ġbabies": 8685,
      "Ġterrit": 8686,
      "brainer": 8687,
      "Ġtrips": 8688,
      "Ġpenalty": 8689,
      "Ġinterven": 8690,
      "Ġhospit": 8691,
      "Ġpattern": 8692,
      "Ġfails": 8693,
      "Ġarmchair": 8694,
      "Ġadmission": 8695,
      "Ġinsulting": 8696,
      "ĠPer": 8697,
      "ĠPole": 8698,
      "ĠPrime": 8699,
      "Ġpaperwork": 8700,
      "Ġextended": 8701,
      "Wasn": 8702,
      "Ġpleasantly": 8703,
      "Ġcourtes": 8704,
      "Ġvacations": 8705,
      "Ġinstant": 8706,
      "Ġinstinct": 8707,
      "Ġcoug": 8708,
      "Ġsubst": 8709,
      "Ġumbrellas": 8710,
      "Ġrecognition": 8711,
      "check": 8712,
      "Ġhumble": 8713,
      "ĠHilton": 8714,
      "ĠHalloween": 8715,
      "ĠLincoln": 8716,
      "Ġsurvival": 8717,
      "Ġsyn": 8718,
      "Ġbelonged": 8719,
      "Ġspecialty": 8720,
      "Ġembassy": 8721,
      "Ġraising": 8722,
      "Ġrespectful": 8723,
      "Ġprotecting": 8724,
      "Ġfigures": 8725,
      "ĠKing": 8726,
      "Ġweirdest": 8727,
      "Ġmailbox": 8728,
      "Ġconcerns": 8729,
      "Ġmale": 8730,
      "Ġmahjong": 8731,
      "Ġcurfew": 8732,
      "ĠDad": 8733,
      "ĠDece": 8734,
      "Ġironed": 8735,
      "oids": 8736,
      "Ġ196": 8737,
      "Ġsupported": 8738,
      "Ġevident": 8739,
      "Ġeighty": 8740,
      "Ġeditor": 8741,
      "Ġconditioning": 8742,
      "Ġextreme": 8743,
      "conf": 8744,
      "Ġfruits": 8745,
      "Ġexplanations": 8746,
      "ounter": 8747,
      "Ġsticks": 8748,
      "Spain": 8749,
      "Ġaccounts": 8750,
      "ification": 8751,
      "ificial": 8752,
      "Ġprofit": 8753,
      "Ġsweetheart": 8754,
      "Ġcalmly": 8755,
      "Ġburns": 8756,
      "Ġsubjects": 8757,
      "Need": 8758,
      "Ġrobots": 8759,
      "Ġappointments": 8760,
      "Ġpeacefully": 8761,
      "Ġidiots": 8762,
      "Ġarticles": 8763,
      "Ġcowards": 8764,
      "Ġannoys": 8765,
      "Ġshark": 8766,
      "Seeing": 8767,
      "Ġfilms": 8768,
      "Ġdisgrace": 8769,
      "Ġbanjo": 8770,
      "Ġpretends": 8771,
      "ocated": 8772,
      "ocrat": 8773,
      "Ġequipment": 8774,
      "Ġgolden": 8775,
      "Ġchickens": 8776,
      "Ġautopsy": 8777,
      "Ġweakness": 8778,
      "neyland": 8779,
      "Ġparag": 8780,
      "Ġeconomics": 8781,
      "Ġheroin": 8782,
      "Ġelectrician": 8783,
      "Ġundressing": 8784,
      "Ġdirectly": 8785,
      "Ġfingernails": 8786,
      "Ġdisagreed": 8787,
      "Ġ45": 8788,
      "Ġbrowser": 8789,
      "Ġslightest": 8790,
      "Ġexpression": 8791,
      "Ġtempting": 8792,
      "Saying": 8793,
      "Ġdespised": 8794,
      "Trave": 8795,
      "Ġtricky": 8796,
      "Ġencounter": 8797,
      "Ġclaustroph": 8798,
      "Plants": 8799,
      "Ġreplied": 8800,
      "Ġmasterpiece": 8801,
      "Ġinclined": 8802,
      "Ġsuggestions": 8803,
      "Ġmainly": 8804,
      "Ġcarpenter": 8805,
      "Ġreservations": 8806,
      "Ġimprovement": 8807,
      "Ġmeasured": 8808,
      "Ġwhiskey": 8809,
      "Ġwhispering": 8810,
      "Ġscrewed": 8811,
      "Ġestimate": 8812,
      "Ġdeceive": 8813,
      "Ġbitterly": 8814,
      "Ġnotebooks": 8815,
      "Ġrubb": 8816,
      "Finding": 8817,
      "Ġsummit": 8818,
      "Ġrabbits": 8819,
      "Ġsatisfy": 8820,
      "Ġsouvenir": 8821,
      "Ġleaks": 8822,
      "Ġadvertised": 8823,
      "piration": 8824,
      "Ġvariety": 8825,
      "Ġcontributed": 8826,
      "Apples": 8827,
      "Ġcotton": 8828,
      "Ġregularly": 8829,
      "Ġinsulted": 8830,
      "Ġpredictable": 8831,
      "Ġcooperative": 8832,
      "Ġcombination": 8833,
      "Ġtechnical": 8834,
      "Ġfunds": 8835,
      "Ġfundamental": 8836,
      "Ġregarded": 8837,
      "Ġobligation": 8838,
      "Ġguaranteed": 8839,
      "Ġfreezes": 8840,
      "Ġstrawberries": 8841,
      "Finish": 8842,
      "Ġgrocer": 8843,
      "Ġgroggy": 8844,
      "Ġvoting": 8845,
      "Ġstruggle": 8846,
      "Ġcreeps": 8847,
      "Ġconsequence": 8848,
      "loaded": 8849,
      "Ġchemical": 8850,
      "ĠSwed": 8851,
      "Happiness": 8852,
      "Ġunwilling": 8853,
      "Ġuniforms": 8854,
      "Ġconceited": 8855,
      "Ġsurrendered": 8856,
      "Ġentertaining": 8857,
      "Ġblackmailing": 8858,
      "Ġsmoothly": 8859,
      "Ġassignment": 8860,
      "Ġvocabul": 8861,
      "Ġmemorize": 8862,
      "ĠUSA": 8863,
      "Ġacknowledge": 8864,
      "Ġanticipate": 8865,
      "Ġanticipated": 8866,
      "Ġseverely": 8867,
      "Ġclients": 8868,
      "Ġdisoriented": 8869,
      "Ġreaction": 8870,
      "ĠBeatles": 8871,
      "Ġearrings": 8872,
      "Strange": 8873,
      "Ġslippery": 8874,
      "Ġinstruments": 8875,
      "Ġirritating": 8876,
      "Ġloyalty": 8877,
      "ĠNagoya": 8878,
      "Ġbankruptcy": 8879,
      "Ġintimidated": 8880,
      "Carry": 8881,
      "Glad": 8882,
      "Ġsenior": 8883,
      "Ġextingu": 8884,
      "Ġreluctant": 8885,
      "Ġterrorists": 8886,
      "Explain": 8887,
      "Ġhamburger": 8888,
      "Ġlobby": 8889,
      "Ġphrase": 8890,
      "ĠChristian": 8891,
      "Ġastronomy": 8892,
      "Ġexhibition": 8893,
      "Ġcockro": 8894,
      "Ġrefreshing": 8895,
      "Ġdeliberately": 8896,
      "Ġadministration": 8897,
      "Ġoccupied": 8898,
      "Ġsqueeze": 8899,
      "Ġblossoms": 8900,
      "Ġdisposal": 8901,
      "Ġforbidden": 8902,
      "Ġfulfill": 8903,
      "Ġlipstick": 8904,
      "ĠMinister": 8905,
      "Ġquantity": 8906,
      "Ġwithdraw": 8907,
      "ulsive": 8908,
      "Ġdisplayed": 8909,
      "Ġdismissed": 8910,
      "Ġhorizon": 8911,
      "Ġindividual": 8912,
      "Ġbarbecue": 8913,
      "History": 8914,
      "Language": 8915,
      "Ġnickname": 8916,
      "Ġgreasy": 8917,
      "Ġrudeness": 8918,
      "Ġuninterest": 8919,
      "Ġhandicapped": 8920,
      "Ġmarathon": 8921,
      "Ġprophecy": 8922,
      "Ġastrology": 8923,
      "Ġimmigrants": 8924,
      "Prepare": 8925,
      "Ġpessimistic": 8926,
      "Congratulations": 8927,
      "Yeah": 8928,
      "build": 8929,
      "Ġthermometer": 8930,
      "Ġfierce": 8931,
      "Ġnasty": 8932,
      "Ġhockey": 8933,
      "Ġhelicopter": 8934,
      "Ġtrombone": 8935,
      "Ġcafeteria": 8936,
      "Ġarchae": 8937,
      "Ġclumsy": 8938,
      "Ġorchestra": 8939,
      "Ġgrumpy": 8940,
      "ĠAugust": 8941,
      "Ġshampoo": 8942,
      "Ġdiscrimination": 8943,
      "Ġconspiracy": 8944,
      "Ġcourtesy": 8945,
      "ĠDecember": 8946,
      "Ġclaustrophob": 8947,
      "Ġvocabulary": 8948,
      "Ac": 8949,
      "Bab": 8950,
      "Cal": 8951,
      "Cars": 8952,
      "Cross": 8953,
      "Comm": 8954,
      "Dem": 8955,
      "Def": 8956,
      "Edu": 8957,
      "Event": 8958,
      "Europe": 8959,
      "Feed": 8960,
      "Fresh": 8961,
      "Great": 8962,
      "Horses": 8963,
      "Ice": 8964,
      "Int": 8965,
      "Iron": 8966,
      "Jump": 8967,
      "Lay": 8968,
      "Lake": 8969,
      "Loosen": 8970,
      "Mt": 8971,
      "Min": 8972,
      "Mind": 8973,
      "Might": 8974,
      "Milk": 8975,
      "NA": 8976,
      "Night": 8977,
      "Norm": 8978,
      "Nature": 8979,
      "Po": 8980,
      "Part": 8981,
      "Pull": 8982,
      "Push": 8983,
      "Pract": 8984,
      "Que": 8985,
      "RS": 8986,
      "Rin": 8987,
      "Rain": 8988,
      "Sl": 8989,
      "Sur": 8990,
      "Ton": 8991,
      "Tokyo": 8992,
      "Unt": 8993,
      "Wind": 8994,
      "aist": 8995,
      "bul": 8996,
      "bra": 8997,
      "cis": 8998,
      "dri": 8999,
      "dress": 9000,
      "dles": 9001,
      "eine": 9002,
      "face": 9003,
      "ford": 9004,
      "give": 9005,
      "gue": 9006,
      "gones": 9007,
      "hill": 9008,
      "iren": 9009,
      "ipper": 9010,
      "kirts": 9011,
      "li": 9012,
      "lose": 9013,
      "lied": 9014,
      "lined": 9015,
      "lives": 9016,
      "mble": 9017,
      "nam": 9018,
      "oha": 9019,
      "oven": 9020,
      "oons": 9021,
      "ping": 9022,
      "pret": 9023,
      "rical": 9024,
      "ront": 9025,
      "ridge": 9026,
      "sp": 9027,
      "sper": 9028,
      "ties": 9029,
      "vy": 9030,
      "well": 9031,
      "yl": 9032,
      "zing": 9033,
      "zes": 9034,
      "ĠThese": 9035,
      "Ġvent": 9036,
      "Ġtails": 9037,
      "Ġtucked": 9038,
      "hen": 9039,
      "inent": 9040,
      "inted": 9041,
      "inations": 9042,
      "Ġwoo": 9043,
      "Ġwaking": 9044,
      "Ġwitch": 9045,
      "Ġwanna": 9046,
      "Ġwaist": 9047,
      "rels": 9048,
      "Ġsack": 9049,
      "Ġsorrow": 9050,
      "Ġsigh": 9051,
      "Ġtoe": 9052,
      "Ġtoll": 9053,
      "Ġdom": 9054,
      "Ġdign": 9055,
      "Ġdense": 9056,
      "Ġduties": 9057,
      "isa": 9058,
      "isher": 9059,
      "Ġmand": 9060,
      "Ġmask": 9061,
[...]
