{
  "version": "1.0",
  "truncation": null,
  "padding": null,
  "added_tokens": [
    {
      "id": 0,
      "content": "<|endoftext|>",
      "single_word": false,
      "lstrip": false,
      "rstrip": false,
      "normalized": false,
      "special": true
    },
    {
      "id": 1,
      "content": "<|startoftext|>",
      "single_word": false,
      "lstrip": false,
      "rstrip": false,
      "normalized": false,
      "special": true
    },
    {
      "id": 2,
      "content": "<|pad|>",
      "single_word": false,
      "lstrip": false,
      "rstrip": false,
      "normalized": false,
      "special": true
    }
  ],
  "normalizer": null,
  "pre_tokenizer": {
    "type": "ByteLevel",
    "add_prefix_space": false,
    "trim_offsets": true,
    "use_regex": true
  },
  "post_processor": {
    "type": "ByteLevel",
    "add_prefix_space": true,
    "trim_offsets": false,
    "use_regex": true
  },
  "decoder": null,
  "model": {
    "type": "BPE",
    "dropout": null,
    "unk_token": null,
    "continuing_subword_prefix": null,
    "end_of_word_suffix": null,
    "fuse_unk": false,
    "byte_fallback": false,
    "vocab": {
      "<|endoftext|>": 0,
      "<|startoftext|>": 1,
      "<|pad|>": 2,
      "!": 3,
      "\"": 4,
      "$": 5,
      "%": 6,
      "&": 7,
      "'": 8,
      "(": 9,
      ")": 10,
      "+": 11,
      ",": 12,
      "-": 13,
      ".": 14,
      "/": 15,
      "0": 16,
      "1": 17,
      "2": 18,
      "3": 19,
      "4": 20,
      "5": 21,
      "6": 22,
      "7": 23,
      "8": 24,
      "9": 25,
      ":": 26,
      ";": 27,
      "?": 28,
      "A": 29,
      "B": 30,
      "C": 31,
      "D": 32,
      "E": 33,
      "F": 34,
      "G": 35,
      "H": 36,
      "I": 37,
      "J": 38,
      "K": 39,
      "L": 40,
      "M": 41,
      "N": 42,
      "O": 43,
      "P": 44,
      "Q": 45,
      "R": 46,
      "S": 47,
      "T": 48,
      "U": 49,
      "V": 50,
      "W": 51,
      "X": 52,
      "Y": 53,
      "Z": 54,
      "a": 55,
      "b": 56,
      "c": 57,
      "d": 58,
      "e": 59,
      "f": 60,
      "g": 61,
      "h": 62,
      "i": 63,
      "j": 64,
      "k": 65,
      "l": 66,
      "m": 67,
      "n": 68,
      "o": 69,
      "p": 70,
      "q": 71,
      "r": 72,
      "s": 73,
      "t": 74,
      "u": 75,
      "v": 76,
      "w": 77,
      "x": 78,
      "y": 79,
      "z": 80,
      "¡": 81,
      "¢": 82,
      "¦": 83,
      "§": 84,
      "¨": 85,
      "©": 86,
      "ª": 87,
      "«": 88,
      "®": 89,
      "¯": 90,
      "´": 91,
      "¶": 92,
      "¹": 93,
      "»": 94,
      "½": 95,
      "Â": 96,
      "Ã": 97,
      "Å": 98,
      "Ð": 99,
      "â": 100,
      "Ġ": 101,
      "Ģ": 102,
      "Ĥ": 103,
      "ĩ": 104,
      "ī": 105,
      "Ĭ": 106,
      "ĭ": 107,
      "ĵ": 108,
      "Ķ": 109,
      "ĺ": 110,
      "Ļ": 111,
      "ł": 112,
      "Ġp": 113,
      "Ġd": 114,
      "ai": 115,
      "ou": 116,
      "es": 117,
      "Ã©": 118,
      "en": 119,
      "Ġl": 120,
      "Ġs": 121,
      "re": 122,
      "on": 123,
      "Ġc": 124,
      "Ġa": 125,
      "qu": 126,
      "er": 127,
      "Ġt": 128,
      "Ġm": 129,
      "Ġv": 130,
      "Ġn": 131,
      "Ġde": 132,
      "ous": 133,
      "Ġpa": 134,
      "Ġqu": 135,
      "oi": 136,
      "an": 137,
      "Je": 138,
      "ent": 139,
      "Ġf": 140,
      "le": 141,
      "om": 142,
      "ĠÃ": 143,
      "Ġpas": 144,
      "ais": 145,
      "est": 146,
      "eu": 147,
      "Ġque": 148,
      "un": 149,
      "is": 150,
      "te": 151,
      "our": 152,
      "ĠÃł": 153,
      "Ġun": 154,
      "Ġj": 155,
      "il": 156,
      "Ġne": 157,
      "Ġla": 158,
      "Ġle": 159,
      "ait": 160,
      "Ġ?": 161,
      "Ġb": 162,
      "Ġr": 163,
      "ez": 164,
      "Ã¨": 165,
      "Ġce": 166,
      "Il": 167,
      "it": 168,
      "in": 169,
      "ar": 170,
      "Tom": 171,
      "Ġsu": 172,
      "or": 173,
      "Ġen": 174,
      "us": 175,
      "Ġest": 176,
      "Ġpr": 177,
      "Ġvous": 178,
      "Ã©t": 179,
      "Ġtr": 180,
      "lle": 181,
      "ment": 182,
      "Ġch": 183,
      "se": 184,
      "tre": 185,
      "au": 186,
      "Ġav": 187,
      "ons": 188,
      "eux": 189,
      "ant": 190,
      "et": 191,
      "Ġpar": 192,
      "tu": 193,
      "end": 194,
      "av": 195,
      "ci": 196,
      "ce": 197,
      "ont": 198,
      "ti": 199,
      "Ġpour": 200,
      "me": 201,
      "ch": 202,
      "Ġau": 203,
      "onn": 204,
      "ri": 205,
      "ll": 206,
      "Ġune": 207,
      "Ġpl": 208,
      "aire": 209,
      "Ãª": 210,
      "Ġme": 211,
      "ouv": 212,
      "Ġg": 213,
      "vous": 214,
      "ĠÃ©t": 215,
      "Ġte": 216,
      "mp": 217,
      "ien": 218,
      "ain": 219,
      "Ġsuis": 220,
      "Ġje": 221,
      "âĢ": 222,
      "Ã©e": 223,
      "de": 224,
      "oir": 225,
      "tes": 226,
      "ans": 227,
      "ui": 228,
      "Ġles": 229,
      "que": 230,
      "Ġtou": 231,
      "Ġtu": 232,
      "Ġh": 233,
      "ĠdÃ©": 234,
      "ois": 235,
      "Ġre": 236,
      "Ġfaire": 237,
      "as": 238,
      "os": 239,
      "Ġse": 240,
      "Ã¨re": 241,
      "Ġcom": 242,
      "ag": 243,
      "Nous": 244,
      "âĢ¯": 245,
      "ie": 246,
      "Âł": 247,
      "Tu": 248,
      "ir": 249,
      "Vous": 250,
      "pp": 251,
      "ue": 252,
      "res": 253,
      "ĠÃª": 254,
      "Ġi": 255,
      "Elle": 256,
      "am": 257,
      "ens": 258,
      "Ġdans": 259,
      "ĠTom": 260,
      "Ġplus": 261,
      "al": 262,
      "Ġnous": 263,
      "Ġdes": 264,
      "ec": 265,
      "Ġ!": 266,
      "Ġmon": 267,
      "at": 268,
      "Ã¨s": 269,
      "§a": 270,
      "Ġpro": 271,
      "Ġdu": 272,
      "Ġfait": 273,
      "and": 274,
      "Ġe": 275,
      "Ġdi": 276,
      "ĠÃ§a": 277,
      "eur": 278,
      "Ġsi": 279,
      "Ġdev": 280,
      "ang": 281,
      "ble": 282,
      "Ġveux": 283,
      "Ã©s": 284,
      "ers": 285,
      "Ġavec": 286,
      "Ġai": 287,
      "Ġvo": 288,
      "oin": 289,
      "Ġqui": 290,
      "la": 291,
      "ĠÃ©": 292,
      "rai": 293,
      "ur": 294,
      "eau": 295,
      "li": 296,
      "Ġquel": 297,
      "onne": 298,
      "ille": 299,
      "ort": 300,
      "Ce": 301,
      "si": 302,
      "Ġas": 303,
      "Ġsur": 304,
      "iv": 305,
      "mes": 306,
      "lÃ©": 307,
      "Ġin": 308,
      "Ãł": 309,
      "mps": 310,
      "ff": 311,
      "Ġtout": 312,
      "ĠrÃ©": 313,
      "pr": 314,
      "endre": 315,
      "Ġet": 316,
      "Le": 317,
      "Ġsont": 318,
      "Ġo": 319,
      "Ġpeu": 320,
      "ac": 321,
      "Ġcon": 322,
      "ier": 323,
      "Ġy": 324,
      "ess": 325,
      "ose": 326,
      "ion": 327,
      "Ġall": 328,
      "ati": 329,
      "rais": 330,
      "Que": 331,
      "oup": 332,
      "Ġdit": 333,
      "ĠtrÃ¨s": 334,
      "ne": 335,
      "Ġcet": 336,
      "uis": 337,
      "Ġmais": 338,
      "ut": 339,
      "Ġmoi": 340,
      "ard": 341,
      "Ġvou": 342,
      "ense": 343,
      "ler": 344,
      "ĠÃªtre": 345,
      "ux": 346,
      "Ġson": 347,
      "Pour": 348,
      "jour": 349,
      "Ġtemps": 350,
      "quoi": 351,
      "Com": 352,
      "Ġar": 353,
      "lles": 354,
      "Ã©r": 355,
      "co": 356,
      "La": 357,
      "Ġdem": 358,
      "Ã»": 359,
      "Ne": 360,
      "Ġvrai": 361,
      "Ġpense": 362,
      "Ġlui": 363,
      "Ġvotre": 364,
      "ĠÃ©tÃ©": 365,
      "Ã´": 366,
      "di": 367,
      "Ġtrav": 368,
      "Ġpeux": 369,
      "Es": 370,
      "ĠÃ©tait": 371,
      "elle": 372,
      "Ġfr": 373,
      "ĠÃªtes": 374,
      "Ġsais": 375,
      "oit": 376,
      "tÃ©": 377,
      "Ġam": 378,
      "Ġgr": 379,
      "Ġjam": 380,
      "Ġchose": 381,
      "ap": 382,
      "Les": 383,
      "riv": 384,
      "Ġcette": 385,
      "Ã§": 386,
      "Ġdis": 387,
      "Ġser": 388,
      "Ġici": 389,
      "age": 390,
      "Ġpens": 391,
      "op": 392,
      "ter": 393,
      "Ã¹": 394,
      "Ġjamais": 395,
      "Mar": 396,
      "mer": 397,
      "Ã®": 398,
      "ot": 399,
      "Ġcr": 400,
      "Ġtravai": 401,
      "che": 402,
      "Ġheu": 403,
      "app": 404,
      "Ġes": 405,
      "Ġma": 406,
      "Ġsa": 407,
      "Ġdire": 408,
      "ig": 409,
      "Ils": 410,
      "Ġcela": 411,
      "Ġil": 412,
      "Ġbien": 413,
      "Ġvraiment": 414,
      "oy": 415,
      "Ġapp": 416,
      "Pourquoi": 417,
      "able": 418,
      "ĠMar": 419,
      "Ġpouv": 420,
      "Ġbeau": 421,
      "orte": 422,
      "Ġsav": 423,
      "Ġtoi": 424,
      "iÃ¨re": 425,
      "Ġjour": 426,
      "ol": 427,
      "bl": 428,
      "Ġent": 429,
      "uit": 430,
      "ommes": 431,
      "aiss": 432,
      "Ġex": 433,
      "itÃ©": 434,
      "moi": 435,
      "Ġan": 436,
      "Ġquelque": 437,
      "Ãªte": 438,
      "Ġseu": 439,
      "ersonne": 440,
      "cu": 441,
      "out": 442,
      "Qu": 443,
      "aut": 444,
      "rer": 445,
      "esoin": 446,
      "Ġton": 447,
      "Ġbesoin": 448,
      "tt": 449,
      "coup": 450,
      "rÃ©": 451,
      "bre": 452,
      "Ġtrouv": 453,
      "iez": 454,
      "ture": 455,
      "Ġbeaucoup": 456,
      "je": 457,
      "Ġmain": 458,
      "Ġvi": 459,
      "Est": 460,
      "Ġavez": 461,
      "Ġavons": 462,
      "Ġvoul": 463,
      "lement": 464,
      "Ġtous": 465,
      "Ġparti": 466,
      "Ġsommes": 467,
      "enir": 468,
      "ĠprÃ©": 469,
      "Ãªtre": 470,
      "Ġjus": 471,
      "une": 472,
      "Ġparler": 473,
      "Ġsem": 474,
      "ors": 475,
      "Ġrest": 476,
      "Ġmar": 477,
      "Ġmang": 478,
      "Ġaller": 479,
      "Comment": 480,
      "Ġvoi": 481,
      "Ġont": 482,
      "Ġfer": 483,
      "ner": 484,
      "ay": 485,
      "Ãªme": 486,
      "Ġmal": 487,
      "gent": 488,
      "Ġpeut": 489,
      "ĩa": 490,
      "ĠlÃł": 491,
      "Ġtrain": 492,
      "ation": 493,
      "Ã©es": 494,
      "em": 495,
      "Ġmaison": 496,
      "Ãĩa": 497,
      "Ġheure": 498,
      "Ġva": 499,
      "der": 500,
      "Ã©tait": 501,
      "enc": 502,
      "Ġpass": 503,
      "jours": 504,
      "ance": 505,
      "Ġtoujours": 506,
      "Ġtrop": 507,
      "aÃ®": 508,
      "Ġrien": 509,
      "ab": 510,
      "Ġper": 511,
      "aime": 512,
      "ve": 513,
      "ivre": 514,
      "Ġdeux": 515,
      "Ġvoir": 516,
      "Ġatt": 517,
      "Ġass": 518,
      "Ġnouv": 519,
      "core": 520,
      "Ġmes": 521,
      "ure": 522,
      "ten": 523,
      "oire": 524,
      "On": 525,
      "Ġencore": 526,
      "Ġbon": 527,
      "ette": 528,
      "ĠMary": 529,
      "rait": 530,
      "Ġmonde": 531,
      "ĠdÃ©j": 532,
      "Ġca": 533,
      "ils": 534,
      "ussi": 535,
      "ine": 536,
      "Ġquoi": 537,
      "Ã¢": 538,
      "Ġcomp": 539,
      "ants": 540,
      "orm": 541,
      "ions": 542,
      "Ġcont": 543,
      "Ġenf": 544,
      "Ã´t": 545,
      "cher": 546,
      "ass": 547,
      "ord": 548,
      "Ġvais": 549,
      "ends": 550,
      "Ġarriv": 551,
      "Ġcomme": 552,
      "les": 553,
      "ert": 554,
      "Ġcomm": 555,
      "Ġta": 556,
      "Ġquelqu": 557,
      "Ġavoir": 558,
      "aine": 559,
      "Ġfais": 560,
      "Quel": 561,
      "Mon": 562,
      "ence": 563,
      "Ġdemand": 564,
      "Ã©tais": 565,
      "Ġdois": 566,
      "merais": 567,
      "Ġvoiture": 568,
      "Ġder": 569,
      "Ġsoit": 570,
      "Ġfaut": 571,
      "air": 572,
      "ge": 573,
      "dre": 574,
      "Ġimp": 575,
      "Ġconn": 576,
      "iens": 577,
      "Ġcour": 578,
      "Elles": 579,
      "lez": 580,
      "esp": 581,
      "ante": 582,
      "riez": 583,
      "Tout": 584,
      "Ġfois": 585,
      "tenant": 586,
      "Ġli": 587,
      "bien": 588,
      "tr": 589,
      "Ġou": 590,
      "argent": 591,
      "erre": 592,
      "hui": 593,
      "Ã©ri": 594,
      "Ġpos": 595,
      "Ġtravail": 596,
      "aient": 597,
      "ĠrÃ©p": 598,
      "bli": 599,
      "aimerais": 600,
      "Ġvu": 601,
      "ĠÃ©c": 602,
      "ad": 603,
      "jourd": 604,
      "otre": 605,
      "Ġvie": 606,
      "ici": 607,
      "Ġac": 608,
      "ande": 609,
      "OÃ¹": 610,
      "Ġdiff": 611,
      "use": 612,
      "Ġavait": 613,
      "Ġeu": 614,
      "tement": 615,
      "Ġaussi": 616,
      "Ã©c": 617,
      "Ã¨me": 618,
      "chet": 619,
      "Ġcompr": 620,
      "Ġnom": 621,
      "Av": 622,
      "Ġpet": 623,
      "Ġfran": 624,
      "Ġmaintenant": 625,
      "Ġsou": 626,
      "all": 627,
      "Ġdonn": 628,
      "endu": 629,
      "Ġses": 630,
      "Ġprobl": 631,
      "pos": 632,
      "Ġjou": 633,
      "Ġreg": 634,
      "ite": 635,
      "ĠsÃ»": 636,
      "ĠoÃ¹": 637,
      "Ã§ais": 638,
      "ra": 639,
      "ents": 640,
      "Si": 641,
      "Ġpi": 642,
      "ĠdÃ©s": 643,
      "Qui": 644,
      "Åĵ": 645,
      "prÃ¨s": 646,
      "ong": 647,
      "Ġceci": 648,
      "um": 649,
      "omme": 650,
      "Ġdern": 651,
      "aÃ®t": 652,
      "ĠfranÃ§ais": 653,
      "ign": 654,
      "Ġret": 655,
      "Ġjuste": 656,
      "Ġpersonne": 657,
      "cup": 658,
      "Ġmi": 659,
      "Ġaujourd": 660,
      "ĠtÃ©": 661,
      "As": 662,
      "Ġchez": 663,
      "Ġaut": 664,
      "essay": 665,
      "ise": 666,
      "ĠmÃªme": 667,
      "ccup": 668,
      "Ġveu": 669,
      "Ġporte": 670,
      "ente": 671,
      "âĢĻ": 672,
      "Ġlaiss": 673,
      "Ġfin": 674,
      "ique": 675,
      "avez": 676,
      "enu": 677,
      "Ġlivre": 678,
      "Ġgrand": 679,
      "Ġpensais": 680,
      "ĠdÃ©jÃł": 681,
      "ĠtÃ©lÃ©": 682,
      "Ġseul": 683,
      "Ġple": 684,
      "Ġman": 685,
      "Ġsouv": 686,
      "Ġpris": 687,
      "Ġbr": 688,
      "arriv": 689,
      "asse": 690,
      "Ġprendre": 691,
      "Ġpart": 692,
      "avais": 693,
      "Ġhier": 694,
      "Avez": 695,
      "ĠpÃ¨re": 696,
      "ore": 697,
      "Ġmieux": 698,
      "par": 699,
      "dÃ©": 700,
      "Ġassez": 701,
      "nÃ©e": 702,
      "Ġsoir": 703,
      "Ġbonne": 704,
      "mÃ©": 705,
      "ĠdÃ©t": 706,
      "nous": 707,
      "ÃĢ": 708,
      "Personne": 709,
      "Ġlong": 710,
      "Ġtrois": 711,
      "gu": 712,
      "Ġbl": 713,
      "cti": 714,
      "Ġachet": 715,
      "cole": 716,
      "are": 717,
      "Ġmat": 718,
      "ÃĬ": 719,
      "ĠproblÃ¨me": 720,
      "Ġsimp": 721,
      "ud": 722,
      "rit": 723,
      "Ġquand": 724,
      "Ġdemain": 725,
      "elles": 726,
      "Ġquest": 727,
      "Ãªt": 728,
      "ÃĬtes": 729,
      "Ġdevrais": 730,
      "Ġmanger": 731,
      "Ġtoutes": 732,
      "Ġsans": 733,
      "Ġfa": 734,
      "ĠdÃ»": 735,
      "Combien": 736,
      "du": 737,
      "ex": 738,
      "Ġavant": 739,
      "Ġpu": 740,
      "Cette": 741,
      "Ġenv": 742,
      "ĠplaÃ®t": 743,
      "Ġcons": 744,
      "rang": 745,
      "ĠdÃ©c": 746,
      "Ġgens": 747,
      "Ġsavoir": 748,
      "Ġrenc": 749,
      "anc": 750,
      "Un": 751,
      "Ġpay": 752,
      "auv": 753,
      "Ãªtes": 754,
      "gn": 755,
      "Ġoccup": 756,
      "Ġsent": 757,
      "Ġcha": 758,
      "inu": 759,
      "Ġco": 760,
      "ĠmÃ©": 761,
      "att": 762,
      "ient": 763,
      "Ġfut": 764,
      "Ġcl": 765,
      "Ġnuit": 766,
      "Ġenfants": 767,
      "Ġregard": 768,
      "dÃ©e": 769,
      "Ġaux": 770,
      "oute": 771,
      "ide": 772,
      "Ġheures": 773,
      "oses": 774,
      "Ġelle": 775,
      "eurs": 776,
      "oyez": 777,
      "Ġces": 778,
      "aux": 779,
      "im": 780,
      "Ġtoute": 781,
      "Ġmom": 782,
      "ĠB": 783,
      "rez": 784,
      "Ma": 785,
      "Ġsupp": 786,
      "ĠaprÃ¨s": 787,
      "itu": 788,
      "Ġchien": 789,
      "autre": 790,
      "Ġsens": 791,
      "arrive": 792,
      "Ġmoment": 793,
      "con": 794,
      "fi": 795,
      "Ġvis": 796,
      "Ġrev": 797,
      "Ġpartir": 798,
      "oc": 799,
      "Ġpetit": 800,
      "Ã©cole": 801,
      "Ġsor": 802,
      "erai": 803,
      "Ġessay": 804,
      "rent": 805,
      "jet": 806,
      "Ġgar": 807,
      "Ġami": 808,
      "leur": 809,
      "Cela": 810,
      "omb": 811,
      "ĠrÃ©pon": 812,
      "Ġtravaill": 813,
      "Ġsimplement": 814,
      "Ġph": 815,
      "avant": 816,
      "Ġauc": 817,
      "Ġnouveau": 818,
      "Ġemp": 819,
      "Ġans": 820,
      "ph": 821,
      "ton": 822,
      "Ġvoulais": 823,
      "En": 824,
      "Ġcomment": 825,
      "Ġappr": 826,
      "Ġnotre": 827,
      "Ġtes": 828,
      "Ġchoses": 829,
      "ĠsÃ»r": 830,
      "puis": 831,
      "rem": 832,
      "Ã©n": 833,
      "Ġpouvez": 834,
      "Åĵur": 835,
      "ĠmÃ¨re": 836,
      "Ġjeu": 837,
      "ĠderniÃ¨re": 838,
      "acc": 839,
      "rÃ©ci": 840,
      "Ġquelques": 841,
      "Ġsorti": 842,
      "ĠpassÃ©": 843,
      "Ġcoup": 844,
      "Puis": 845,
      "Ġpuis": 846,
      "ĠMarie": 847,
      "aisse": 848,
      "Ġrais": 849,
      "ins": 850,
      "Ġpourquoi": 851,
      "Ġfem": 852,
      "ager": 853,
      "Ġcher": 854,
      "Ġveut": 855,
      "temps": 856,
      "ress": 857,
      "De": 858,
      "Ġcond": 859,
      "Ġpo": 860,
      "Ġab": 861,
      "Ġrend": 862,
      "Ġvos": 863,
      "Ġvenir": 864,
      "ill": 865,
      "int": 866,
      "llement": 867,
      "id": 868,
      "Ġbou": 869,
      "oston": 870,
      "iste": 871,
      "chÃ©": 872,
      "Ġjours": 873,
      "Ġheureux": 874,
      "ĠBoston": 875,
      "Ġrapp": 876,
      "enez": 877,
      "Ġad": 878,
      "ul": 879,
      "euse": 880,
      "endant": 881,
      "Ġrester": 882,
      "ĠidÃ©e": 883,
      "aider": 884,
      "Ġmoin": 885,
      "Ġter": 886,
      "ist": 887,
      "ĠdÃ©p": 888,
      "Ġsait": 889,
      "Ġense": 890,
      "Ġri": 891,
      "ob": 892,
      "Ġchang": 893,
      "eure": 894,
      "Ã¨rent": 895,
      "icile": 896,
      "Ġpeur": 897,
      "avoir": 898,
      "ĠtÃ´t": 899,
      "Ġfil": 900,
      "Ġprom": 901,
      "aurais": 902,
      "Ġcroire": 903,
      "espÃ¨re": 904,
      "Ġmauv": 905,
      "Ġmauvais": 906,
      "Ġsemble": 907,
      "Ġtomb": 908,
      "ention": 909,
      "omp": 910,
      "Quand": 911,
      "Ġmatin": 912,
      "Ġvoulez": 913,
      "ĠprÃ©f": 914,
      "ĠÂ": 915,
      "Ġprof": 916,
      "Ġsemaine": 917,
      "rÃª": 918,
      "Ġmeille": 919,
      "Ġdifficile": 920,
      "Ġcham": 921,
      "Ġrendre": 922,
      "tion": 923,
      "Ġrec": 924,
      "lui": 925,
      "uv": 926,
      "ĠprÃ©s": 927,
      "qui": 928,
      "ettre": 929,
      "Ġseule": 930,
      "Ġprem": 931,
      "Ġtrouver": 932,
      "ĠdemandÃ©": 933,
      "Ġlors": 934,
      "ĠrÃ©s": 935,
      "Quelle": 936,
      "ade": 937,
      "Ġfille": 938,
      "Ġparle": 939,
      "phon": 940,
      "Ġrem": 941,
      "Ã§on": 942,
      "Ġaider": 943,
      "Ġentendu": 944,
      "uire": 945,
      "Ġim": 946,
      "Ġvoy": 947,
      "Ġraison": 948,
      "Ġfati": 949,
      "Ġhab": 950,
      "lais": 951,
      "udi": 952,
      "este": 953,
      "Ġautre": 954,
      "roit": 955,
      "Ġconse": 956,
      "lo": 957,
      "Ġchambre": 958,
      "Vou": 959,
      "Ġdepuis": 960,
      "Ġexp": 961,
      "Ġsouvent": 962,
      "Ġfatigu": 963,
      "Ġmot": 964,
      "Ġsavais": 965,
      "Ġnon": 966,
      "ĠpiÃ¨": 967,
      "Ġmari": 968,
      "Ġproch": 969,
      "Ġfort": 970,
      "ĠJ": 971,
      "ĠtÃ©lÃ©phon": 972,
      "ques": 973,
      "quÃ©": 974,
      "el": 975,
      "cid": 976,
      "tÃ©ress": 977,
      "Ġpoin": 978,
      "Ġpendant": 979,
      "Ġamis": 980,
      "Ġdisc": 981,
      "Ġfemme": 982,
      "rions": 983,
      "Ġhomme": 984,
      "Ġcou": 985,
      "Ġcar": 986,
      "min": 987,
      "apon": 988,
      "Ġprie": 989,
      "Ġparents": 990,
      "Ġlongtemps": 991,
      "Ġche": 992,
      "Ġphot": 993,
      "olÃ©": 994,
      "Ġquelle": 995,
      "Ġtard": 996,
      "oid": 997,
      "imp": 998,
      "ret": 999,
      "Ġcrois": 1000,
      "Ġquestion": 1001,
      "pe": 1002,
      "onc": 1003,
      "Ġaff": 1004,
      "Ġjusqu": 1005,
      "ĠvÃ©r": 1006,
      "iss": 1007,
      "Ġdou": 1008,
      "Ġcommenc": 1009,
      "lÃ¨": 1010,
      "Ġport": 1011,
      "ments": 1012,
      "ale": 1013,
      "heure": 1014,
      "ĠarrivÃ©": 1015,
      "Ġmort": 1016,
      "onnes": 1017,
      "Ġgros": 1018,
      "Ġretard": 1019,
      "Ġouv": 1020,
      "Ġdorm": 1021,
      "Ġpe": 1022,
      "esse": 1023,
      "Ġsera": 1024,
      "alement": 1025,
      "Ġment": 1026,
      "Ġrencont": 1027,
      "Ġpasse": 1028,
      "erreur": 1029,
      "Ġnombre": 1030,
      "ĠÃ©tudi": 1031,
      "euner": 1032,
      "Ġsurpr": 1033,
      "Pouv": 1034,
      "Pr": 1035,
      "Ġlit": 1036,
      "ver": 1037,
      "uss": 1038,
      "ĠintÃ©ress": 1039,
      "ĠachetÃ©": 1040,
      "Ġcert": 1041,
      "Ġdur": 1042,
      "Ġfam": 1043,
      "quer": 1044,
      "Ġchat": 1045,
      "uses": 1046,
      "Ġminu": 1047,
      "bles": 1048,
      "ĠfÃªte": 1049,
      "Ġgag": 1050,
      "Ġrent": 1051,
      "ets": 1052,
      "ĠtrouvÃ©": 1053,
      "Ġperdu": 1054,
      "Ġlire": 1055,
      "mble": 1056,
      "Ã¨res": 1057,
      "Ġend": 1058,
      "llez": 1059,
      "Ġvoud": 1060,
      "Ġmoins": 1061,
      "aires": 1062,
      "Ġmont": 1063,
      "ĠsÅĵur": 1064,
      "Ġleur": 1065,
      "Ġpouvons": 1066,
      "Ġjouer": 1067,
      "Ġbless": 1068,
      "ace": 1069,
      "mi": 1070,
      "Ġpers": 1071,
      "Ġdont": 1072,
      "Ġpres": 1073,
      "Ġpoint": 1074,
      "Ġpourrait": 1075,
      "Ġmontre": 1076,
      "Ġdevons": 1077,
      "Ġdemande": 1078,
      "vÃ©": 1079,
      "Au": 1080,
      "ition": 1081,
      "Ġpropos": 1082,
      "ĠpiÃ¨ce": 1083,
      "Ġtravailler": 1084,
      "fÃ©": 1085,
      "erci": 1086,
      "ic": 1087,
      "ond": 1088,
      "ĠvÃ©": 1089,
      "illez": 1090,
      "Ġfor": 1091,
      "ĠÃ©taient": 1092,
      "Ãī": 1093,
      "aim": 1094,
      "ienne": 1095,
      "util": 1096,
      "Une": 1097,
      "vent": 1098,
      "Ġsujet": 1099,
      "Ġchem": 1100,
      "Ġvois": 1101,
      "Ġchant": 1102,
      "Ġcor": 1103,
      "Ġnour": 1104,
      "Ġann": 1105,
      "Ġsortir": 1106,
      "Ġfi": 1107,
      "mb": 1108,
      "Ġsois": 1109,
      "ĠprÃªt": 1110,
      "Ġnouvelle": 1111,
      "Ġdoit": 1112,
      "Ġmus": 1113,
      "ches": 1114,
      "accord": 1115,
      "Ġtable": 1116,
      "Ġville": 1117,
      "Ġconv": 1118,
      "ĠfrÃ¨re": 1119,
      "Ġfaci": 1120,
      "Ġchev": 1121,
      "nÃ©": 1122,
      "ĠtÃ©lÃ©phone": 1123,
      "aie": 1124,
      "illes": 1125,
      "Ġdevriez": 1126,
      "ĠallÃ©": 1127,
      "Ġpasser": 1128,
      "if": 1129,
      "mis": 1130,
      "Ġacc": 1131,
      "ĠvÃ©ritÃ©": 1132,
      "Ġerreur": 1133,
      "Ġref": 1134,
      "Ġal": 1135,
      "ĠcafÃ©": 1136,
      "sion": 1137,
      "Ġins": 1138,
      "avons": 1139,
      "ĠjournÃ©e": 1140,
      "ĠÃ¢": 1141,
      "iser": 1142,
      "cep": 1143,
      "Ġgrande": 1144,
      "ate": 1145,
      "Ġpresque": 1146,
      "Pens": 1147,
      "Ġeff": 1148,
      "Re": 1149,
      "ision": 1150,
      "Ġconnais": 1151,
      "onnÃ©": 1152,
      "avantage": 1153,
      "gÃ©": 1154,
      "Ġliv": 1155,
      "Ġpoli": 1156,
      "Par": 1157,
      "ttre": 1158,
      "Ġlettre": 1159,
      "sible": 1160,
      "Ġaime": 1161,
      "Ġretour": 1162,
      "ĠprÃ©v": 1163,
      "Ġimport": 1164,
      "Ġvenu": 1165,
      "arde": 1166,
      "Ġob": 1167,
      "ro": 1168,
      "Ġmis": 1169,
      "Ġfaites": 1170,
      "Ġprod": 1171,
      "Ġtrouve": 1172,
      "hab": 1173,
      "Ġdavantage": 1174,
      "ĠpensÃ©": 1175,
      "apprÃ©ci": 1176,
      "Ġresp": 1177,
      "Ġconc": 1178,
      "Son": 1179,
      "lÃł": 1180,
      "enn": 1181,
      "isÃ©": 1182,
      "Ġsoyez": 1183,
      "Ġfamille": 1184,
      "Ġjeune": 1185,
      "Pouvez": 1186,
      "aissez": 1187,
      "Ġoubli": 1188,
      "Ġbure": 1189,
      "ĠdÃ©b": 1190,
      "ĠarrÃª": 1191,
      "illÃ©": 1192,
      "Ġbus": 1193,
      "Ġbureau": 1194,
      "Ar": 1195,
      "rass": 1196,
      "Ġcap": 1197,
      "mÃªme": 1198,
      "Ġchau": 1199,
      "Ġparf": 1200,
      "Ġdevoir": 1201,
      "Ġappe": 1202,
      "Ġphoto": 1203,
      "istoire": 1204,
      "ĠC": 1205,
      "ct": 1206,
      "Ġdevez": 1207,
      "ĠdiffÃ©r": 1208,
      "rÃªte": 1209,
      "Ġprop": 1210,
      "Ġpetite": 1211,
      "Ġlivres": 1212,
      "ĠdonnÃ©": 1213,
      "ole": 1214,
      "Ġmeilleur": 1215,
      "Ġentre": 1216,
      "Ġexc": 1217,
      "Ġvoulait": 1218,
      "Peux": 1219,
      "Ġcuis": 1220,
      "aller": 1221,
      "toi": 1222,
      "Ġbi": 1223,
      "ĠA": 1224,
      "Ġvit": 1225,
      "ĠÃ©tiez": 1226,
      "Ġinv": 1227,
      "Ġaucune": 1228,
      "rap": 1229,
      "hÃ©": 1230,
      "Ġcol": 1231,
      "Ġtellement": 1232,
      "cident": 1233,
      "emp": 1234,
      "Ġcombien": 1235,
      "Ġdisp": 1236,
      "Ġchance": 1237,
      "Ġdonner": 1238,
      "Ġtermin": 1239,
      "Ġviv": 1240,
      "rire": 1241,
      "ĠdÃ©ci": 1242,
      "aite": 1243,
      "Ġfu": 1244,
      "Ġaide": 1245,
      "Ġmag": 1246,
      "Ġcontr": 1247,
      "Ġfilm": 1248,
      "Ġlun": 1249,
      "ĠdÃ©solÃ©": 1250,
      "Ġpouvoir": 1251,
      "Ġfeu": 1252,
      "aide": 1253,
      "Ã©g": 1254,
      "reux": 1255,
      "Ġcin": 1256,
      "Ġfini": 1257,
      "Ġ1": 1258,
      "Ġtour": 1259,
      "Ġpartie": 1260,
      "ĠÃ©p": 1261,
      "ĠoccupÃ©": 1262,
      "ĠrÃ©un": 1263,
      "Ġenfant": 1264,
      "conque": 1265,
      "Dis": 1266,
      "Ġsec": 1267,
      "Ġinc": 1268,
      "Peu": 1269,
      "onner": 1270,
      "Ġprob": 1271,
      "ĠdÃ©jeuner": 1272,
      "Veu": 1273,
      "ĠÃ©tais": 1274,
      "Ġprend": 1275,
      "ĠÃ©ch": 1276,
      "ses": 1277,
      "entre": 1278,
      "ĠprÃ©sent": 1279,
      "Veuillez": 1280,
      "Ġconfi": 1281,
      "Ġon": 1282,
      "Ġst": 1283,
      "Ġdemander": 1284,
      "ignore": 1285,
      "cin": 1286,
      "Ġnager": 1287,
      "Ġdix": 1288,
      "Ġexac": 1289,
      "Ġquit": 1290,
      "Ġsous": 1291,
      "Ġven": 1292,
      "ains": 1293,
      "Ġvin": 1294,
      "Ã©tÃ©": 1295,
      "ĠmangÃ©": 1296,
      "riture": 1297,
      "ats": 1298,
      "loi": 1299,
      "Ġviens": 1300,
      "ateur": 1301,
      "Ġconf": 1302,
      "adore": 1303,
      "Merci": 1304,
      "nes": 1305,
      "Ġvas": 1306,
      "omm": 1307,
      "Ġdevrait": 1308,
      "Ã©rÃ©": 1309,
      "Ġaucun": 1310,
      "Ġprobable": 1311,
      "ĠtÃªte": 1312,
      "Ġheureuse": 1313,
      "Ġchaque": 1314,
      "Ġutil": 1315,
      "Ġsouh": 1316,
      "Ġenvie": 1317,
      "ĠrÃ©union": 1318,
      "Ġvivre": 1319,
      "Ġserait": 1320,
      "Ġseulement": 1321,
      "ures": 1322,
      "ontre": 1323,
      "Ġvite": 1324,
      "Ġdir": 1325,
      "Ġmois": 1326,
      "Ġpri": 1327,
      "Ġvieux": 1328,
      "Ġlorsque": 1329,
      "ĠdÃ®": 1330,
      "ĠÃ©trang": 1331,
      "ivers": 1332,
      "Ġmalade": 1333,
      "Ġpersonnes": 1334,
      "Ġdispos": 1335,
      "Ġcomprendre": 1336,
      "ĠmÃ©de": 1337,
      "ĠcolÃ¨re": 1338,
      "Veux": 1339,
      "Ġrou": 1340,
      "Ġparv": 1341,
      "Ġpourrais": 1342,
      "ied": 1343,
      "Ġcomprends": 1344,
      "Ġacheter": 1345,
      "Voulez": 1346,
      "Ġfils": 1347,
      "Ġdevrions": 1348,
      "Ġord": 1349,
      "rir": 1350,
      "Ġferais": 1351,
      "Ġlaisser": 1352,
      "Ġtravaille": 1353,
      "ĠsÃ»re": 1354,
      "Ġensemble": 1355,
      "Ġdiscut": 1356,
      "Ġamus": 1357,
      "Ġgard": 1358,
      "Ġfroid": 1359,
      "Ġnourriture": 1360,
      "Ġfacile": 1361,
      "Sa": 1362,
      "Ġlang": 1363,
      "Ġgen": 1364,
      "Ġserai": 1365,
      "Ġquestions": 1366,
      "Ġvoudrais": 1367,
      "Fais": 1368,
      "Ġsp": 1369,
      "ĠfatiguÃ©": 1370,
      "Ã§u": 1371,
      "ĠgarÃ§on": 1372,
      "Ġreconn": 1373,
      "Ġemb": 1374,
      "ĠdÃ©teste": 1375,
      "ĠJapon": 1376,
      "ger": 1377,
      "Ġconduire": 1378,
      "ArrÃªte": 1379,
      "lot": 1380,
      "Ġdang": 1381,
      "Ġgent": 1382,
      "Ġyeux": 1383,
      "Ġsol": 1384,
      "ĠprÃ¨s": 1385,
      "Ġvue": 1386,
      "ites": 1387,
      "ĠthÃ©": 1388,
      "Ġvol": 1389,
      "Ġrencontre": 1390,
      "ĠcÃ´": 1391,
      "Ġmettre": 1392,
      "Ġplan": 1393,
      "ĠrÃ©ponse": 1394,
      "Ġplais": 1395,
      "ĠmaniÃ¨re": 1396,
      "itude": 1397,
      "arer": 1398,
      "Ġcompte": 1399,
      "Ġfen": 1400,
      "Ġserv": 1401,
      "ĠoubliÃ©": 1402,
      "tte": 1403,
      "ĠJe": 1404,
      "Ã©p": 1405,
      "Ġserais": 1406,
      "Ġain": 1407,
      "Ġmo": 1408,
      "Ġboire": 1409,
      "ĠÃ©crit": 1410,
      "Ġpays": 1411,
      "Ġregarder": 1412,
      "Ġrap": 1413,
      "Ġprud": 1414,
      "ĠlaissÃ©": 1415,
      "Laisse": 1416,
      "Ġsuc": 1417,
      "Ġreste": 1418,
      "ĠgÃ©n": 1419,
      "Ġcontre": 1420,
      "ientÃ´t": 1421,
      "Ġsau": 1422,
      "oix": 1423,
      "ĠrÃª": 1424,
      "Ġtravers": 1425,
      "Quelqu": 1426,
      "ĠcoÃ»": 1427,
      "Ġfon": 1428,
      "Ġamie": 1429,
      "Ġautant": 1430,
      "Ai": 1431,
      "ire": 1432,
      "Ġpremier": 1433,
      "Ġconfiance": 1434,
      "Ġbelle": 1435,
      "Ã¢te": 1436,
      "ĠÂ«": 1437,
      "Ġrapide": 1438,
      "ĠsÃ©ri": 1439,
      "Ġcelui": 1440,
      "Ġgu": 1441,
      "ĠessayÃ©": 1442,
      "Ġdormir": 1443,
      "Ġdo": 1444,
      "ances": 1445,
      "Ġsenti": 1446,
      "Ġprofess": 1447,
      "Ġminutes": 1448,
      "Ġplace": 1449,
      "Ġchemin": 1450,
      "Ġainsi": 1451,
      "ras": 1452,
      "ĠÃ©tud": 1453,
      "aise": 1454,
      "ĠÃ©g": 1455,
      "Ġautres": 1456,
      "attend": 1457,
      "Ġexactement": 1458,
      "erv": 1459,
      "iter": 1460,
      "aines": 1461,
      "ĠT": 1462,
      "ages": 1463,
      "orter": 1464,
      "ĠbientÃ´t": 1465,
      "Ġdernier": 1466,
      "Ġfou": 1467,
      "ĠparlÃ©": 1468,
      "riÃ¨re": 1469,
      "rant": 1470,
      "Ġag": 1471,
      "oyer": 1472,
      "ĠÂ»": 1473,
      "Ġpolice": 1474,
      "Ġsour": 1475,
      "Ġtant": 1476,
      "Ġgare": 1477,
      "Ġsouci": 1478,
      "iner": 1479,
      "Ġinf": 1480,
      "ations": 1481,
      "Ġprix": 1482,
      "rou": 1483,
      "Ġendroit": 1484,
      "Ġsuff": 1485,
      "Ġarriver": 1486,
      "ĠvÃ©lo": 1487,
      "iller": 1488,
      "Ġpossible": 1489,
      "ĠcÃ´tÃ©": 1490,
      "ours": 1491,
      "Ã¨te": 1492,
      "oiss": 1493,
      "Ġvient": 1494,
      "ouver": 1495,
      "Ġjourn": 1496,
      "Ġverre": 1497,
      "anche": 1498,
      "olÃ©e": 1499,
      "urer": 1500,
      "Ġnos": 1501,
      "Ġattendre": 1502,
      "Ġvoyage": 1503,
      "midi": 1504,
      "Ġmusique": 1505,
      "ĠmÃ©decin": 1506,
      "tez": 1507,
      "Ġpouvais": 1508,
      "Ġboulot": 1509,
      "Ġalors": 1510,
      "ĠdÃ®ner": 1511,
      "Ġpied": 1512,
      "atis": 1513,
      "ĠrÃ©f": 1514,
      "Ġsuppose": 1515,
      "Ġprobablement": 1516,
      "Ġloin": 1517,
      "Ġver": 1518,
      "Ġchans": 1519,
      "Ġplut": 1520,
      "amment": 1521,
      "Ġpenser": 1522,
      "Ġfau": 1523,
      "antÃ©": 1524,
      "Ġprochaine": 1525,
      "Mes": 1526,
      "tant": 1527,
      "uy": 1528,
      "exp": 1529,
      "Reg": 1530,
      "apprÃ©cie": 1531,
      "Ġmange": 1532,
      "Ġconnaiss": 1533,
      "Ġgenre": 1534,
      "Ġrep": 1535,
      "Peut": 1536,
      "Ġplait": 1537,
      "Ġlieu": 1538,
      "Ġprofesseur": 1539,
      "ĠÃ¢ge": 1540,
      "iend": 1541,
      "Tous": 1542,
      "rÃ©e": 1543,
      "Ġmour": 1544,
      "lic": 1545,
      "Ġassis": 1546,
      "iers": 1547,
      "agne": 1548,
      "ĠrencontrÃ©": 1549,
      "Ġcheveux": 1550,
      "hÃ´": 1551,
      "Ġattention": 1552,
      "Laissez": 1553,
      "Â»": 1554,
      "ĠnÃ©c": 1555,
      "Ġpuisse": 1556,
      "Ġpenses": 1557,
      "Ġappar": 1558,
      "Ġabs": 1559,
      "hors": 1560,
      "lent": 1561,
      "per": 1562,
      "ĠsÃ©": 1563,
      "ĠpremiÃ¨re": 1564,
      "ĠplutÃ´t": 1565,
      "eler": 1566,
      "Ġra": 1567,
      "Ġconseil": 1568,
      "pit": 1569,
      "ction": 1570,
      "Ġdehors": 1571,
      "anglais": 1572,
      "ĠapprÃ©ci": 1573,
      "ĠfenÃªtre": 1574,
      "aille": 1575,
      "aites": 1576,
      "Ã¨mes": 1577,
      "Ġchanter": 1578,
      "avait": 1579,
      "Ġcontent": 1580,
      "ĠnÃ©cess": 1581,
      "ues": 1582,
      "Ġvers": 1583,
      "paravant": 1584,
      "Ġappris": 1585,
      "Ġsurpris": 1586,
      "glais": 1587,
      "Ã¨g": 1588,
      "ĠdÃ©rang": 1589,
      "mÃ©di": 1590,
      "Ġpayer": 1591,
      "Ġimportant": 1592,
      "Ġproduit": 1593,
      "Ġchaud": 1594,
      "Â«": 1595,
      "Ġsign": 1596,
      "Ġfaim": 1597,
      "Ch": 1598,
      "Votre": 1599,
      "homme": 1600,
      "Ġleurs": 1601,
      "itÃ©s": 1602,
      "Ġchoix": 1603,
      "Ġdess": 1604,
      "ige": 1605,
      "Ġcontinu": 1606,
      "ĠdÃ©cidÃ©": 1607,
      "Ã©b": 1608,
      "Ġargent": 1609,
      "tÃ©ri": 1610,
      "Ġesp": 1611,
      "Ġcri": 1612,
      "Ġauparavant": 1613,
      "resse": 1614,
      "Ġessayer": 1615,
      "Ãªcher": 1616,
      "Ess": 1617,
      "ĠimmÃ©di": 1618,
      "importe": 1619,
      "Ġfoncti": 1620,
      "cÃ©": 1621,
      "dit": 1622,
      "ĠN": 1623,
      "Ġallons": 1624,
      "Ġjoue": 1625,
      "uritÃ©": 1626,
      "Ġpeuvent": 1627,
      "Ġentendre": 1628,
      "ves": 1629,
      "Ġsal": 1630,
      "Ces": 1631,
      "be": 1632,
      "Ġstu": 1633,
      "Ġsac": 1634,
      "App": 1635,
      "Ġlu": 1636,
      "ĠrÃ©ve": 1637,
      "Ġoff": 1638,
      "Ã©ro": 1639,
      "Ġattend": 1640,
      "og": 1641,
      "ume": 1642,
      "Ġdites": 1643,
      "Ġchauss": 1644,
      "Ġrencontrer": 1645,
      "Ã¯": 1646,
      "cle": 1647,
      "Ġsuiv": 1648,
      "Pourriez": 1649,
      "Ġviend": 1650,
      "Ġdiscuter": 1651,
      "Ġstup": 1652,
      "fs": 1653,
      "oÃ®": 1654,
      "Ġba": 1655,
      "ĠproblÃ¨mes": 1656,
      "Ġw": 1657,
      "Ġmarcher": 1658,
      "Ġapprendre": 1659,
      "Ġsecret": 1660,
      "atement": 1661,
      "Ġhistoire": 1662,
      "Ġop": 1663,
      "Ġanglais": 1664,
      "ĠdÃ©solÃ©e": 1665,
      "Ġdevoirs": 1666,
      "ettes": 1667,
      "Ġpouvait": 1668,
      "Ġnouvelles": 1669,
      "Ġprochain": 1670,
      "atisf": 1671,
      "Ġdr": 1672,
      "ĠsÃ©c": 1673,
      "Ġcal": 1674,
      "Ġjournal": 1675,
      "ĠimmÃ©diatement": 1676,
      "Ġpensez": 1677,
      "Ġconvain": 1678,
      "Ġattrap": 1679,
      "user": 1680,
      "ustr": 1681,
      "Ã´le": 1682,
      "Ã§ons": 1683,
      "Ġchanger": 1684,
      "Ġsatisf": 1685,
      "irent": 1686,
      "alie": 1687,
      "Ġcours": 1688,
      "Ġvisite": 1689,
      "Ġvont": 1690,
      "Ġparc": 1691,
      "Pourrais": 1692,
      "ĠrÃ©pondre": 1693,
      "Notre": 1694,
      "Ġty": 1695,
      "Ġperdre": 1696,
      "ĠÅĵ": 1697,
      "usÃ©": 1698,
      "Ġsurv": 1699,
      "ĠcomplÃ¨": 1700,
      "ĠtÃ©lÃ©v": 1701,
      "oÃ»": 1702,
      "ĠÃ©tions": 1703,
      "ĠoccupÃ©e": 1704,
      "Ġsuffis": 1705,
      "Ġmer": 1706,
      "Ġmoy": 1707,
      "uie": 1708,
      "ĠsÃ©curitÃ©": 1709,
      "ĠboÃ®": 1710,
      "ĠrÃ¨g": 1711,
      "ing": 1712,
      "Ġsavez": 1713,
      "Ġenseign": 1714,
      "Ġpeine": 1715,
      "Ġsy": 1716,
      "Ġsitu": 1717,
      "Ġcan": 1718,
      "lÃ©ch": 1719,
      "ĠcommencÃ©": 1720,
      "ĠnÃ©cessaire": 1721,
      "Ġchaussures": 1722,
      "ts": 1723,
      "Ġrob": 1724,
      "iti": 1725,
      "urent": 1726,
      "Ġamou": 1727,
      "Voud": 1728,
      "Ġcass": 1729,
      "Ġsavait": 1730,
      "quipe": 1731,
      "jou": 1732,
      "ls": 1733,
      "env": 1734,
      "Ġlum": 1735,
      "Ġrepr": 1736,
      "amen": 1737,
      "Ġmains": 1738,
      "Ġarrive": 1739,
      "Ġgagner": 1740,
      "Ġrentrer": 1741,
      "Ġparce": 1742,
      "Ġchercher": 1743,
      "Ġmagas": 1744,
      "enf": 1745,
      "Ġcommence": 1746,
      "ĠÃ©crire": 1747,
      "ĠterminÃ©": 1748,
      "occup": 1749,
      "ĠS": 1750,
      "Ġir": 1751,
      "Ġcop": 1752,
      "Ġallez": 1753,
      "Ġtent": 1754,
      "Ġchois": 1755,
      "Ġrevoir": 1756,
      "tÃ©rieur": 1757,
      "Ġwe": 1758,
      "rons": 1759,
      "ĠcÃ©": 1760,
      "ĠbÃ©b": 1761,
      "Ġcade": 1762,
      "Ġcinq": 1763,
      "dio": 1764,
      "Ġclasse": 1765,
      "leurs": 1766,
      "Ġriche": 1767,
      "Ġtomber": 1768,
      "Ġlangue": 1769,
      "ĠÃ©tudier": 1770,
      "ĠcomplÃ¨tement": 1771,
      "ies": 1772,
      "ĠsantÃ©": 1773,
      "Ġfier": 1774,
      "agÃ©": 1775,
      "ĠÃ©v": 1776,
      "Ġnombreux": 1777,
      "Voi": 1778,
      "Ġaurait": 1779,
      "agit": 1780,
      "Ġpropre": 1781,
      "pital": 1782,
      "ement": 1783,
      "rÃªt": 1784,
      "tel": 1785,
      "cier": 1786,
      "part": 1787,
      "Ġor": 1788,
      "Ġnum": 1789,
      "inc": 1790,
      "Ġavais": 1791,
      "Ġobli": 1792,
      "Ġvoulons": 1793,
      "Att": 1794,
      "Sais": 1795,
      "bas": 1796,
      "Ã§a": 1797,
      "Ġsoi": 1798,
      "Ġbout": 1799,
      "chez": 1800,
      "Ġplu": 1801,
      "quel": 1802,
      "quelle": 1803,
      "Ġferai": 1804,
      "ĠdÃ©cision": 1805,
      "Ġcertaine": 1806,
      "ĠblessÃ©": 1807,
      "Ġordin": 1808,
      "Ġchanson": 1809,
      "Ġsoin": 1810,
      "Ġchar": 1811,
      "Ġils": 1812,
      "Ġbruit": 1813,
      "Ġlundi": 1814,
      "enue": 1815,
      "Ġcas": 1816,
      "tell": 1817,
      "Ġchap": 1818,
      "oyÃ©": 1819,
      "Ġpleuv": 1820,
      "Penses": 1821,
      "Ã¢teau": 1822,
      "Ġlaisse": 1823,
      "ars": 1824,
      "Ġenn": 1825,
      "Ġfrapp": 1826,
      "Dites": 1827,
      "ature": 1828,
      "Ġsorte": 1829,
      "Ġvac": 1830,
      "Ġfall": 1831,
      "itue": 1832,
      "Ġdevenir": 1833,
      "ĠderriÃ¨re": 1834,
      "Ġemploi": 1835,
      "ĠcÅĵur": 1836,
      "Ġtenn": 1837,
      "Ġpap": 1838,
      "oise": 1839,
      "Ġfo": 1840,
      "antes": 1841,
      "Ġaccep": 1842,
      "Ġcommencer": 1843,
      "ĠappelÃ©": 1844,
      "Ġrapidement": 1845,
      "Ġdoll": 1846,
      "oisson": 1847,
      "ĠboÃ®te": 1848,
      "Ġtennis": 1849,
      "Faites": 1850,
      "ĠbiÃ¨re": 1851,
      "ĠÃ©le": 1852,
      "Ġrestau": 1853,
      "habitude": 1854,
      "ible": 1855,
      "Ġfit": 1856,
      "Ġjapon": 1857,
      "Ġban": 1858,
      "Ġresse": 1859,
      "ĠreÃ§u": 1860,
      "Ġcause": 1861,
      "Ġautor": 1862,
      "Ġfumer": 1863,
      "ĠtÃ©lÃ©vision": 1864,
      "ĠnumÃ©ro": 1865,
      "tellig": 1866,
      "annÃ©e": 1867,
      "ĠfaÃ§on": 1868,
      "Ġtemp": 1869,
      "Pensez": 1870,
      "ustralie": 1871,
      "Ġvacances": 1872,
      "Ġtrente": 1873,
      "ĠaimÃ©": 1874,
      "ĠbÃ©bÃ©": 1875,
      "Savez": 1876,
      "Ġmil": 1877,
      "Ġrac": 1878,
      "Ġdist": 1879,
      "Ġutiliser": 1880,
      "ok": 1881,
      "Ġdroit": 1882,
      "Ġbat": 1883,
      "Ġaim": 1884,
      "Ġvouloir": 1885,
      "Ġplein": 1886,
      "intention": 1887,
      "Ġrespons": 1888,
      "Ġchapeau": 1889,
      "bres": 1890,
      "rÃ©s": 1891,
      "Ġcelle": 1892,
      "tient": 1893,
      "Ġrappelle": 1894,
      "Ġmauvaise": 1895,
      "ĠarrÃªtÃ©": 1896,
      "ĠrÃ©flÃ©ch": 1897,
      "ĠclÃ©": 1898,
      "indre": 1899,
      "cha": 1900,
      "Ġdim": 1901,
      "cul": 1902,
      "Ġdispose": 1903,
      "Ġservi": 1904,
      "Ġmagasin": 1905,
      "atre": 1906,
      "Ġpan": 1907,
      "Ġbois": 1908,
      "onnaire": 1909,
      "Ġprojet": 1910,
      "Ġsouviens": 1911,
      "ables": 1912,
      "Ġlait": 1913,
      "Ġintellig": 1914,
      "lus": 1915,
      "teur": 1916,
      "Ġtort": 1917,
      "Ġfour": 1918,
      "Ġroute": 1919,
      "Ġposer": 1920,
      "cheter": 1921,
      "Ġmontrer": 1922,
      "ces": 1923,
      "Ġso": 1924,
      "Ġperd": 1925,
      "Ġgarder": 1926,
      "Ġsituation": 1927,
      "Ġfont": 1928,
      "Ġneige": 1929,
      "Ġsembl": 1930,
      "aÃ®tre": 1931,
      "rÃªter": 1932,
      "ĠarrÃªter": 1933,
      "Ġstupide": 1934,
      "Ġdollars": 1935,
      "ttes": 1936,
      "Ġrue": 1937,
      "Ġress": 1938,
      "Ġprends": 1939,
      "Ġelles": 1940,
      "ĠrÃ©al": 1941,
      "Ã¢mes": 1942,
      "Ton": 1943,
      "ze": 1944,
      "Ġris": 1945,
      "Ġdevant": 1946,
      "Ġsuppos": 1947,
      "Ġait": 1948,
      "Ġnu": 1949,
      "ises": 1950,
      "arrÃªter": 1951,
      "Ġinter": 1952,
      "Comme": 1953,
      "Ġrapport": 1954,
      "Cet": 1955,
      "Donne": 1956,
      "run": 1957,
      "ĠvÃªte": 1958,
      "Ġfasse": 1959,
      "ĠprÃªte": 1960,
      "ect": 1961,
      "igne": 1962,
      "Ġpubli": 1963,
      "Ġconsci": 1964,
      "iversaire": 1965,
      "Ġrobe": 1966,
      "ball": 1967,
      "ĠprÃª": 1968,
      "uite": 1969,
      "ressi": 1970,
      "accident": 1971,
      "Ġfaisait": 1972,
      "ĠÃ©cou": 1973,
      "Des": 1974,
      "Ġdonc": 1975,
      "Ġsauv": 1976,
      "oupe": 1977,
      "ĠprÃ©fÃ¨re": 1978,
      "Ġcadeau": 1979,
      "00": 1980,
      "Ġveulent": 1981,
      "Ġfinir": 1982,
      "Auc": 1983,
      "oleil": 1984,
      "Ġrestaurant": 1985,
      "hÃ¨": 1986,
      "Ġtromp": 1987,
      "Ġlibre": 1988,
      "Ã«": 1989,
      "Ġrom": 1990,
      "appr": 1991,
      "Ġpermis": 1992,
      "Ġrouge": 1993,
      "ĠvÃªtements": 1994,
      "ek": 1995,
      "onnez": 1996,
      "ettez": 1997,
      "Ġvieille": 1998,
      "Ġweek": 1999,
      "Ġmor": 2000,
      "Ġfus": 2001,
      "Ġriv": 2002,
      "ari": 2003,
      "ensÃ©": 2004,
      "Ġnombreuses": 2005,
      "Ġplaisir": 2006,
      "Ġguerre": 2007,
      "acheter": 2008,
      "cas": 2009,
      "ĠM": 2010,
      "Ġsomme": 2011,
      "Ġval": 2012,
      "Ġni": 2013,
      "Ġno": 2014,
      "Ġrat": 2015,
      "ormais": 2016,
      "Ġnoir": 2017,
      "ecti": 2018,
      "Ġposte": 2019,
      "Ġbras": 2020,
      "ĠdÃ©couv": 2021,
      "Ġlorsqu": 2022,
      "Ġcapable": 2023,
      "ma": 2024,
      "oÃ«": 2025,
      "zar": 2026,
      "Ġpous": 2027,
      "oudre": 2028,
      "Ġlaquelle": 2029,
      "Ġsug": 2030,
      "Ã©trang": 2031,
      "ĠdÃ©f": 2032,
      "Ġvoulu": 2033,
      "ĠmarchÃ©": 2034,
      "Ġpleurer": 2035,
      "Ġaffaires": 2036,
      "Ġcuisine": 2037,
      "Ġju": 2038,
      "Ġaffaire": 2039,
      "Ġcertain": 2040,
      "Ġ2": 2041,
      "Ġsort": 2042,
      "Ġnett": 2043,
      "Ġaccident": 2044,
      "Ġimag": 2045,
      "gne": 2046,
      "tats": 2047,
      "Ġsoleil": 2048,
      "Ã¨ne": 2049,
      "Ġplain": 2050,
      "ĠgÃ¢teau": 2051,
      "Ġentrer": 2052,
      "Ġmeilleure": 2053,
      "ĠÃ©tudiants": 2054,
      "Ġminute": 2055,
      "Ġdange": 2056,
      "oÃ«l": 2057,
      "ĠF": 2058,
      "Ġjard": 2059,
      "lation": 2060,
      "raient": 2061,
      "liquer": 2062,
      "tron": 2063,
      "rasser": 2064,
      "Ġtype": 2065,
      "ĠlumiÃ¨re": 2066,
      "Ã©rer": 2067,
      "Ġquatre": 2068,
      "Ġprin": 2069,
      "Ġhaut": 2070,
      "blie": 2071,
      "ident": 2072,
      "Ġfilles": 2073,
      "Ġsouhaite": 2074,
      "Ġdoi": 2075,
      "Ġliste": 2076,
      "Ġay": 2077,
      "era": 2078,
      "Ġinqui": 2079,
      "othÃ¨": 2080,
      "Ġmots": 2081,
      "Ġcarte": 2082,
      "Ġmenti": 2083,
      "Ġmourir": 2084,
      "ĠvÃ©ri": 2085,
      "Ġjet": 2086,
      "ĠbÃ¢": 2087,
      "Ġdicti": 2088,
      "Ġremar": 2089,
      "ĠintÃ©ressant": 2090,
      "Ġsuffisamment": 2091,
      "ieu": 2092,
      "ieurs": 2093,
      "mar": 2094,
      "uc": 2095,
      "Ġmante": 2096,
      "Ġrendu": 2097,
      "Ġsix": 2098,
      "dic": 2099,
      "ayez": 2100,
      "emb": 2101,
      "Ġsouff": 2102,
      "oids": 2103,
      "Ġreconnaiss": 2104,
      "All": 2105,
      "Soyez": 2106,
      "dess": 2107,
      "Ã©v": 2108,
      "Ġterre": 2109,
      "Ã¨ve": 2110,
      "Ġpluie": 2111,
      "Ġquiconque": 2112,
      "cÃ¨s": 2113,
      "mÃ©e": 2114,
      "Ġplage": 2115,
      "Ġsecon": 2116,
      "Ġpian": 2117,
      "ĠdÃ©sormais": 2118,
      "Ġrire": 2119,
      "Ġporter": 2120,
      "Ġordinateur": 2121,
      "Ġjardin": 2122,
      "Lors": 2123,
      "Ġeux": 2124,
      "oubli": 2125,
      "onte": 2126,
      "Ġsuper": 2127,
      "ĠrÃ©ussi": 2128,
      "ĠrÃ©soudre": 2129,
      "iel": 2130,
      "Ġanim": 2131,
      "Ġdemanda": 2132,
      "uvre": 2133,
      "Ġprudent": 2134,
      "Ġdictionnaire": 2135,
      "Ġmanteau": 2136,
      "Rien": 2137,
      "Ġcent": 2138,
      "Ġvaut": 2139,
      "Ġbu": 2140,
      "Ġperm": 2141,
      "Ġamies": 2142,
      "ĠchangÃ©": 2143,
      "Ġdimanche": 2144,
      "erais": 2145,
      "Ġtasse": 2146,
      "entendre": 2147,
      "tures": 2148,
      "cieux": 2149,
      "ague": 2150,
      "ĠannÃ©e": 2151,
      "ĠprÃ©par": 2152,
      "ĠconnaÃ®t": 2153,
      "Prends": 2154,
      "ĠannÃ©es": 2155,
      "Ġfurent": 2156,
      "Ġtelle": 2157,
      "Ġhum": 2158,
      "olu": 2159,
      "Ġeffr": 2160,
      "ĠdiffÃ©rent": 2161,
      "Ġsouhait": 2162,
      "Ġcam": 2163,
      "inÃ©": 2164,
      "Ġavoc": 2165,
      "Ġreti": 2166,
      "col": 2167,
      "oyons": 2168,
      "Ġmoindre": 2169,
      "Tr": 2170,
      "aque": 2171,
      "outes": 2172,
      "Ġsil": 2173,
      "Ġfleurs": 2174,
      "Ġchiens": 2175,
      "siez": 2176,
      "ĠrÃ©uss": 2177,
      "Ġcommen": 2178,
      "ĠrÃ©parer": 2179,
      "Ġpromen": 2180,
      "nent": 2181,
      "enne": 2182,
      "Ġrav": 2183,
      "onnÃªte": 2184,
      "agn": 2185,
      "irÃ©": 2186,
      "Ġign": 2187,
      "Ġdevenu": 2188,
      "Ġemprun": 2189,
      "ĠgÃ©nÃ©r": 2190,
      "ĠrÃªve": 2191,
      "Ġlis": 2192,
      "Ġceux": 2193,
      "Ġbate": 2194,
      "ortÃ©": 2195,
      "uits": 2196,
      "Ġimpati": 2197,
      "attends": 2198,
      "Ġaband": 2199,
      "Ġexcuses": 2200,
      "hÃ´pital": 2201,
      "ĠriviÃ¨re": 2202,
      "Ġtruc": 2203,
      "Ġhor": 2204,
      "Ġremer": 2205,
      "Ġtax": 2206,
      "Ġcompris": 2207,
      "Ġsurprise": 2208,
      "gt": 2209,
      "iÃ¨res": 2210,
      "Ġcoin": 2211,
      "Ġbar": 2212,
      "Ġmesure": 2213,
      "illÃ©e": 2214,
      "Ġbibli": 2215,
      "Ġsugg": 2216,
      "30": 2217,
      "Allez": 2218,
      "gÃ©e": 2219,
      "Ġcho": 2220,
      "ardez": 2221,
      "Cert": 2222,
      "od": 2223,
      "Ġpol": 2224,
      "Ġlac": 2225,
      "Ġparap": 2226,
      "Ġhommes": 2227,
      "Ġremp": 2228,
      "Ġferiez": 2229,
      "Ġregarde": 2230,
      "Ġbizar": 2231,
      "Ġquitter": 2232,
      "ĠsuccÃ¨s": 2233,
      "Ġinform": 2234,
      "Ġtrad": 2235,
      "endez": 2236,
      "tile": 2237,
      "Ġrepos": 2238,
      "attendre": 2239,
      "ĠbÃ¢ti": 2240,
      "ĠbibliothÃ¨": 2241,
      "DÃ©s": 2242,
      "Ġfac": 2243,
      "liquÃ©": 2244,
      "ĠrÃ©jou": 2245,
      "Ġhabitu": 2246,
      "Ġouvert": 2247,
      "Dans": 2248,
      "Ses": 2249,
      "gr": 2250,
      "Ġpoids": 2251,
      "Ġsuite": 2252,
      "Ġrecher": 2253,
      "ression": 2254,
      "Ġint": 2255,
      "Ġenvir": 2256,
      "ĠpayÃ©": 2257,
      "Ġdormi": 2258,
      "Ãīc": 2259,
      "ĠNoÃ«l": 2260,
      "Ġpiano": 2261,
      "Ġparaplui": 2262,
      "ĠL": 2263,
      "Ġmit": 2264,
      "Ã©tud": 2265,
      "areil": 2266,
      "Donnez": 2267,
      "histoire": 2268,
      "vre": 2269,
      "Ġpoisson": 2270,
      "ĠvolÃ©": 2271,
      "Ġcourt": 2272,
      "eusement": 2273,
      "Ġsty": 2274,
      "dessus": 2275,
      "Ġbateau": 2276,
      "ĠbibliothÃ¨que": 2277,
      "mÃ©ri": 2278,
      "ris": 2279,
      "ĠnÃ©": 2280,
      "tique": 2281,
      "liez": 2282,
      "ĠrÃ©g": 2283,
      "Ġgrosse": 2284,
      "Prenez": 2285,
      "Ġcorre": 2286,
      "ĠinvitÃ©": 2287,
      "ĠrÃ¨gles": 2288,
      "Ġamoureux": 2289,
      "Ġess": 2290,
      "Ġmen": 2291,
      "Ġmens": 2292,
      "Ġnerv": 2293,
      "rible": 2294,
      "Ġsel": 2295,
      "Ġgentil": 2296,
      "Ġplupart": 2297,
      "Ġpleuvoir": 2298,
      "Ġdangereux": 2299,
      "Ġbas": 2300,
      "prise": 2301,
      "Ġmanque": 2302,
      "Voici": 2303,
      "Ġracont": 2304,
      "Ã©tranger": 2305,
      "cÃ©e": 2306,
      "Ġmess": 2307,
      "ann": 2308,
      "ĠhÃ´": 2309,
      "ĠÃ©quipe": 2310,
      "Ġfaisons": 2311,
      "Ġprison": 2312,
      "Ġendorm": 2313,
      "Ġvenue": 2314,
      "Dem": 2315,
      "aff": 2316,
      "mment": 2317,
      "Ġpor": 2318,
      "Ġtim": 2319,
      "Ġmin": 2320,
      "isc": 2321,
      "Ġdesc": 2322,
      "ĠÃ©cole": 2323,
      "prit": 2324,
      "ĠallÃ©e": 2325,
      "appelle": 2326,
      "autres": 2327,
      "Ġautour": 2328,
      "dÃ©j": 2329,
      "ĠmÃ©dic": 2330,
      "Ġfemmes": 2331,
      "Regarde": 2332,
      "Ġparapluie": 2333,
      "reuse": 2334,
      "ĠÃī": 2335,
      "Ã¨de": 2336,
      "ĠgoÃ»": 2337,
      "ĠrestÃ©": 2338,
      "Ġfinalement": 2339,
      "ĠregardÃ©": 2340,
      "Ġrepas": 2341,
      "Ġjaponais": 2342,
      "AprÃ¨s": 2343,
      "Ġdonne": 2344,
      "aill": 2345,
      "irai": 2346,
      "Ġdanser": 2347,
      "Ġlunettes": 2348,
      "Ġfaute": 2349,
      "Ġserez": 2350,
      "alent": 2351,
      "ortez": 2352,
      "ĠÃ©trange": 2353,
      "Ġbizarre": 2354,
      "Ta": 2355,
      "tit": 2356,
      "Ã©ci": 2357,
      "Ã©ch": 2358,
      "Ġfav": 2359,
      "Ġlar": 2360,
      "Ġdiv": 2361,
      "ĠcrÃ©": 2362,
      "Ġregret": 2363,
      "ignor": 2364,
      "Ġrendez": 2365,
      "ĠfatiguÃ©e": 2366,
      "Ġsatisfait": 2367,
      "Ġsommeil": 2368,
      "ifi": 2369,
      "raÃ®": 2370,
      "ĠD": 2371,
      "Ġonc": 2372,
      "Ġpommes": 2373,
      "Ġvendre": 2374,
      "Ġtrait": 2375,
      "Ġhors": 2376,
      "Ġsalle": 2377,
      "Ã©rience": 2378,
      "Ġpire": 2379,
      "ĠsÃ©rieux": 2380,
      "Et": 2381,
      "lu": 2382,
      "tuelle": 2383,
      "tions": 2384,
      "Ġguit": 2385,
      "ĠdÃ©g": 2386,
      "liqu": 2387,
      "diot": 2388,
      "essayer": 2389,
      "Ġface": 2390,
      "Ġdanger": 2391,
      "Ġradio": 2392,
      "Ġfonctionne": 2393,
      "Ġoncle": 2394,
      "Beau": 2395,
      "Plus": 2396,
      "ront": 2397,
      "auche": 2398,
      "Ġparl": 2399,
      "cip": 2400,
      "Ġplusieurs": 2401,
      "act": 2402,
      "Ġfera": 2403,
      "Ġimpressi": 2404,
      "conv": 2405,
      "Ġcoucher": 2406,
      "Ġproposition": 2407,
      "Ġsymp": 2408,
      "Ġeffray": 2409,
      "az": 2410,
      "oche": 2411,
      "Ġpop": 2412,
      "Ġat": 2413,
      "ilitÃ©": 2414,
      "oindre": 2415,
      "Ġmarche": 2416,
      "Ġfermer": 2417,
      "Ġposs": 2418,
      "Ġdirait": 2419,
      "ArrÃªtez": 2420,
      "Beaucoup": 2421,
      "utile": 2422,
      "enait": 2423,
      "Ġtenir": 2424,
      "Ġsus": 2425,
      "Ġentend": 2426,
      "Ġsentir": 2427,
      "Ġrappeler": 2428,
      "ĠtombÃ©": 2429,
      "Ġconcert": 2430,
      "Ġparfois": 2431,
      "ĠÃ©pous": 2432,
      "Ġsoci": 2433,
      "Ġpouss": 2434,
      "Lorsque": 2435,
      "Toutes": 2436,
      "Ġtran": 2437,
      "sions": 2438,
      "Ġempl": 2439,
      "ĠrÃ©sul": 2440,
      "ĠAustralie": 2441,
      "titut": 2442,
      "convÃ©n": 2443,
      "Rest": 2444,
      "men": 2445,
      "inion": 2446,
      "avion": 2447,
      "rice": 2448,
      "Ġappareil": 2449,
      "Ġphotos": 2450,
      "ĠdÃ©but": 2451,
      "ĠcoÃ»te": 2452,
      "Ġsignif": 2453,
      "Ġdessus": 2454,
      "Ġconvainc": 2455,
      "Ġpatron": 2456,
      "Ġprit": 2457,
      "ĠaidÃ©": 2458,
      "Ġextr": 2459,
      "veille": 2460,
      "Ġattendu": 2461,
      "Ġtableau": 2462,
      "ĠprÃªter": 2463,
      "ĠrÃ©ussir": 2464,
      "ĠrÃ©jouis": 2465,
      "convÃ©nient": 2466,
      "yo": 2467,
      "oublie": 2468,
      "Ġcli": 2469,
      "Ġatte": 2470,
      "Ġaimer": 2471,
      "Mary": 2472,
      "Ġconstr": 2473,
      "ĠprÃ©fÃ©r": 2474,
      "ĠcassÃ©": 2475,
      "okyo": 2476,
      "casion": 2477,
      "dÃ©jeuner": 2478,
      "cer": 2479,
      "Ġoise": 2480,
      "Ġcu": 2481,
      "Ġmign": 2482,
      "Ġneu": 2483,
      "Ġfas": 2484,
      "Ġlever": 2485,
      "Ġaurais": 2486,
      "Ġimpos": 2487,
      "Ġcourir": 2488,
      "Ġsimple": 2489,
      "instant": 2490,
      "Ġchange": 2491,
      "Ġrecomm": 2492,
      "Ġmariage": 2493,
      "ĠgagnÃ©": 2494,
      "oÃ¹": 2495,
      "Ġdoute": 2496,
      "Ġrare": 2497,
      "Ceci": 2498,
      "iver": 2499,
      "Ġcourant": 2500,
      "Ġdonna": 2501,
      "exc": 2502,
      "Ġdurant": 2503,
      "Ġanniversaire": 2504,
      "Ġcheval": 2505,
      "ĠprÃ©senter": 2506,
      "Ġparviens": 2507,
      "attendais": 2508,
      "Ġressemble": 2509,
      "Ġseconde": 2510,
      "Ġtaxi": 2511,
      "iques": 2512,
      "uve": 2513,
      "quis": 2514,
      "Ġmet": 2515,
      "Ġmien": 2516,
      "Ġform": 2517,
      "Ġrh": 2518,
      "Ġtriste": 2519,
      "Quelque": 2520,
      "Ġcoll": 2521,
      "imag": 2522,
      "Ġconseils": 2523,
      "Ġpublic": 2524,
      "aprÃ¨s": 2525,
      "des": 2526,
      "itique": 2527,
      "ines": 2528,
      "Ġparlez": 2529,
      "cev": 2530,
      "Ġgla": 2531,
      "alitÃ©": 2532,
      "ĠallÃ©s": 2533,
      "atique": 2534,
      "ĠgarÃ§ons": 2535,
      "Ġvoyager": 2536,
      "Ġappeler": 2537,
      "Ġavocat": 2538,
      "Ġmessage": 2539,
      "Sois": 2540,
      "ail": 2541,
      "Ġbons": 2542,
      "Ġbonnes": 2543,
      "nement": 2544,
      "Ġseras": 2545,
      "Ã©crire": 2546,
      "Ġchats": 2547,
      "Ġchemise": 2548,
      "Ġbase": 2549,
      "Ġroman": 2550,
      "Allons": 2551,
      "pt": 2552,
      "Ġdos": 2553,
      "entends": 2554,
      "ĠhonnÃªte": 2555,
      "Ġidiot": 2556,
      "Ġseriez": 2557,
      "appeler": 2558,
      "ĠdiffÃ©rence": 2559,
      "Ġpapier": 2560,
      "ĠbÃ¢timent": 2561,
      "st": 2562,
      "Ġmur": 2563,
      "inf": 2564,
      "Ġpress": 2565,
      "Ġtuer": 2566,
      "Ġproche": 2567,
      "urg": 2568,
      "Ġsavons": 2569,
      "ĠprÃ©c": 2570,
      "Ġcamp": 2571,
      "ĠconnaÃ®tre": 2572,
      "Ġcomprend": 2573,
      "ĠÃ©galement": 2574,
      "Ġfoot": 2575,
      "bat": 2576,
      "Ġble": 2577,
      "intÃ©rieur": 2578,
      "ales": 2579,
      "Ġparticu": 2580,
      "ĠprÃ©p": 2581,
      "Ġvoix": 2582,
      "Ġattent": 2583,
      "Montre": 2584,
      "ĠTokyo": 2585,
      "Ġpieds": 2586,
      "Voudriez": 2587,
      "Ġsignifie": 2588,
      "ctement": 2589,
      "tres": 2590,
      "ĠmÃ©t": 2591,
      "Ġchanc": 2592,
      "Ġaimes": 2593,
      "olie": 2594,
      "Ġconsid": 2595,
      "ancer": 2596,
      "ĠclÃ©s": 2597,
      "Ġparfait": 2598,
      "Ġbanque": 2599,
      "Ġintelligent": 2600,
      "Ġtranqu": 2601,
      "Ġparticuli": 2602,
      "Me": 2603,
      "ach": 2604,
      "gment": 2605,
      "Ġcess": 2606,
      "ĠrÃ©e": 2607,
      "art": 2608,
      "Ġsuivre": 2609,
      "Ġaviez": 2610,
      "amour": 2611,
      "tenu": 2612,
      "Ġsupporter": 2613,
      "ĠprÃ©fÃ©rÃ©": 2614,
      "Ġcouleur": 2615,
      "ĠspÃ©ci": 2616,
      "ĠtempÃªte": 2617,
      "fin": 2618,
      "onom": 2619,
      "euses": 2620,
      "Ġpriv": 2621,
      "Ã©ter": 2622,
      "Ġtrans": 2623,
      "andÃ©": 2624,
      "Ġallait": 2625,
      "Ġmach": 2626,
      "Ġcherche": 2627,
      "Ġdouleur": 2628,
      "ignorais": 2629,
      "dans": 2630,
      "Ġmou": 2631,
      "Ġfl": 2632,
      "inqui": 2633,
      "ange": 2634,
      "ĠdÃ©test": 2635,
      "Ġjeunes": 2636,
      "Aucun": 2637,
      "Ġguitare": 2638,
      "gle": 2639,
      "ĠP": 2640,
      "Ġpou": 2641,
      "ouÃ©": 2642,
      "esc": 2643,
      "Ġtaille": 2644,
      "ĠnÃ©g": 2645,
      "Ġtri": 2646,
      "iennent": 2647,
      "Ġviande": 2648,
      "ĠprÃ©fÃ©": 2649,
      "Ġsucre": 2650,
      "Ġcontinuer": 2651,
      "ĠrÃ©flÃ©chir": 2652,
      "Ġayez": 2653,
      "Ġanimaux": 2654,
      "Ġimpossible": 2655,
      "Ġrhume": 2656,
      "irer": 2657,
      "ĠIl": 2658,
      "Ġpai": 2659,
      "Ġdoc": 2660,
      "ĠlÃ©g": 2661,
      "Ġbille": 2662,
      "ĠtravaillÃ©": 2663,
      "ĠÃ©tudiant": 2664,
      "Ġamusant": 2665,
      "Ġvolont": 2666,
      "ĠdrÃ´le": 2667,
      "Ġmoyen": 2668,
      "ĠmÃ©dica": 2669,
      "gan": 2670,
      "oite": 2671,
      "Ġchaise": 2672,
      "Ġaies": 2673,
      "apÃ©": 2674,
      "appe": 2675,
      "Ġsemaines": 2676,
      "Ġmarier": 2677,
      "ences": 2678,
      "Dev": 2679,
      "Ġpromis": 2680,
      "Ġretourner": 2681,
      "Ġennuy": 2682,
      "Ġmilli": 2683,
      "mÃ©rique": 2684,
      "fier": 2685,
      "Ġk": 2686,
      "Ġz": 2687,
      "Ã©li": 2688,
      "Ġnature": 2689,
      "arti": 2690,
      "Ġchou": 2691,
      "ĠtuÃ©": 2692,
      "Ġindi": 2693,
      "Ġcompter": 2694,
      "asses": 2695,
      "Quiconque": 2696,
      "Ġdiscours": 2697,
      "Ġfacilement": 2698,
      "Ġerreurs": 2699,
      "Venez": 2700,
      "Ġvend": 2701,
      "isÃ©e": 2702,
      "tiÃ©": 2703,
      "Ã¨rement": 2704,
      "ĠÃ©te": 2705,
      "Quels": 2706,
      "Ġactuelle": 2707,
      "Ġlaissez": 2708,
      "examen": 2709,
      "ĠconseillÃ©": 2710,
      "iversitÃ©": 2711,
      "Ġopinion": 2712,
      "Reste": 2713,
      "tenir": 2714,
      "ĠdÃ¨s": 2715,
      "Ġlequel": 2716,
      "Ġpard": 2717,
      "ĠdÃ©mis": 2718,
      "ĠmoitiÃ©": 2719,
      "oyable": 2720,
      "Ġmalad": 2721,
      "Ġpleur": 2722,
      "ĠsoirÃ©e": 2723,
      "Ġaccomp": 2724,
      "Ġembrass": 2725,
      "Regardez": 2726,
      "Fer": 2727,
      "Ġsci": 2728,
      "onge": 2729,
      "Ġpauvre": 2730,
      "rier": 2731,
      "aintenant": 2732,
      "Ã©rop": 2733,
      "ĠpassÃ©e": 2734,
      "Ġcontente": 2735,
      "ĠÃ©cl": 2736,
      "Ġcherch": 2737,
      "Ġhabitue": 2738,
      "ĠmariÃ©": 2739,
      "retenir": 2740,
      "Ãīt": 2741,
      "Ġpropres": 2742,
      "Ġstylo": 2743,
      "Restez": 2744,
      "ah": 2745,
      "ution": 2746,
      "Ġdents": 2747,
      "esprit": 2748,
      "Ġcir": 2749,
      "Ġcoute": 2750,
      "Ġnav": 2751,
      "ombre": 2752,
      "Ġaille": 2753,
      "Ġappel": 2754,
      "ĠfermÃ©": 2755,
      "mÃ©n": 2756,
      "Ġblanc": 2757,
      "Ġsemblez": 2758,
      "issez": 2759,
      "iendra": 2760,
      "Ġviendra": 2761,
      "Conn": 2762,
      "oli": 2763,
      "ufs": 2764,
      "Ġcer": 2765,
      "Ġciel": 2766,
      "let": 2767,
      "Ġboute": 2768,
      "Ġgauche": 2769,
      "Ġprogr": 2770,
      "Ġdispar": 2771,
      "illage": 2772,
      "Ġouvrir": 2773,
      "ĠrentrÃ©": 2774,
      "lication": 2775,
      "ĠapprÃ©ciÃ©": 2776,
      "Ġenseignant": 2777,
      "Ġresponsable": 2778,
      "Ġignor": 2779,
      "Ã©roport": 2780,
      "Viens": 2781,
      "aÃ¯": 2782,
      "ges": 2783,
      "enons": 2784,
      "Ġviol": 2785,
      "Ġferait": 2786,
      "Ġvivent": 2787,
      "Ġsentiment": 2788,
      "ĠcÃ©lÃ¨": 2789,
      "Ġconscience": 2790,
      "Ġemprunter": 2791,
      "ĠÃītats": 2792,
      "icul": 2793,
      "orer": 2794,
      "pÃ¨re": 2795,
      "ta": 2796,
      "erait": 2797,
      "isse": 2798,
      "Ġrends": 2799,
      "Ġid": 2800,
      "Ġvouliez": 2801,
      "Ġgroupe": 2802,
      "Avec": 2803,
      "Ġpleut": 2804,
      "ĠbrÃ»": 2805,
      "Ġouver": 2806,
      "Ġcalme": 2807,
      "Ex": 2808,
      "Hier": 2809,
      "ĠH": 2810,
      "Ġsang": 2811,
      "Ġvent": 2812,
      "Ġjal": 2813,
      "onna": 2814,
      "Ġhonte": 2815,
      "Ġarbre": 2816,
      "umeur": 2817,
      "Ġsouvenir": 2818,
      "Ġlongue": 2819,
      "ĠenvoyÃ©": 2820,
      "Ġdouche": 2821,
      "Ġpein": 2822,
      "ĠdÃ©range": 2823,
      "Ġrisque": 2824,
      "ĠsupposÃ©": 2825,
      "Ġnettoyer": 2826,
      "Ġreconnaissant": 2827,
      "Ġsusp": 2828,
      "Ġmachine": 2829,
      "Ġdocteur": 2830,
      "In": 2831,
      "Suis": 2832,
      "oque": 2833,
      "aitement": 2834,
      "usse": 2835,
      "Ġavions": 2836,
      "Ġavaient": 2837,
      "ave": 2838,
      "ĠinconvÃ©nient": 2839,
      "Ġvieil": 2840,
      "Ġvisage": 2841,
      "Ġrespec": 2842,
      "ĠCh": 2843,
      "ĠdÃ©cider": 2844,
      "Ġcontrari": 2845,
      "Ġrarement": 2846,
      "Maintenant": 2847,
      "Va": 2848,
      "gie": 2849,
      "oux": 2850,
      "Ġsk": 2851,
      "tiez": 2852,
      "rib": 2853,
      "Ġmec": 2854,
      "dedans": 2855,
      "ĠÃ©lÃ¨": 2856,
      "Ġsache": 2857,
      "Ã¢che": 2858,
      "Ġcommun": 2859,
      "ĠdÃ©cl": 2860,
      "ĠprÃ©vu": 2861,
      "Ġvingt": 2862,
      "hÃ´tel": 2863,
      "ĠÅĵil": 2864,
      "Voudrais": 2865,
      "Ġportes": 2866,
      "aÃ©roport": 2867,
      "Ġforte": 2868,
      "Ġjolie": 2869,
      "Ġlev": 2870,
      "Ġbal": 2871,
      "llem": 2872,
      "ĠarrÃªt": 2873,
      "ulaire": 2874,
      "ĠmariÃ©e": 2875,
      "Ġcopine": 2876,
      "hier": 2877,
      "pl": 2878,
      "ps": 2879,
      "Ã©qu": 2880,
      "Ġpare": 2881,
      "oie": 2882,
      "Ġbag": 2883,
      "Ġbut": 2884,
      "Ġbord": 2885,
      "Ġchante": 2886,
      "Ġparole": 2887,
      "Ġcrav": 2888,
      "Quoi": 2889,
      "Ġdifficul": 2890,
      "Unis": 2891,
      "ĠmontrÃ©": 2892,
      "Aujourd": 2893,
      "ĠvÃ©cu": 2894,
      "Ġconvaincu": 2895,
      "ĠcommenÃ§a": 2896,
      "ĠgoÃ»t": 2897,
      "bout": 2898,
      "rob": 2899,
      "ĠcensÃ©": 2900,
      "Ġmeur": 2901,
      "Ġmorte": 2902,
      "Ġnorm": 2903,
      "iles": 2904,
      "itable": 2905,
      "arrass": 2906,
      "Ġaugment": 2907,
      "acun": 2908,
      "Ġcrains": 2909,
      "ordin": 2910,
      "Ġador": 2911,
      "Ġpromets": 2912,
      "Ġincr": 2913,
      "ĠÃ©chec": 2914,
      "iÃ¨me": 2915,
      "los": 2916,
      "Ġfrais": 2917,
      "Ġgouver": 2918,
      "ira": 2919,
      "trap": 2920,
      "ĠmanquÃ©": 2921,
      "Ġpartout": 2922,
      "Ġblague": 2923,
      "Ġimportante": 2924,
      "Ġbattre": 2925,
      "Ġremercier": 2926,
      "Ġtranquille": 2927,
      "Ġcravate": 2928,
      "Ġpomme": 2929,
      "enus": 2930,
      "Ġsoup": 2931,
      "rerais": 2932,
      "Ġdebout": 2933,
      "arbre": 2934,
      "Ġem": 2935,
      "ĠentiÃ¨re": 2936,
      "Ġgarde": 2937,
      "Ġmentir": 2938,
      "Ġsport": 2939,
      "Ġattraper": 2940,
      "Ġcertainement": 2941,
      "ĠvÃ©rifier": 2942,
      "Ġsilen": 2943,
      "Ġenviron": 2944,
      "ĠK": 2945,
      "Ġdent": 2946,
      "Ã©d": 2947,
      "Ġlente": 2948,
      "Ġcul": 2949,
      "Ġgri": 2950,
      "olog": 2951,
      "Ġpossi": 2952,
      "usement": 2953,
      "Ġconduis": 2954,
      "ĠintÃ©ressÃ©": 2955,
      "ĠquittÃ©": 2956,
      "Ġmerveille": 2957,
      "ĠdÃ©missi": 2958,
      "Ġcouteau": 2959,
      "Te": 2960,
      "Ġpatient": 2961,
      "Ġbain": 2962,
      "ĠdÃ©Ã§u": 2963,
      "amb": 2964,
      "Ġallum": 2965,
      "Ġcroy": 2966,
      "Ġcomporte": 2967,
      "Ġrevenu": 2968,
      "Ġneuf": 2969,
      "Bien": 2970,
      "aies": 2971,
      "Ġauriez": 2972,
      "onnÃ©e": 2973,
      "Ġtel": 2974,
      "iennes": 2975,
      "âĢī": 2976,
      "ĠprotÃ©": 2977,
      "rÃ©able": 2978,
      "Ġeut": 2979,
      "Ġportait": 2980,
      "Ġmontagne": 2981,
      "ĠsÃ©jour": 2982,
      "apprendre": 2983,
      "DÃ©solÃ©": 2984,
      "ĠprÃ©parer": 2985,
      "ĠcÃ©lÃ¨bre": 2986,
      "Cont": 2987,
      "oh": 2988,
      "ĠNe": 2989,
      "Ġdort": 2990,
      "Ġpati": 2991,
      "Ġparles": 2992,
      "cell": 2993,
      "chÃ©e": 2994,
      "ĠgÃ©rer": 2995,
      "Ġdisent": 2996,
      "Ġcray": 2997,
      "Ġbienv": 2998,
      "Ġtoile": 2999,
      "Ġcompagn": 3000,
      "Ã©cou": 3001,
      "rase": 3002,
      "Ġrevenir": 3003,
      "ĠrÃ©pondu": 3004,
      "import": 3005,
      "Ġcuisiner": 3006,
      "Ġdisput": 3007,
      "ĠcinÃ©": 3008,
      "Ġsemblait": 3009,
      "Ġressent": 3010,
      "ĠhÃ´tel": 3011,
      "off": 3012,
      "Ġpont": 3013,
      "ĠlÃ©": 3014,
      "Ġmienne": 3015,
      "arrÃªt": 3016,
      "rig": 3017,
      "Ã®mes": 3018,
      "Ġferm": 3019,
      "Ġseuls": 3020,
      "extÃ©rieur": 3021,
      "ĠprÃªts": 3022,
      "ĠcanapÃ©": 3023,
      "ĠobligÃ©": 3024,
      "Ġfaveur": 3025,
      "ĠsociÃ©tÃ©": 3026,
      "Ġbouteille": 3027,
      "tat": 3028,
      "ĠR": 3029,
      "ĠPar": 3030,
      "Ġpain": 3031,
      "Ġly": 3032,
      "Ġloi": 3033,
      "Ġtic": 3034,
      "istes": 3035,
      "asp": 3036,
      "imez": 3037,
      "Ġphrase": 3038,
      "Ġadresse": 3039,
      "ĠtombÃ©e": 3040,
      "impression": 3041,
      "Ġsourire": 3042,
      "Ġmorce": 3043,
      "ĠextrÃªme": 3044,
      "Ġhabituellement": 3045,
      "cal": 3046,
      "ket": 3047,
      "tÃ©s": 3048,
      "Ġdest": 3049,
      "Ã¨ge": 3050,
      "ination": 3051,
      "accep": 3052,
      "Ġarme": 3053,
      "Ġmanqu": 3054,
      "arriver": 3055,
      "Ġadore": 3056,
      "ĠdÃ©pri": 3057,
      "Ġrefus": 3058,
      "cteur": 3059,
      "Essaie": 3060,
      "Ġchoisir": 3061,
      "Ġfallu": 3062,
      "ĠFr": 3063,
      "ĠhabituÃ©": 3064,
      "Ġendormi": 3065,
      "ĠrÃ©ellement": 3066,
      "Ġincroyable": 3067,
      "Ġlentement": 3068,
      "ĠcinÃ©ma": 3069,
      "erie": 3070,
      "ĠmÃ©ri": 3071,
      "entrer": 3072,
      "Ġfond": 3073,
      "Ġjoindre": 3074,
      "inter": 3075,
      "tir": 3076,
      "ĠÃ©m": 3077,
      "Ġquelconque": 3078,
      "Ġoc": 3079,
      "Ġvide": 3080,
      "ĠarrivÃ©e": 3081,
      "Ġcourses": 3082,
      "Ġcorps": 3083,
      "Ġobtenu": 3084,
      "MÃªme": 3085,
      "noc": 3086,
      "Ġloc": 3087,
      "Ġlaver": 3088,
      "Ġren": 3089,
      "Ġens": 3090,
      "Ġavion": 3091,
      "ĠrÃ©c": 3092,
      "Ġdise": 3093,
      "cule": 3094,
      "Ġmanquer": 3095,
      "ĠrencontrÃ©s": 3096,
      "ĠÃ©tudiÃ©": 3097,
      "Ġgagne": 3098,
      "Ġforme": 3099,
      "raph": 3100,
      "empÃªcher": 3101,
      "ĠsÃ©rieusement": 3102,
      "Ġconseilla": 3103,
      "ĠpossÃ¨de": 3104,
      "Ġchouette": 3105,
      "cation": 3106,
      "gner": 3107,
      "hom": 3108,
      "mon": 3109,
      "Ġutile": 3110,
      "Ġpre": 3111,
      "ĠpÃ©n": 3112,
      "ouer": 3113,
      "ett": 3114,
      "ĠdÃ©li": 3115,
      "ĠdÃ©mÃ©n": 3116,
      "Ã´tre": 3117,
      "Marie": 3118,
      "asseoir": 3119,
      "Ġmatch": 3120,
      "ĠdÃ©pend": 3121,
      "Ġpromesse": 3122,
      "Pouvons": 3123,
      "Ġfiche": 3124,
      "Ġsolution": 3125,
      "Ġsauf": 3126,
      "ĠattrapÃ©": 3127,
      "Ġorgan": 3128,
      "Ġnote": 3129,
      "Ġpromenade": 3130,
      "Ġnerveux": 3131,
      "Ġglace": 3132,
      "Ã©couter": 3133,
      "Cr": 3134,
      "Ġpoi": 3135,
      "Ġtend": 3136,
      "Ġpause": 3137,
      "entretenir": 3138,
      "lex": 3139,
      "universitÃ©": 3140,
      "arÃ©": 3141,
      "Ġsub": 3142,
      "ĠdÃ©mar": 3143,
      "Ġretr": 3144,
      "Ġmarch": 3145,
      "Ġlib": 3146,
      "Ġsoud": 3147,
      "Åĵil": 3148,
      "Ġconduit": 3149,
      "Ġhabite": 3150,
      "Ġproduire": 3151,
      "Ġlangues": 3152,
      "Ġprudente": 3153,
      "Ġmoyens": 3154,
      "ĠidÃ©es": 3155,
      "Ġouverte": 3156,
      "Ret": 3157,
      "Sont": 3158,
      "Vos": 3159,
      "fois": 3160,
      "Ġtrem": 3161,
      "Ġmille": 3162,
      "Ġnez": 3163,
      "aurai": 3164,
      "Ãªmes": 3165,
      "ĠdÃ©cid": 3166,
      "Ġrej": 3167,
      "Ġheureuses": 3168,
      "Ġregarda": 3169,
      "ifique": 3170,
      "Ġdirai": 3171,
      "Ġbouton": 3172,
      "Ġcuri": 3173,
      "Ġmaladie": 3174,
      "neu": 3175,
      "romp": 3176,
      "ĠG": 3177,
      "Ġpun": 3178,
      "Ġtient": 3179,
      "Ġmord": 3180,
      "Ġve": 3181,
      "ĠfiÃ¨re": 3182,
      "avis": 3183,
      "Ġdipl": 3184,
      "Ġinnoc": 3185,
      "atif": 3186,
      "Ġvoitures": 3187,
      "Ġconnu": 3188,
      "ĠÃ©criv": 3189,
      "Ġgrands": 3190,
      "ĠmusÃ©e": 3191,
      "Ġparfaitement": 3192,
      "Ġterminer": 3193,
      "Ġsold": 3194,
      "Ġverrou": 3195,
      "Ġennuis": 3196,
      "Ġfallait": 3197,
      "ĠautorisÃ©": 3198,
      "ĠprÃ©parÃ©": 3199,
      "Ġregrette": 3200,
      "Ġgouvernement": 3201,
      "ĠprotÃ©ger": 3202,
      "ĠextrÃªmement": 3203,
      "Aimez": 3204,
      "Vas": 3205,
      "ak": 3206,
      "gÃ©s": 3207,
      "ile": 3208,
      "Ġ5": 3209,
      "ĠTu": 3210,
      "aign": 3211,
      "Ã©ner": 3212,
      "Ġpron": 3213,
      "Ġsembles": 3214,
      "Ġferme": 3215,
      "Ġadm": 3216,
      "Ġcapit": 3217,
      "Ġinvit": 3218,
      "Aimes": 3219,
      "Ġservice": 3220,
      "Ġpermettre": 3221,
      "affaire": 3222,
      "Ġconvaincre": 3223,
      "ĠprÃ©fÃ©rerais": 3224,
      "Ġactuellement": 3225,
      "ohn": 3226,
      "homas": 3227,
      "Tes": 3228,
      "atu": 3229,
      "ĠlÃ¨ve": 3230,
      "Ġali": 3231,
      "Ġafin": 3232,
      "Ġtot": 3233,
      "Ġquant": 3234,
      "Ġfai": 3235,
      "Ġpourriez": 3236,
      "ouve": 3237,
      "ĠdÃ©si": 3238,
      "ectu": 3239,
      "lÃ©g": 3240,
      "acle": 3241,
      "Ġpensait": 3242,
      "Ġseules": 3243,
      "Ġmalheure": 3244,
      "Ġlim": 3245,
      "allais": 3246,
      "Ġterrible": 3247,
      "ĠprÃ©sident": 3248,
      "ondres": 3249,
      "ĠagrÃ©able": 3250,
      "expliquer": 3251,
      "ĠrÃ©veillÃ©": 3252,
      "Ġdivor": 3253,
      "Ġsympa": 3254,
      "tituteur": 3255,
      "Ġfootball": 3256,
      "Ġattentiv": 3257,
      "ĠlÃ©gu": 3258,
      "obre": 3259,
      "ĠE": 3260,
      "ĠpÃªcher": 3261,
      "Ġmets": 3262,
      "Ġfant": 3263,
      "ork": 3264,
      "Ġprenez": 3265,
      "Ġpars": 3266,
      "atiques": 3267,
      "Ġfruits": 3268,
      "Ġamb": 3269,
      "Ġfaisais": 3270,
      "Ġvisiter": 3271,
      "Ġpeint": 3272,
      "Essayez": 3273,
      "occuper": 3274,
      "ĠdÃ©couvert": 3275,
      "oubliez": 3276,
      "Ã©tudier": 3277,
      "Ġpossib": 3278,
      "port": 3279,
      "zz": 3280,
      "Ġdate": 3281,
      "Ã©quipe": 3282,
      "Ġeng": 3283,
      "rie": 3284,
      "Ġplac": 3285,
      "Ġsept": 3286,
      "raite": 3287,
      "ĠrÃ©d": 3288,
      "ĠfrÃ¨res": 3289,
      "Ġseront": 3290,
      "ĠdÃ©jeu": 3291,
      "Ġcontact": 3292,
      "Ġpleine": 3293,
      "Ġclaire": 3294,
      "Ġprofon": 3295,
      "ĠprÃ©vois": 3296,
      "Ġconfecti": 3297,
      "Ġabsolu": 3298,
      "Ġespoir": 3299,
      "Ġvalise": 3300,
      "Ġpolitique": 3301,
      "ĠprÃ©fÃ©rÃ©e": 3302,
      "Al": 3303,
      "lise": 3304,
      "Ġtalent": 3305,
      "Ġnage": 3306,
      "entend": 3307,
      "isez": 3308,
      "orme": 3309,
      "Ġasse": 3310,
      "ope": 3311,
      "Ġsavent": 3312,
      "Ġperte": 3313,
      "Ġenfin": 3314,
      "Ġclair": 3315,
      "aimait": 3316,
      "Ġ19": 3317,
      "ĠÅĵufs": 3318,
      "Ġchoisi": 3319,
      "Ġprintemps": 3320,
      "Ġravi": 3321,
      "Ġtrucs": 3322,
      "Ġchocol": 3323,
      "Certains": 3324,
      "Ġsilencieux": 3325,
      "ĠNew": 3326,
      "Ġensuite": 3327,
      "Garde": 3328,
      "York": 3329,
      "bes": 3330,
      "ime": 3331,
      "oti": 3332,
      "Ġpier": 3333,
      "Ġfaux": 3334,
      "Ġhuit": 3335,
      "Ġvoler": 3336,
      "essaie": 3337,
      "Ġserons": 3338,
      "igner": 3339,
      "moire": 3340,
      "ĠjouÃ©": 3341,
      "ĠoccupÃ©s": 3342,
      "Ġnouveaux": 3343,
      "ĠJohn": 3344,
      "ĠforcÃ©": 3345,
      "Ġappartement": 3346,
      "Ġballe": 3347,
      "ĠgÃ©nÃ©ralement": 3348,
      "Ġrecherche": 3349,
      "Ġmensonge": 3350,
      "ĠmÃ©dicament": 3351,
      "heur": 3352,
      "Ġus": 3353,
      "Ġcouv": 3354,
      "Ġvillage": 3355,
      "Ġfasses": 3356,
      "ĠlevÃ©": 3357,
      "Ġrenv": 3358,
      "Ġenc": 3359,
      "Ġtrah": 3360,
      "llerai": 3361,
      "ĠÃ©ve": 3362,
      "ĠcongÃ©": 3363,
      "Ã©rons": 3364,
      "Ġcommis": 3365,
      "Ã©rir": 3366,
      "ĠposÃ©": 3367,
      "ĠblessÃ©e": 3368,
      "Ġinstant": 3369,
      "Ġprendra": 3370,
      "Ġplaisant": 3371,
      "Ġconnaissance": 3372,
      "Ġcrime": 3373,
      "Ġfourn": 3374,
      "Ġnulle": 3375,
      "Ġcorrectement": 3376,
      "cevoir": 3377,
      "Ġpaix": 3378,
      "Ġabsolument": 3379,
      "DÃ©p": 3380,
      "dra": 3381,
      "eff": 3382,
      "aimes": 3383,
      "usez": 3384,
      "ĠprÃªtes": 3385,
      "Ãªche": 3386,
      "ath": 3387,
      "Ġdiri": 3388,
      "ĠÃ©ner": 3389,
      "Ġoct": 3390,
      "Ġcroit": 3391,
      "Ġexam": 3392,
      "abilitÃ©": 3393,
      "Ġprisonn": 3394,
      "Ġcloche": 3395,
      "ĠsÃ»rs": 3396,
      "Ġremettre": 3397,
      "Ġhabit": 3398,
      "ĠrefusÃ©": 3399,
      "Ġsoucie": 3400,
      "oissons": 3401,
      "Ġabsent": 3402,
      "ĠÃ©couter": 3403,
      "Ġpermission": 3404,
      "Certaines": 3405,
      "excuser": 3406,
      "cte": 3407,
      "na": 3408,
      "ĠO": 3409,
      "essi": 3410,
      "Ġlour": 3411,
      "Ġtir": 3412,
      "Ġtap": 3413,
      "tur": 3414,
      "tume": 3415,
      "Ġpourrions": 3416,
      "ĠgÃ¢": 3417,
      "Ġhau": 3418,
      "lÃ©ment": 3419,
      "Ġexcell": 3420,
      "Ġconsac": 3421,
      "fiÃ©": 3422,
      "Ġsortie": 3423,
      "Ġvoisins": 3424,
      "Ġrefuse": 3425,
      "Ġobj": 3426,
      "Chaque": 3427,
      "ĠacceptÃ©": 3428,
      "Ġaccepter": 3429,
      "ĠremarquÃ©": 3430,
      "Ġimpatient": 3431,
      "quisition": 3432,
      "inform": 3433,
      "Ġcompagnie": 3434,
      "ĠlÃ©gumes": 3435,
      "Alors": 3436,
      "Ġoctobre": 3437,
      "Mets": 3438,
      "Ġdomm": 3439,
      "Ġcens": 3440,
      "ĠmÃ©r": 3441,
      "Ġcelles": 3442,
      "Ġdevait": 3443,
      "Ġaiment": 3444,
      "ĠÃ©n": 3445,
      "Ã©ra": 3446,
      "ĠapportÃ©": 3447,
      "adm": 3448,
      "ĠsÃ»res": 3449,
      "Ġcoupable": 3450,
      "Ġimm": 3451,
      "Ġexpliquer": 3452,
      "Ġchef": 3453,
      "Ġeffort": 3454,
      "ĠdÃ©brou": 3455,
      "ĠcontrÃ´le": 3456,
      "ĠgÃ©ni": 3457,
      "Ġdroite": 3458,
      "ingue": 3459,
      "itiÃ©": 3460,
      "Ġira": 3461,
      "Ġjeter": 3462,
      "Ġlarmes": 3463,
      "Ġchanceux": 3464,
      "ĠÃ©lÃ¨ves": 3465,
      "Ġcrayon": 3466,
      "Ġmorceau": 3467,
      "Ġsc": 3468,
      "ermin": 3469,
      "Ġvus": 3470,
      "isÃ©s": 3471,
      "Ġlett": 3472,
      "Ġru": 3473,
      "ĠprÃ©t": 3474,
      "Ġchin": 3475,
      "amis": 3476,
      "Ġdure": 3477,
      "Ġfaits": 3478,
      "Ã©ration": 3479,
      "Esp": 3480,
      "Ġsaou": 3481,
      "Ġgrandes": 3482,
      "Ġadv": 3483,
      "Ġpersu": 3484,
      "Ġcorde": 3485,
      "enfant": 3486,
      "ĠsuggÃ¨re": 3487,
      "ĠLondres": 3488,
      "ĠspÃ©cial": 3489,
      "ĠFrance": 3490,
      "elez": 3491,
      "feu": 3492,
      "idÃ©e": 3493,
      "uer": 3494,
      "ycle": 3495,
      "Ġur": 3496,
      "Ġdom": 3497,
      "Ġloup": 3498,
      "one": 3499,
      "quet": 3500,
      "quÃ©e": 3501,
      "erne": 3502,
      "Ġbaiss": 3503,
      "Ġromp": 3504,
      "inv": 3505,
      "Ġaura": 3506,
      "ateurs": 3507,
      "Ġjambe": 3508,
      "oph": 3509,
      "Ġpizz": 3510,
      "ctions": 3511,
      "Ġcolle": 3512,
      "occasion": 3513,
      "accomp": 3514,
      "Ġcouper": 3515,
      "ĠintÃ©ressante": 3516,
      "Ġannu": 3517,
      "Ġaccord": 3518,
      "isÃ©ment": 3519,
      "Ġcuisin": 3520,
      "Faisons": 3521,
      "expÃ©rience": 3522,
      "ĠfrappÃ©": 3523,
      "Ġaimez": 3524,
      "ĠprÃ©cisÃ©ment": 3525,
      "Ġparticulier": 3526,
      "ĠentiÃ¨rement": 3527,
      "ĠlycÃ©e": 3528,
      "Ġlettres": 3529,
      "Australie": 3530,
      "Thomas": 3531,
      "mez": 3532,
      "mbre": 3533,
      "Ġput": 3534,
      "Ġligne": 3535,
      "Ġcos": 3536,
      "itions": 3537,
      "ĠhÃ¢te": 3538,
      "Ġidio": 3539,
      "Ġdevraient": 3540,
      "Ġarbres": 3541,
      "Ġnouvel": 3542,
      "Ġimporte": 3543,
      "Ġconst": 3544,
      "Ġriz": 3545,
      "Ġexplication": 3546,
      "Ġmorts": 3547,
      "ctri": 3548,
      "Ġvenus": 3549,
      "Ġtraverser": 3550,
      "Ġsoient": 3551,
      "ĠÃ©coutÃ©": 3552,
      "Ġdoivent": 3553,
      "ĠDieu": 3554,
      "imagine": 3555,
      "ĠprivÃ©": 3556,
      "Ġbillet": 3557,
      "Exc": 3558,
      "Ġchocolat": 3559,
      "Eh": 3560,
      "dis": 3561,
      "mÃ¨re": 3562,
      "vÃ©e": 3563,
      "ails": 3564,
      "Ã©te": 3565,
      "Ġmir": 3566,
      "endie": 3567,
      "lique": 3568,
      "ative": 3569,
      "Quelles": 3570,
      "Ġart": 3571,
      "Ġcru": 3572,
      "Ġcrue": 3573,
      "olf": 3574,
      "Ġsemb": 3575,
      "assez": 3576,
      "Ġretraite": 3577,
      "Ġessaya": 3578,
      "Depuis": 3579,
      "Ġrefaire": 3580,
      "ĠcoÃ»t": 3581,
      "Ġchansons": 3582,
      "Ġsuivi": 3583,
      "VoilÃł": 3584,
      "ĠratÃ©": 3585,
      "Ġplaindre": 3586,
      "Ġprincip": 3587,
      "urgence": 3588,
      "ĠmÃ©rite": 3589,
      "AmÃ©rique": 3590,
      "Sur": 3591,
      "Ġpaire": 3592,
      "enant": 3593,
      "Ġtenu": 3594,
      "Ġbour": 3595,
      "aurait": 3596,
      "Ġpours": 3597,
      "Ġgasp": 3598,
      "Ġhas": 3599,
      "ĠdÃ©rou": 3600,
      "Ġprov": 3601,
      "urope": 3602,
      "Ġopp": 3603,
      "Ġvraie": 3604,
      "oto": 3605,
      "Ġcrain": 3606,
      "Ġtrouvait": 3607,
      "velo": 3608,
      "ĠcommandÃ©": 3609,
      "Ġoui": 3610,
      "Ã©ric": 3611,
      "ĠmÃ©moire": 3612,
      "ĠmatinÃ©e": 3613,
      "Ġconvers": 3614,
      "ĠdÃ©bar": 3615,
      "ĠÃ©chouÃ©": 3616,
      "ĠamusÃ©": 3617,
      "ĠthÃ©or": 3618,
      "ĠrÃªves": 3619,
      "Essay": 3620,
      "Ġoffre": 3621,
      "Aucune": 3622,
      "Ġraconter": 3623,
      "Ġprogram": 3624,
      "Ġbagages": 3625,
      "Ġhasard": 3626,
      "velopp": 3627,
      "Dois": 3628,
      "Jus": 3629,
      "Ġsombre": 3630,
      "ĠvÃ´tre": 3631,
      "Ã¨vre": 3632,
      "intÃ©": 3633,
      "ingu": 3634,
      "chons": 3635,
      "ĠdÃ©v": 3636,
      "ĠdÃ©Ã§": 3637,
      "Ã»mes": 3638,
      "ĠentrÃ©": 3639,
      "Ġatta": 3640,
      "Ġmatins": 3641,
      "Ġcartes": 3642,
      "Ġgrossi": 3643,
      "Ġobtenir": 3644,
      "Ġchaude": 3645,
      "ĠÃ©chapp": 3646,
      "Ġsentiments": 3647,
      "Ġsalaire": 3648,
      "Attends": 3649,
      "Ġressem": 3650,
      "Ġ20": 3651,
      "embrasser": 3652,
      "ĠÃ©clat": 3653,
      "Ġdisparu": 3654,
      "Ġattentivement": 3655,
      "iment": 3656,
      "ieux": 3657,
      "tin": 3658,
      "Ġmai": 3659,
      "Ġmise": 3660,
      "Ġvienne": 3661,
      "ilitÃ©s": 3662,
      "Ġpratique": 3663,
      "Ġgolf": 3664,
      "oires": 3665,
      "Ġcombat": 3666,
      "urs": 3667,
      "Ġore": 3668,
      "meriez": 3669,
      "Ġdirection": 3670,
      "Ġexemp": 3671,
      "Ġmarrant": 3672,
      "Ġassur": 3673,
      "tru": 3674,
      "Ass": 3675,
      "ĠdÃ©tr": 3676,
      "Ġchaleur": 3677,
      "Ġmauvaises": 3678,
      "ĠexpÃ©rience": 3679,
      "Ġportable": 3680,
      "Ġvoisin": 3681,
      "ĠinvitÃ©s": 3682,
      "Ġmagn": 3683,
      "Ġdirais": 3684,
      "iendrai": 3685,
      "ĠrÃ¨gle": 3686,
      "Ġtimide": 3687,
      "ĠParis": 3688,
      "ĠdiplÃ´": 3689,
      "Ġsoyons": 3690,
      "Ġcous": 3691,
      "Ġfum": 3692,
      "ourv": 3693,
      "chant": 3694,
      "ection": 3695,
      "aband": 3696,
      "ĠdÃ©termin": 3697,
      "ĠsupplÃ©ment": 3698,
      "ĠdÃ©pourv": 3699,
      "Ġdiscussi": 3700,
      "ĠvÃ©ritable": 3701,
      "issent": 3702,
      "ĠintÃ©ressÃ©e": 3703,
      "icycle": 3704,
      "Ġfix": 3705,
      "Ġentreprise": 3706,
      "Ġvitesse": 3707,
      "Ġ10": 3708,
      "Ġincap": 3709,
      "Ġcanad": 3710,
      "Attendez": 3711,
      "Ġdistance": 3712,
      "Ġsauver": 3713,
      "Ġinquiet": 3714,
      "Ġselon": 3715,
      "ĠrÃ©sultats": 3716,
      "ĠrÃ©sultat": 3717,
      "Ġoiseau": 3718,
      "Voyez": 3719,
      "ser": 3720,
      "tal": 3721,
      "ude": 3722,
      "Ġ3": 3723,
      "Ġbicycle": 3724,
      "rimer": 3725,
      "Ġcommer": 3726,
      "Ġsigne": 3727,
      "Ġdevais": 3728,
      "Ġexamen": 3729,
      "Ġcacher": 3730,
      "assurer": 3731,
      "Ġportefeu": 3732,
      "Ġpartis": 3733,
      "ĠmariÃ©s": 3734,
      "Ġpasseport": 3735,
      "Ġvoudriez": 3736,
      "Ġforce": 3737,
      "Ġ14": 3738,
      "Dispos": 3739,
      "Ġamoureuse": 3740,
      "Ġconstruit": 3741,
      "Ġoiseaux": 3742,
      "Ġcircu": 3743,
      "ĠChine": 3744,
      "Ã©nergie": 3745,
      "ĠdÃ©barrasser": 3746,
      "Ġbicyclette": 3747,
      "Ġportefeuille": 3748,
      "ib": 3749,
      "Ġpisc": 3750,
      "Ġsoupe": 3751,
      "ĠtirÃ©": 3752,
      "Ġflic": 3753,
      "isation": 3754,
      "Ġneig": 3755,
      "auc": 3756,
      "Ġaveu": 3757,
      "Ġparlent": 3758,
      "cieuse": 3759,
      "ouvrir": 3760,
      "ĠsiÃ¨ge": 3761,
      "Ġailles": 3762,
      "ĠÃ©puis": 3763,
      "acquisition": 3764,
      "Ġamen": 3765,
      "Ġsert": 3766,
      "Ġsame": 3767,
      "Ġanci": 3768,
      "essaye": 3769,
      "ĠsÅĵurs": 3770,
      "entreprise": 3771,
      "Ġfoule": 3772,
      "Ġjaponaise": 3773,
      "ĠembrassÃ©": 3774,
      "Ġpeinture": 3775,
      "traper": 3776,
      "ĠpÃ©nÃ©t": 3777,
      "ĠthÃ©orie": 3778,
      "Ġpiscine": 3779,
      "ader": 3780,
      "ize": 3781,
      "lin": 3782,
      "uÃ©": 3783,
      "ĠpÃ©t": 3784,
      "ĠpÃ¢": 3785,
      "Ġcand": 3786,
      "Ġcancer": 3787,
      "Ġtiens": 3788,
      "ouse": 3789,
      "indi": 3790,
      "Ġchi": 3791,
      "Ġavance": 3792,
      "ĠparaÃ®t": 3793,
      "aman": 3794,
      "Ġvoleur": 3795,
      "Lequel": 3796,
      "esses": 3797,
      "Ġarti": 3798,
      "rivez": 3799,
      "Ġpensent": 3800,
      "ĠentraÃ®": 3801,
      "ĠvidÃ©": 3802,
      "Ġvaleur": 3803,
      "Ġcompos": 3804,
      "ĠÃ©conom": 3805,
      "Ġdonnerai": 3806,
      "Ġrendit": 3807,
      "ides": 3808,
      "Ġbouche": 3809,
      "ercice": 3810,
      "Ġmeilleurs": 3811,
      "Ġmagaz": 3812,
      "Ġgentille": 3813,
      "Ã©pous": 3814,
      "Ġconnaissait": 3815,
      "Ġhorrible": 3816,
      "Ġzo": 3817,
      "ĠÃ©checs": 3818,
      "Ġconversation": 3819,
      "Ġcandid": 3820,
      "Mal": 3821,
      "Sans": 3822,
      "Sortez": 3823,
      "lir": 3824,
      "ode": 3825,
      "ulation": 3826,
      "yp": 3827,
      "reur": 3828,
      "qua": 3829,
      "Ġveste": 3830,
      "Ġbisc": 3831,
      "Ã¨tres": 3832,
      "Ġenne": 3833,
      "Ġprise": 3834,
      "uiv": 3835,
      "ĠrÃ©vÃ©": 3836,
      "Ġgratu": 3837,
      "terre": 3838,
      "asser": 3839,
      "Ã©coute": 3840,
      "ĠdÃ©tails": 3841,
      "Ġeffectu": 3842,
      "emploi": 3843,
      "Ã©glise": 3844,
      "Ġprendrai": 3845,
      "ĠÃ©tudie": 3846,
      "ĠtentÃ©": 3847,
      "anniversaire": 3848,
      "Ã©chapp": 3849,
      "ĠdifficultÃ©s": 3850,
      "Excusez": 3851,
      "da": 3852,
      "hÃ©s": 3853,
      "ule": 3854,
      "umer": 3855,
      "xim": 3856,
      "Ġvenez": 3857,
      "ĠnÃ©e": 3858,
      "Ġtrou": 3859,
      "Ġtrac": 3860,
      "Ġtraite": 3861,
      "endroit": 3862,
      "avenir": 3863,
      "Ġauras": 3864,
      "Ġpla": 3865,
      "ĠdÃ©part": 3866,
      "Ġeau": 3867,
      "ack": 3868,
      "olesc": 3869,
      "Ġconnaisse": 3870,
      "Ġconnaissez": 3871,
      "Ġsoul": 3872,
      "Ġveuilles": 3873,
      "Ãªtres": 3874,
      "Ġenvers": 3875,
      "ĠoccupÃ©es": 3876,
      "Ġgars": 3877,
      "issait": 3878,
      "Ġmenteur": 3879,
      "ĠÃ¢gÃ©": 3880,
      "ception": 3881,
      "Ġfilms": 3882,
      "Ġembarrass": 3883,
      "Ġassister": 3884,
      "ĠÃ©levÃ©": 3885,
      "ĠdiffÃ©rentes": 3886,
      "ĠabandonnÃ©": 3887,
      "Ã©tudie": 3888,
      "Ġfassiez": 3889,
      "Ġcampagne": 3890,
      "Ġbleu": 3891,
      "importance": 3892,
      "Ġticket": 3893,
      "Ġurgent": 3894,
      "Ġcostume": 3895,
      "Ġidiote": 3896,
      "Mettez": 3897,
      "Ou": 3898,
      "hum": 3899,
      "lons": 3900,
      "opp": 3901,
      "ĠNous": 3902,
      "Ġdro": 3903,
      "Ã©f": 3904,
      "Ġtien": 3905,
      "Ġtirer": 3906,
      "Ġvert": 3907,
      "Ġvint": 3908,
      "Ġfaill": 3909,
      "ilier": 3910,
      "Ġboisson": 3911,
      "Ġsuici": 3912,
      "Ã©tudi": 3913,
      "Ġaurez": 3914,
      "ĠÃ©tat": 3915,
      "Ġtoucher": 3916,
      "andis": 3917,
      "Ġalliez": 3918,
      "Ã©rature": 3919,
      "ĠamÃ©li": 3920,
      "ĠamÃ©ric": 3921,
      "Ġgrave": 3922,
      "Ġmaj": 3923,
      "Ġsaches": 3924,
      "ĠprÃ©occup": 3925,
      "Ġderniers": 3926,
      "Ġtombe": 3927,
      "oncer": 3928,
      "Ġrespect": 3929,
      "Ġchauff": 3930,
      "ĠrÃ©alitÃ©": 3931,
      "Ġremerci": 3932,
      "Ferme": 3933,
      "llemand": 3934,
      "Ġgrimp": 3935,
      "Ġoccasion": 3936,
      "Ġobjecti": 3937,
      "information": 3938,
      "Ġpizza": 3939,
      "intÃ©resse": 3940,
      "Ġdiscussion": 3941,
      "Ġsamedi": 3942,
      "Jou": 3943,
      "Nos": 3944,
      "Sors": 3945,
      "ame": 3946,
      "hiver": 3947,
      "mine": 3948,
      "pes": 3949,
      "rage": 3950,
      "sÃ©": 3951,
      "ĠYork": 3952,
      "Ġtor": 3953,
      "Ġtienne": 3954,
      "istre": 3955,
      "Ġunique": 3956,
      "inue": 3957,
      "Ġavis": 3958,
      "onter": 3959,
      "tim": 3960,
      "onnaie": 3961,
      "ĠhÃ©r": 3962,
      "Ġdevint": 3963,
      "ĠmaÃ®": 3964,
      "ĠcachÃ©": 3965,
      "ĠarrivÃ©s": 3966,
      "Ġgrandi": 3967,
      "Ġpuiss": 3968,
      "ĠdiffÃ©rente": 3969,
      "ĠcontrÃ´": 3970,
      "Ġmilieu": 3971,
      "Montrez": 3972,
      "inquiÃ¨te": 3973,
      "Ġkil": 3974,
      "Ġscient": 3975,
      "Ġskier": 3976,
      "Ġsoldats": 3977,
      "Ġpierre": 3978,
      "Ġdommage": 3979,
      "Ġcirculation": 3980,
      "Vois": 3981,
      "grÃ©": 3982,
      "iÃ©": 3983,
      "son": 3984,
      "ĠlÃ¨": 3985,
      "Ġtre": 3986,
      "entrÃ©e": 3987,
      "ĠfÃ¢": 3988,
      "Ã¨le": 3989,
      "Ġchacun": 3990,
      "ĠÃ©toi": 3991,
      "Ġhur": 3992,
      "raign": 3993,
      "acter": 3994,
      "cool": 3995,
      "ĠrestÃ©e": 3996,
      "abord": 3997,
      "Ã¢ge": 3998,
      "ĠÃ©cout": 3999,
      "icien": 4000,
      "Ġmidi": 4001,
      "gnÃ©": 4002,
      "ĠpiÃ¨ces": 4003,
      "Ġrentre": 4004,
      "ennes": 4005,
      "Ġvivant": 4006,
      "Ġtourner": 4007,
      "Ġdisposons": 4008,
      "ĠTerre": 4009,
      "ĠsÃ©par": 4010,
      "Ġfolle": 4011,
      "ĠÃ©pouse": 4012,
      "Ġpousser": 4013,
      "Ġbaseball": 4014,
      "Ġtremble": 4015,
      "Ġincapable": 4016,
      "Ġzoo": 4017,
      "PrÃ©": 4018,
      "hor": 4019,
      "ieur": 4020,
      "nique": 4021,
      "oci": 4022,
      "Ã©ment": 4023,
      "Ġtar": 4024,
      "Ġvir": 4025,
      "Ġlave": 4026,
      "Ġboit": 4027,
      "itÃ´t": 4028,
      "arme": 4029,
      "Ġparie": 4030,
      "anger": 4031,
      "ĠallÃ©es": 4032,
      "Ġmaisons": 4033,
      "Ã©rÃªt": 4034,
      "Ġescal": 4035,
      "Ġsale": 4036,
      "ĠcausÃ©": 4037,
      "Ġvues": 4038,
      "ĠdÃ©cÃ©": 4039,
      "illÃ©s": 4040,
      "ĠdÃ©pens": 4041,
      "Ġprofond": 4042,
      "ĠrÃ©solu": 4043,
      "Ġpeindre": 4044,
      "Ġcertains": 4045,
      "Ġmonter": 4046,
      "Ġpolicier": 4047,
      "ĠAn": 4048,
      "ĠmÃ©dec": 4049,
      "ĠcoÃ»ter": 4050,
      "Ġarrivera": 4051,
      "Ġnotes": 4052,
      "Ġsortit": 4053,
      "Ġsilence": 4054,
      "Ġnavire": 4055,
      "Connais": 4056,
      "Ġemmen": 4057,
      "Ġdisputer": 4058,
      "accepter": 4059,
      "Ġpreuve": 4060,
      "Ġfaible": 4061,
      "allez": 4062,
      "tons": 4063,
      "Ġpot": 4064,
      "Ã©le": 4065,
      "Ġcle": 4066,
      "Ġcig": 4067,
      "Ġcentre": 4068,
      "Ġach": 4069,
      "quÃ©rir": 4070,
      "Ġtenait": 4071,
      "Ġvoit": 4072,
      "illa": 4073,
      "Ġroi": 4074,
      "Ġrumeur": 4075,
      "ĠchÃ¨re": 4076,
      "ĠdÃ©m": 4077,
      "osse": 4078,
      "Ġdevenue": 4079,
      "libat": 4080,
      "Ġdemi": 4081,
      "ĠfrÃ©qu": 4082,
      "oya": 4083,
      "Ġbonheur": 4084,
      "ĠcompÃ©t": 4085,
      "Ġcourse": 4086,
      "espÃ©": 4087,
      "adresse": 4088,
      "Ġpique": 4089,
      "Ġpoche": 4090,
      "ĠrÃ©serv": 4091,
      "Ġremb": 4092,
      "Ġconvient": 4093,
      "Ġfume": 4094,
      "Aimeriez": 4095,
      "Ġdocu": 4096,
      "ĠrÃ©veiller": 4097,
      "Ġsurviv": 4098,
      "enfants": 4099,
      "ĠcÃ©libat": 4100,
      "ĠobligÃ©e": 4101,
      "Ġcamion": 4102,
      "Ġabandonner": 4103,
      "Ġatteint": 4104,
      "Ġennuyeux": 4105,
      "Ġmecs": 4106,
      "Ġmerveilleux": 4107,
      "ĠdÃ©missionner": 4108,
      "ĠdÃ©cida": 4109,
      "Deux": 4110,
      "yoto": 4111,
      "Ġponc": 4112,
      "Ġdingue": 4113,
      "Ġsand": 4114,
      "quette": 4115,
      "anad": 4116,
      "ister": 4117,
      "Ġjume": 4118,
      "inÃ©e": 4119,
      "tiques": 4120,
      "irm": 4121,
      "Ġdevient": 4122,
      "sique": 4123,
      "ffre": 4124,
      "Ġyens": 4125,
      "uise": 4126,
      "ĠsongÃ©": 4127,
      "appar": 4128,
      "appro": 4129,
      "ĠfermÃ©e": 4130,
      "Ġassise": 4131,
      "Ġvaisse": 4132,
      "Ġcouru": 4133,
      "Ġcomprenez": 4134,
      "Ġlaisserai": 4135,
      "Ġbrill": 4136,
      "Ġadolesc": 4137,
      "Ġblesser": 4138,
      "ĠaccusÃ©": 4139,
      "Ġinstru": 4140,
      "ĠCanad": 4141,
      "Ġstation": 4142,
      "Ġgentilles": 4143,
      "ĠfenÃªtres": 4144,
      "Ġsauter": 4145,
      "Ġfonctionner": 4146,
      "Appelle": 4147,
      "Ġsyst": 4148,
      "ĠimaginÃ©": 4149,
      "Ġdoigt": 4150,
      "Demande": 4151,
      "Ġpopulation": 4152,
      "gleterre": 4153,
      "Ġviolon": 4154,
      "Ġjaloux": 4155,
      "Ġdentiste": 4156,
      "DÃ¨s": 4157,
      "gÃ©es": 4158,
      "ich": 4159,
      "idÃ©": 4160,
      "ibles": 4161,
      "nez": 4162,
      "Ġpaie": 4163,
      "Ġpneu": 4164,
      "eniez": 4165,
      "Ġsors": 4166,
      "Ġsomm": 4167,
      "Ġsinc": 4168,
      "Ġtest": 4169,
      "Ġtoit": 4170,
      "Ġtandis": 4171,
      "ĠnaÃ¯": 4172,
      "eue": 4173,
      "Ġras": 4174,
      "intÃ©ress": 4175,
      "cemment": 4176,
      "Ġhiver": 4177,
      "onnel": 4178,
      "Celui": 4179,
      "action": 4180,
      "Ġdisait": 4181,
      "tern": 4182,
      "Ġmarre": 4183,
      "assÃ©": 4184,
      "Ġcourage": 4185,
      "ĠdÃ©sesp": 4186,
      "Ġlaissa": 4187,
      "Ġpetits": 4188,
      "Ġappro": 4189,
      "Ġdispon": 4190,
      "Ġcontrat": 4191,
      "Ġfeuilles": 4192,
      "Ġsecr": 4193,
      "Ġspect": 4194,
      "Ġfaudra": 4195,
      "ĠcontinuÃ©": 4196,
      "Ġintelligente": 4197,
      "Ġinformations": 4198,
      "Ġreposer": 4199,
      "ĠrÃ©gime": 4200,
      "Demain": 4201,
      "Ġtraiter": 4202,
      "Ġparlons": 4203,
      "ĠeffrayÃ©": 4204,
      "Ġmignonne": 4205,
      "ĠpleurÃ©": 4206,
      "Ġcercle": 4207,
      "Ġmeurtre": 4208,
      "ordinaire": 4209,
      "Ġclairement": 4210,
      "Ã©pouser": 4211,
      "Ġbiscuits": 4212,
      "ĠsystÃ¨me": 4213,
      "Rem": 4214,
      "Voyons": 4215,
      "gnÃ©e": 4216,
      "her": 4217,
      "matiques": 4218,
      "ru": 4219,
      "Ġcit": 4220,
      "Ġcouver": 4221,
      "eriez": 4222,
      "Ġviennent": 4223,
      "Ġpage": 4224,
      "entraÃ®": 4225,
      "Ġbatt": 4226,
      "aule": 4227,
      "uir": 4228,
      "Ġjambes": 4229,
      "Ġsaviez": 4230,
      "Ġvoulaient": 4231,
      "Ġassist": 4232,
      "ĠimpliquÃ©": 4233,
      "ĠrÃ©pÃ©ter": 4234,
      "Ġsoule": 4235,
      "ĠbrisÃ©": 4236,
      "Ġsentis": 4237,
      "ock": 4238,
      "ĠrÃ©ser": 4239,
      "ĠfatiguÃ©s": 4240,
      "Ġfortune": 4241,
      "ĠrencontrÃ©e": 4242,
      "habite": 4243,
      "Ġtourne": 4244,
      "ĠÃ©trangÃ¨re": 4245,
      "Ġreconnu": 4246,
      "Ġappartient": 4247,
      "Ġviendrai": 4248,
      "ĠcassÃ©e": 4249,
      "Ġprojets": 4250,
      "Ġsemblant": 4251,
      "ĠdÃ©couvrir": 4252,
      "Ġjuge": 4253,
      "Ġsupermar": 4254,
      "Ãīcoute": 4255,
      "ĠimpressionnÃ©": 4256,
      "Ġpareille": 4257,
      "Ġtoilettes": 4258,
      "ĠconfectionnÃ©": 4259,
      "Ġcigare": 4260,
      "Ġsandw": 4261,
      "Fin": 4262,
      "Faire": 4263,
      "gue": 4264,
      "ub": 4265,
      "Ġpoissons": 4266,
      "Ġtire": 4267,
      "Ġnation": 4268,
      "Ġquoti": 4269,
      "Ġfig": 4270,
      "Ġbelles": 4271,
      "ĠbÃ©n": 4272,
      "inze": 4273,
      "Ġparess": 4274,
      "agÃ¨re": 4275,
      "amuser": 4276,
      "alcool": 4277,
      "Ġinvent": 4278,
      "Ġalla": 4279,
      "oyÃ©s": 4280,
      "Ġpersonnel": 4281,
      "Ġveuille": 4282,
      "dÃ©ment": 4283,
      "exercice": 4284,
      "Ġsentez": 4285,
      "ĠexpliquÃ©": 4286,
      "ussitÃ´t": 4287,
      "ennent": 4288,
      "ĠterminÃ©e": 4289,
      "ĠtraversÃ©": 4290,
      "Ġsuffit": 4291,
      "uyer": 4292,
      "Ġimaginer": 4293,
      "Ġretirer": 4294,
      "Ġdescend": 4295,
      "ĠcrÃ©dit": 4296,
      "Ġrecommand": 4297,
      "Ġnormal": 4298,
      "Ġcroyais": 4299,
      "Ġinnocent": 4300,
      "ĠfantÃ´": 4301,
      "ĠprofondÃ©ment": 4302,
      "Ġcouvert": 4303,
      "Ġdirige": 4304,
      "ĠgÃ©nial": 4305,
      "Ġchinois": 4306,
      "Ġprogramme": 4307,
      "indiquer": 4308,
      "ĠvidÃ©o": 4309,
      "ĠsupermarchÃ©": 4310,
      "Ġquotid": 4311,
      "Pas": 4312,
      "cens": 4313,
      "jus": 4314,
      "Ġ30": 4315,
      "ĠIn": 4316,
      "arrÃªte": 4317,
      "orÃ©": 4318,
      "tiv": 4319,
      "chÃ©s": 4320,
      "Ġreli": 4321,
      "ĠreÃ§": 4322,
      "astique": 4323,
      "acitÃ©": 4324,
      "Ġdises": 4325,
      "Ġresterai": 4326,
      "abri": 4327,
      "assit": 4328,
      "Ġcouramment": 4329,
      "ĠÃ©coute": 4330,
      "allons": 4331,
      "Ġmanue": 4332,
      "ĠdÃ©tendre": 4333,
      "Ġsupporte": 4334,
      "Ġpuissions": 4335,
      "Ġchangement": 4336,
      "Ġremis": 4337,
      "Ġvoyez": 4338,
      "habitue": 4339,
      "Ġverrai": 4340,
      "Ġsignifi": 4341,
      "Ġsurvenu": 4342,
      "Ġpantal": 4343,
      "Ġpromener": 4344,
      "ĠgÃ©nÃ©ral": 4345,
      "Ġpopulaire": 4346,
      "Ġatti": 4347,
      "Fermez": 4348,
      "Ãītait": 4349,
      "Ġcomportement": 4350,
      "Ġasseoir": 4351,
      "Ġmaig": 4352,
      "Ġsommet": 4353,
      "Sou": 4354,
      "Tiens": 4355,
      "ache": 4356,
      "Ġpoup": 4357,
      "Ġvendu": 4358,
      "oign": 4359,
      "anci": 4360,
      "eus": 4361,
      "Ġbuv": 4362,
      "Ġrig": 4363,
      "Ġsup": 4364,
      "onses": 4365,
      "onnable": 4366,
      "Ġgui": 4367,
      "ĠdÃ©ch": 4368,
      "Ġpouviez": 4369,
      "Ġvoie": 4370,
      "Ã¢tre": 4371,
      "ĠrÃ©ponses": 4372,
      "adÃ©": 4373,
      "Ã©conom": 4374,
      "Ġnoms": 4375,
      "ĠmathÃ©": 4376,
      "dul": 4377,
      "Ġenvis": 4378,
      "Ġoccuper": 4379,
      "Ġchamp": 4380,
      "Ġcoop": 4381,
      "ĠpoÃ¨me": 4382,
      "Ġriches": 4383,
      "ĠprÃ©sente": 4384,
      "issons": 4385,
      "ĠportÃ©": 4386,
      "Ġaccro": 4387,
      "ĠobÃ©": 4388,
      "Ġconcentrer": 4389,
      "Ġfutur": 4390,
      "ĠÃ©tranger": 4391,
      "Ġparvenu": 4392,
      "Chois": 4393,
      "Ġsoif": 4394,
      "Ġmignon": 4395,
      "Ġefforts": 4396,
      "Ġmagnifique": 4397,
      "lÃ©e": 4398,
      "mÃªmes": 4399,
      "obli": 4400,
      "ron": 4401,
      "ĠVous": 4402,
      "Ġmy": 4403,
      "Ġlap": 4404,
      "Ã¨ter": 4405,
      "Ġprouver": 4406,
      "aujourd": 4407,
      "endorm": 4408,
      "chiez": 4409,
      "onnant": 4410,
      "Ġplans": 4411,
      "Ġgl": 4412,
      "Ġgarer": 4413,
      "mpe": 4414,
      "agner": 4415,
      "Ġmondi": 4416,
      "Ġproxim": 4417,
      "Ġind": 4418,
      "Ġferions": 4419,
      "Ġarriva": 4420,
      "Ġcommand": 4421,
      "Ġimprob": 4422,
      "Ġposa": 4423,
      "Ġjoueur": 4424,
      "Ġchausse": 4425,
      "Ġvisit": 4426,
      "ĠrÃ©pond": 4427,
      "ĠcoupÃ©": 4428,
      "Ġbouger": 4429,
      "istoires": 4430,
      "ĠdÃ©pla": 4431,
      "Ġmoteur": 4432,
      "aimez": 4433,
      "Ġchanteur": 4434,
      "Parlez": 4435,
      "Parfois": 4436,
      "Ġoublier": 4437,
      "Ġexcit": 4438,
      "Ġveniez": 4439,
      "Ġordres": 4440,
      "Ġmod": 4441,
      "ĠsÃ©rieuse": 4442,
      "ĠapprÃ©cie": 4443,
      "Ġreprod": 4444,
      "Ġbanan": 4445,
      "Ġpanne": 4446,
      "ĠprÃªtÃ©": 4447,
      "000": 4448,
      "ĠtrompÃ©": 4449,
      "Ġimagination": 4450,
      "Ġtraduire": 4451,
      "Ġtimbres": 4452,
      "Connaissez": 4453,
      "Ġrefusa": 4454,
      "ĠdÃ©marrer": 4455,
      "Ġtotalement": 4456,
      "Ġmalheureux": 4457,
      "ĠpossibilitÃ©": 4458,
      "Ġartiste": 4459,
      "Ġressembl": 4460,
      "ĠcontrÃ´ler": 4461,
      "Ġsandwich": 4462,
      "ĠmathÃ©matiques": 4463,
      "ĠproximitÃ©": 4464,
      "Ver": 4465,
      "man": 4466,
      "nom": 4467,
      "Ġlune": 4468,
      "Ġcents": 4469,
      "Ġcaisse": 4470,
      "Ġmerci": 4471,
      "ĠvirÃ©": 4472,
      "Ġnat": 4473,
      "oient": 4474,
      "oiff": 4475,
      "Ġjeux": 4476,
      "Ġbeur": 4477,
      "ares": 4478,
      "Ġaver": 4479,
      "tif": 4480,
      "ĠplantÃ©": 4481,
      "Ġmembre": 4482,
      "ĠÃ©tage": 4483,
      "ĠdÃ©co": 4484,
      "Ġrela": 4485,
      "asun": 4486,
      "Ġivre": 4487,
      "ami": 4488,
      "ĠrÃ©cemment": 4489,
      "Ã©rÃ©e": 4490,
      "Ġcritique": 4491,
      "Ġvicti": 4492,
      "Ġrestes": 4493,
      "Ġdiffic": 4494,
      "Ġautom": 4495,
      "ĠblÃ¢": 4496,
      "Ġsentais": 4497,
      "Ġgarage": 4498,
      "Ġenseigne": 4499,
      "Ġpromesses": 4500,
      "uvres": 4501,
      "heureusement": 4502,
      "Ġvoudrait": 4503,
      "ĠmontÃ©": 4504,
      "ĠforÃªt": 4505,
      "Ġnourrir": 4506,
      "Ġfiers": 4507,
      "Ġvenues": 4508,
      "ĠAmÃ©rique": 4509,
      "ĠÃ©trangers": 4510,
      "ĠJaponais": 4511,
      "ĠguÃ¨re": 4512,
      "Ġjournaux": 4513,
      "Ġcopain": 4514,
      "champ": 4515,
      "Ġconscient": 4516,
      "Ġayons": 4517,
      "Ġreconnaissante": 4518,
      "Ġhumeur": 4519,
      "Ġminuit": 4520,
      "Ġfavor": 4521,
      "titutrice": 4522,
      "Crois": 4523,
      "ĠdÃ©jeunÃ©": 4524,
      "Malheureusement": 4525,
      "Ġimprobable": 4526,
      "Ġdifficiles": 4527,
      "Jam": 4528,
      "Tenez": 4529,
      "hi": 4530,
      "oÃ¯": 4531,
      "ute": 4532,
      "uction": 4533,
      "aimer": 4534,
      "Ġlog": 4535,
      "ĠcÃ¢": 4536,
      "ĠaÃ®": 4537,
      "Ġadul": 4538,
      "euble": 4539,
      "Ġbri": 4540,
      "ĠrÃ©t": 4541,
      "aint": 4542,
      "Ġrejet": 4543,
      "ardi": 4544,
      "ottes": 4545,
      "Ġperdit": 4546,
      "Ã¢ce": 4547,
      "Ġcourag": 4548,
      "espoir": 4549,
      "itez": 4550,
      "ĠlaissÃ©e": 4551,
      "Ġconsul": 4552,
      "Ġclub": 4553,
      "Ġsortes": 4554,
      "Entre": 4555,
      "Ġraisons": 4556,
      "ĠdÃ©pensÃ©": 4557,
      "Ġridi": 4558,
      "Ġhabitude": 4559,
      "Ġexplos": 4560,
      "ĠfiÃ¨vre": 4561,
      "mbres": 4562,
      "Ġexcuse": 4563,
      "Ġparvenir": 4564,
      "ĠcoÃ»tÃ©": 4565,
      "ĠdÃ©ranger": 4566,
      "jouter": 4567,
      "incendie": 4568,
      "ĠresponsabilitÃ©": 4569,
      "Ġsouffre": 4570,
      "Ġvendredi": 4571,
      "Ġpatience": 4572,
      "Ġaliments": 4573,
      "Ġencour": 4574,
      "Ġhaute": 4575,
      "Ġvaisselle": 4576,
      "Jamais": 4577,
      "Gardez": 4578,
      "Passe": 4579,
      "dition": 4580,
      "hens": 4581,
      "table": 4582,
      "Ġpil": 4583,
      "Ġloyer": 4584,
      "reg": 4585,
      "Ġfoi": 4586,
      "isme": 4587,
      "Ġja": 4588,
      "Ġram": 4589,
      "Ã¨tes": 4590,
      "itaire": 4591,
      "ara": 4592,
      "Ã©taire": 4593,
      "tuel": 4594,
      "avance": 4595,
      "chose": 4596,
      "Ġplantes": 4597,
      "Ġmembres": 4598,
      "ouvÃ©": 4599,
      "ĠÃ©loi": 4600,
      "eaux": 4601,
      "essence": 4602,
      "ards": 4603,
      "enseigner": 4604,
      "Ġpouvions": 4605,
      "Ġbeaux": 4606,
      "Ġentier": 4607,
      "vement": 4608,
      "Ġcontacter": 4609,
      "Ġdemandez": 4610,
      "Ġcourrier": 4611,
      "Ġsouti": 4612,
      "ĠdÃ©sir": 4613,
      "Ġcoffre": 4614,
      "Ġpuissiez": 4615,
      "instituteur": 4616,
      "Ġrendue": 4617,
      "Ġterri": 4618,
      "Ġprofessi": 4619,
      "icace": 4620,
      "Ġcorri": 4621,
      "Ġpropri": 4622,
      "ĠdiscutÃ©": 4623,
      "Ġprudents": 4624,
      "Aimerais": 4625,
      "Ġsuivant": 4626,
      "ĠlumiÃ¨res": 4627,
      "ĠsauvÃ©": 4628,
      "Ġsouhaiterais": 4629,
      "Ġimpatiente": 4630,
      "Ġbarbe": 4631,
      "Ġintention": 4632,
      "Ġclim": 4633,
      "ĠnÃ©gli": 4634,
      "ĠÃ©teint": 4635,
      "ologie": 4636,
      "Ã©teindre": 4637,
      "ĠdÃ©Ã§ue": 4638,
      "Ġaveugle": 4639,
      "Ġmagazine": 4640,
      "ackson": 4641,
      "espÃ©rais": 4642,
      "Ġrembours": 4643,
      "Ġquotidienne": 4644,
      "Ġbeurre": 4645,
      "Am": 4646,
      "An": 4647,
      "Cess": 4648,
      "Leur": 4649,
      "Moi": 4650,
      "ox": 4651,
      "rure": 4652,
      "Ġpose": 4653,
      "ouill": 4654,
      "Ã©hens": 4655,
      "Ġsage": 4656,
      "quante": 4657,
      "Ġqueue": 4658,
      "Ġfous": 4659,
      "Ġfis": 4660,
      "Ġfleur": 4661,
      "ita": 4662,
      "avions": 4663,
      "rite": 4664,
      "ĠgÃª": 4665,
      "Ġgaz": 4666,
      "resp": 4667,
      "ĠprocÃ©": 4668,
      "Ġdurer": 4669,
      "Ġsim": 4670,
      "ortable": 4671,
      "Ġassi": 4672,
      "Ġinutile": 4673,
      "uteur": 4674,
      "Ã©rence": 4675,
      "Ġappelle": 4676,
      "autor": 4677,
      "Ġresta": 4678,
      "Ġmanges": 4679,
      "Ġmangez": 4680,
      "Ġvase": 4681,
      "Quelques": 4682,
      "Ġvieilles": 4683,
      "ĠdonnÃ©es": 4684,
      "ancÃ©": 4685,
      "ĠblessÃ©s": 4686,
      "Ãītiez": 4687,
      "ĠprÃ©venu": 4688,
      "ĠdisposÃ©": 4689,
      "ĠgardÃ©": 4690,
      "Ġconnaissais": 4691,
      "Chacun": 4692,
      "Ġenseignante": 4693,
      "ĠÃ©lectri": 4694,
      "ĠtempÃ©rature": 4695,
      "Ġserviette": 4696,
      "Ġmenac": 4697,
      "achÃ¨te": 4698,
      "Ġvolontaire": 4699,
      "Ġsuspect": 4700,
      "ĠcontrariÃ©": 4701,
      "ĠEurope": 4702,
      "ĠÃ©veillÃ©": 4703,
      "Ġexemple": 4704,
      "Ġflics": 4705,
      "Ġarticle": 4706,
      "Ã©chapper": 4707,
      "Ġtremblement": 4708,
      "ĠcÃ©libataire": 4709,
      "Ġspectacle": 4710,
      "Ġpantalon": 4711,
      "cro": 4712,
      "gez": 4713,
      "ote": 4714,
      "ĠpÃ©ri": 4715,
      "Ġdress": 4716,
      "Ġdame": 4717,
      "Ġmonnaie": 4718,
      "Ġquinze": 4719,
      "Ġfaite": 4720,
      "omac": 4721,
      "omage": 4722,
      "usÃ©e": 4723,
      "auriez": 4724,
      "Ġavenir": 4725,
      "Ġplat": 4726,
      "iration": 4727,
      "amÃ©li": 4728,
      "ecte": 4729,
      "ive": 4730,
      "Ġinti": 4731,
      "Ã©rant": 4732,
      "Ġfromage": 4733,
      "Ġamour": 4734,
      "Ġgren": 4735,
      "oyÃ©e": 4736,
      "oles": 4737,
      "Ġexig": 4738,
      "Ġjusti": 4739,
      "Ġmangent": 4740,
      "Ġimpliqu": 4741,
      "Ġliqu": 4742,
      "Ġpleure": 4743,
      "Ġpartit": 4744,
      "Ġpartager": 4745,
      "Ġpetites": 4746,
      "Ġtravaillent": 4747,
      "Ġadop": 4748,
      "Ġtomba": 4749,
      "ĠJackson": 4750,
      "Ġcertaines": 4751,
      "Ġforc": 4752,
      "Ġfich": 4753,
      "Rev": 4754,
      "Ġretourne": 4755,
      "Ġphotog": 4756,
      "ĠÃ©poque": 4757,
      "Ġdisposer": 4758,
      "ĠÃ©gard": 4759,
      "Ġoffert": 4760,
      "Ġparcour": 4761,
      "Ġrepro": 4762,
      "Ġplaint": 4763,
      "Ġanimal": 4764,
      "Ġravie": 4765,
      "Ġinformation": 4766,
      "Ġfacture": 4767,
      "ĠhabituÃ©e": 4768,
      "Ġnerveuse": 4769,
      "ĠpressÃ©": 4770,
      "ordinateur": 4771,
      "ĠdÃ©primÃ©": 4772,
      "Ġsoudaine": 4773,
      "Retour": 4774,
      "Ġcurieux": 4775,
      "Ġplaisanter": 4776,
      "Ġexcellent": 4777,
      "Ġsaoul": 4778,
      "irmiÃ¨re": 4779,
      "Ac": 4780,
      "HÃ©": 4781,
      "Per": 4782,
      "Sel": 4783,
      "bri": 4784,
      "cture": 4785,
      "fie": 4786,
      "moin": 4787,
      "ĠcÃ©rÃ©": 4788,
      "quÃªte": 4789,
      "anse": 4790,
      "Ġfe": 4791,
      "Ġbanc": 4792,
      "Ġroses": 4793,
      "Ġracc": 4794,
      "orde": 4795,
      "Ã©tude": 4796,
      "ĠtraÃ®": 4797,
      "sey": 4798,
      "Ġparmi": 4799,
      "rique": 4800,
      "ouvre": 4801,
      "Ġtouche": 4802,
      "ĠÃ©lÃ©g": 4803,
      "Ġfront": 4804,
      "terie": 4805,
      "Ġpartici": 4806,
      "ĠdeuxiÃ¨me": 4807,
      "Ġcache": 4808,
      "ĠcompliquÃ©": 4809,
      "ignit": 4810,
      "Ġlongs": 4811,
      "ducation": 4812,
      "Ġsentie": 4813,
      "ĠvisitÃ©": 4814,
      "Env": 4815,
      "Ġpuisses": 4816,
      "illon": 4817,
      "ĠdÃ©pÃª": 4818,
      "ĠdÃ©pÃªcher": 4819,
      "aimais": 4820,
      "Ġrefuser": 4821,
      "Parlons": 4822,
      "Ġparfaite": 4823,
      "ĠprÃ©sentÃ©": 4824,
      "Ġservir": 4825,
      "ĠrencontrÃ©es": 4826,
      "ĠdÃ©rangerait": 4827,
      "ograph": 4828,
      "Ġsuffisant": 4829,
      "Ġressens": 4830,
      "Ġenvirons": 4831,
      "Ġdescendre": 4832,
      "Ġentendue": 4833,
      "Ġatteindre": 4834,
      "appellerai": 4835,
      "Ġsouper": 4836,
      "Ġrompu": 4837,
      "Jusqu": 4838,
      "Ġfailli": 4839,
      "censeur": 4840,
      "Cessez": 4841,
      "Selon": 4842,
      "th": 4843,
      "tÃ©e": 4844,
      "aid": 4845,
      "onde": 4846,
      "Ġcre": 4847,
      "Ġache": 4848,
      "ern": 4849,
      "ertÃ©": 4850,
      "Ġtante": 4851,
      "Ġvain": 4852,
      "Ġquarti": 4853,
      "oide": 4854,
      "Ġfle": 4855,
      "Ġjoli": 4856,
      "Ġcein": 4857,
      "ust": 4858,
      "Ã©tique": 4859,
      "auff": 4860,
      "onsieur": 4861,
      "cipit": 4862,
      "ĠauprÃ¨s": 4863,
      "Ġgal": 4864,
      "Ġhyp": 4865,
      "ĠdÃ©rob": 4866,
      "Ġprot": 4867,
      "Ġair": 4868,
      "Ġaimerais": 4869,
      "ĠarriÃ¨re": 4870,
      "Ġdisiez": 4871,
      "Ġtravailles": 4872,
      "ĠillÃ©g": 4873,
      "ĠprÃ©cipit": 4874,
      "Ġpassait": 4875,
      "Ġenfance": 4876,
      "tra": 4877,
      "ĠderniÃ¨res": 4878,
      "Assey": 4879,
      "Ġveuillez": 4880,
      "Ġblag": 4881,
      "ĠempÃª": 4882,
      "Ġcoups": 4883,
      "Ġrappelles": 4884,
      "Ġterme": 4885,
      "ĠprÃ©sence": 4886,
      "oncÃ©": 4887,
      "issant": 4888,
      "Ġouvrit": 4889,
      "Prom": 4890,
      "Ġchatte": 4891,
      "ĠrentrÃ©e": 4892,
      "utiliser": 4893,
      "Ġalent": 4894,
      "Ġefficace": 4895,
      "Parle": 4896,
      "Ġvivons": 4897,
      "ĠutilisÃ©": 4898,
      "Desc": 4899,
      "Ġmortes": 4900,
      "Ġrater": 4901,
      "Ġsouffle": 4902,
      "Ġcesser": 4903,
      "ĠlÃ©ger": 4904,
      "Devrais": 4905,
      "Ġpardonner": 4906,
      "ĠprogrÃ¨s": 4907,
      "ĠdifficultÃ©": 4908,
      "interromp": 4909,
      "Ġtendance": 4910,
      "Ġrejoindre": 4911,
      "Ġcapitale": 4912,
      "ĠinvitÃ©e": 4913,
      "Ġlimite": 4914,
      "Ġrenvers": 4915,
      "Ġtiroir": 4916,
      "ĠÃ©norme": 4917,
      "Ġpoursuiv": 4918,
      "Disposez": 4919,
      "Heure": 4920,
      "Passez": 4921,
      "Toute": 4922,
      "gique": 4923,
      "humeur": 4924,
      "ption": 4925,
      "tent": 4926,
      "uf": 4927,
      "Ġ8": 4928,
      "ĠV": 4929,
      "Ġeur": 4930,
      "Ġdors": 4931,
      "aiment": 4932,
      "Ġlou": 4933,
      "once": 4934,
      "Ġcraign": 4935,
      "Ġcoiff": 4936,
      "Ġtenue": 4937,
      "Ġmati": 4938,
      "ĠbÃªte": 4939,
      "Ġbague": 4940,
      "chette": 4941,
      "Ġauquel": 4942,
      "Ġplaign": 4943,
      "Ġgor": 4944,
      "Ġtelles": 4945,
      "Ġallions": 4946,
      "Ġallong": 4947,
      "Compr": 4948,
      "Ġfroide": 4949,
      "Ġsaison": 4950,
      "Ġcrise": 4951,
      "ĠbeautÃ©": 4952,
      "Ġcommettre": 4953,
      "Ġimpression": 4954,
      "Ġcourut": 4955,
      "Ġlic": 4956,
      "Ã©cut": 4957,
      "Avant": 4958,
      "Ġmanif": 4959,
      "Ġreviens": 4960,
      "ĠempÃªcher": 4961,
      "Ġconduite": 4962,
      "Ġpoches": 4963,
      "Ġrende": 4964,
      "Ġrendrai": 4965,
      "idence": 4966,
      "ĠprÃ©fÃ¨res": 4967,
      "Ġremonter": 4968,
      "Ġmontra": 4969,
      "Ġfuri": 4970,
      "Ġmoqu": 4971,
      "oixante": 4972,
      "ĠrÃ©veillÃ©e": 4973,
      "Ã¯n": 4974,
      "ĠenseignÃ©": 4975,
      "Ġfrapper": 4976,
      "Ġsemblent": 4977,
      "ĠrÃ©alisÃ©": 4978,
      "Ġnuages": 4979,
      "ennemi": 4980,
      "Ġparlait": 4981,
      "ĠrecommandÃ©": 4982,
      "ĠmÃ©th": 4983,
      "Ġbienvenu": 4984,
      "monie": 4985,
      "Ġusage": 4986,
      "Ġexamens": 4987,
      "Ġlourd": 4988,
      "ĠhÃ©ros": 4989,
      "Ġtreize": 4990,
      "Ġescaliers": 4991,
      "Ġchaussettes": 4992,
      "Cesse": 4993,
      "Lui": 4994,
      "Rec": 4995,
      "amp": 4996,
      "uler": 4997,
      "Ġtat": 4998,
      "Ġmous": 4999,
      "ĠmÃª": 5000,
      "ĠmÃªmes": 5001,
      "ome": 5002,
      "eures": 5003,
      "Ġbais": 5004,
      "Ã©tage": 5005,
      "Ã©tagÃ¨re": 5006,
      "aviez": 5007,
      "onneur": 5008,
      "rim": 5009,
      "Ġhistoires": 5010,
      "ĠdÃ©l": 5011,
      "onnement": 5012,
      "ortun": 5013,
      "ĠrÃ©cup": 5014,
      "Comp": 5015,
      "Ġarrang": 5016,
      "diez": 5017,
      "Ġserp": 5018,
      "Ġsable": 5019,
      "Ġsachiez": 5020,
      "aissance": 5021,
      "ĠtrouvÃ©e": 5022,
      "Ġmalch": 5023,
      "Ã©cris": 5024,
      "guÃ©": 5025,
      "ĠrÃ©pondit": 5026,
      "Ġcoupe": 5027,
      "uves": 5028,
      "Ġexpert": 5029,
      "Ġinstituteur": 5030,
      "Ġcapables": 5031,
      "ĠamusÃ©e": 5032,
      "ĠthÃ©Ã¢tre": 5033,
      "Ġweb": 5034,
      "oublierai": 5035,
      "Ġprudentes": 5036,
      "ĠhÃ´pital": 5037,
      "Ġlarge": 5038,
      "Ġregretter": 5039,
      "ĠtraitÃ©": 5040,
      "ĠdÃ©goÃ»": 5041,
      "Ġbleue": 5042,
      "achÃ¨ter": 5043,
      "Ġbillets": 5044,
      "ĠmÃ©dicaments": 5045,
      "Ãītais": 5046,
      "Ġailleurs": 5047,
      "llemagne": 5048,
      "Ġaugmentation": 5049,
      "ĠKyoto": 5050,
      "Ġbienvenue": 5051,
      "Croyez": 5052,
      "Ġoppos": 5053,
      "Essayons": 5054,
      "Ġoreilles": 5055,
      "ĠdÃ©cÃ©dÃ©": 5056,
      "ĠpoupÃ©e": 5057,
      "Ġsimil": 5058,
      "Ġparticiper": 5059,
      "Sommes": 5060,
      "citÃ©": 5061,
      "ionne": 5062,
      "ni": 5063,
      "Ġais": 5064,
      "ĠCe": 5065,
      "Ġdor": 5066,
      "ouille": 5067,
      "Ġlo": 5068,
      "Ġsout": 5069,
      "Ġcasse": 5070,
      "Ġnatif": 5071,
      "estion": 5072,
      "isions": 5073,
      "ĠlavÃ©": 5074,
      "Ġlecture": 5075,
      "ĠrÃ´le": 5076,
      "ind": 5077,
      "Ġpourrai": 5078,
      "Ġaurions": 5079,
      "riel": 5080,
      "ama": 5081,
      "oint": 5082,
      "Ġsurve": 5083,
      "ĠcongÃ©s": 5084,
      "uiss": 5085,
      "Ġarmes": 5086,
      "Ã»t": 5087,
      "ĠcrÃ¨me": 5088,
      "Ġtravaillez": 5089,
      "Ġparticip": 5090,
      "ĠprÃ©nom": 5091,
      "Ġpassa": 5092,
      "Ġcomplet": 5093,
      "ordre": 5094,
      "ĠÃ©cras": 5095,
      "Ġjoues": 5096,
      "Ġjouait": 5097,
      "onges": 5098,
      "oreille": 5099,
      "Ġblanche": 5100,
      "ĠcoÃ¯n": 5101,
      "obÃ©": 5102,
      "loge": 5103,
      "ĠfatiguÃ©es": 5104,
      "Ġdouz": 5105,
      "erreurs": 5106,
      "ĠÃ©tudiante": 5107,
      "Ġfamilier": 5108,
      "Ġpoints": 5109,
      "ĠdÃ©bat": 5110,
      "ĠdiffÃ©rents": 5111,
      "ĠexcitÃ©": 5112,
      "session": 5113,
      "ĠdÃ®nÃ©": 5114,
      "Ã©poque": 5115,
      "Ġmode": 5116,
      "ĠgÃ©nie": 5117,
      "ĠdotÃ©": 5118,
      "ĠÃ©gal": 5119,
      "attendrai": 5120,
      "Ġsouri": 5121,
      "Ġproduits": 5122,
      "Ġcrimine": 5123,
      "Apporte": 5124,
      "Ġcopie": 5125,
      "Trouv": 5126,
      "ĠempruntÃ©": 5127,
      "Ġsympath": 5128,
      "ĠÃ©pousÃ©": 5129,
      "Ġfassions": 5130,
      "Ġcolline": 5131,
      "ĠnÃ©goci": 5132,
      "Ġrespecter": 5133,
      "Ġleva": 5134,
      "Ġinvitation": 5135,
      "Ġambiti": 5136,
      "Ġpersuader": 5137,
      "Ġcuisinier": 5138,
      "ĠfumÃ©e": 5139,
      "Ġcommerci": 5140,
      "Ġneiger": 5141,
      "Ġtarte": 5142,
      "Ġgentillesse": 5143,
      "Ġdisponible": 5144,
      "Ġceinture": 5145,
      "Aid": 5146,
      "Ouv": 5147,
      "cis": 5148,
      "lou": 5149,
      "och": 5150,
      "rasse": 5151,
      "ueur": 5152,
      "vres": 5153,
      "Ġ6": 5154,
      "Ġdanse": 5155,
      "onf": 5156,
      "Ġmeu": 5157,
      "Ġviennes": 5158,
      "Ġpaquet": 5159,
      "anou": 5160,
      "anches": 5161,
      "Ġfabri": 5162,
      "estre": 5163,
      "ĠleÃ§on": 5164,
      "Ġbomb": 5165,
      "order": 5166,
      "Ã©tiez": 5167,
      "Ġchances": 5168,
      "Ġparte": 5169,
      "chent": 5170,
      "ĠgÃ©": 5171,
      "ĠtouchÃ©": 5172,
      "Ġrelation": 5173,
      "Ġrecevoir": 5174,
      "alifi": 5175,
      "Ġproc": 5176,
      "Ġdeviner": 5177,
      "lier": 5178,
      "Ġing": 5179,
      "Ġinjus": 5180,
      "endrez": 5181,
      "Ġcondu": 5182,
      "Ġgrav": 5183,
      "Ġtrouves": 5184,
      "Ġrestez": 5185,
      "Ġcontrib": 5186,
      "Ġcourte": 5187,
      "Ġposter": 5188,
      "Ġbruy": 5189,
      "Ġbrouill": 5190,
      "ĠdÃ©tail": 5191,
      "attention": 5192,
      "Ġphy": 5193,
      "Ġraisonnable": 5194,
      "Ġrappelez": 5195,
      "ĠblessÃ©es": 5196,
      "Ġpression": 5197,
      "ĠchantÃ©": 5198,
      "ĠÃ¢gÃ©e": 5199,
      "apprÃ©cierais": 5200,
      "Ġconcent": 5201,
      "Ġconclus": 5202,
      "empl": 5203,
      "Ġcinquante": 5204,
      "ĠconfÃ©rence": 5205,
      "Ġembrasser": 5206,
      "Ġsouris": 5207,
      "Ġconnaissent": 5208,
      "Ġconnaissons": 5209,
      "Appr": 5210,
      "ĠÃ©viter": 5211,
      "Ġfrappa": 5212,
      "ĠautorisÃ©e": 5213,
      "ĠautorisÃ©s": 5214,
      "Ġdistrib": 5215,
      "Ġdistingu": 5216,
      "Ġrisques": 5217,
      "Ġinterromp": 5218,
      "Ġessaie": 5219,
      "Demand": 5220,
      "Ġclients": 5221,
      "Ġchanceuse": 5222,
      "ĠcessÃ©": 5223,
      "inquiÃ©ter": 5224,
      "issement": 5225,
      "Ġski": 5226,
      "arrÃªta": 5227,
      "Ġsoudain": 5228,
      "Ġpuni": 5229,
      "Ġprisonniers": 5230,
      "EspÃ©rons": 5231,
      "ĠloupÃ©": 5232,
      "ĠÃ©chappÃ©": 5233,
      "Ġrelig": 5234,
      "Ã©conomie": 5235,
      "Ġmondiale": 5236,
      "Ġconsulter": 5237,
      "Ġquotidiennement": 5238,
      "Ġphotograph": 5239,
      "Ġquartier": 5240,
      "Seriez": 5241,
      "bum": 5242,
      "dent": 5243,
      "fond": 5244,
      "irez": 5245,
      "ju": 5246,
      "ĠlÃ¢": 5247,
      "Ġcla": 5248,
      "Ġten": 5249,
      "ĠtÃ¢che": 5250,
      "Ġmaire": 5251,
      "ĠmÃ©tÃ©": 5252,
      "Ġmettez": 5253,
      "Ġnaissance": 5254,
      "Ġpatr": 5255,
      "isÃ©es": 5256,
      "Ġrasse": 5257,
      "Ġenle": 5258,
      "ĠchÃ¢teau": 5259,
      "Ġparlais": 5260,
      "chauff": 5261,
      "Ġtech": 5262,
      "irurg": 5263,
      "attraper": 5264,
      "Ġsite": 5265,
      "ĠÃ©par": 5266,
      "prouv": 5267,
      "Ġfruit": 5268,
      "Ġdirectement": 5269,
      "Ġentra": 5270,
      "rÃ©es": 5271,
      "Ġtrouva": 5272,
      "Ġferas": 5273,
      "Ġmalin": 5274,
      "Ã´tres": 5275,
      "ignes": 5276,
      "ĠdÃ©ton": 5277,
      "Ġlongues": 5278,
      "Ġsentait": 5279,
      "Ġsentit": 5280,
      "Ġregardes": 5281,
      "Ġcherches": 5282,
      "Ġrappe": 5283,
      "obile": 5284,
      "Ġremise": 5285,
      "cidents": 5286,
      "Ãīte": 5287,
      "Ġvivait": 5288,
      "Ġ100": 5289,
      "Ġagit": 5290,
      "Ġfautes": 5291,
      "lications": 5292,
      "Ġimportantes": 5293,
      "Cher": 5294,
      "ĠfonctionnÃ©": 5295,
      "Appelez": 5296,
      "Ġsatisfaite": 5297,
      "occupe": 5298,
      "Ġcharm": 5299,
      "Ġperds": 5300,
      "ĠrÃ©aliser": 5301,
      "Ġvalises": 5302,
      "Ġplainte": 5303,
      "Ãīcrivez": 5304,
      "ĠrÃ©gler": 5305,
      "ĠracontÃ©": 5306,
      "ĠallumÃ©": 5307,
      "Ġdestin": 5308,
      "ĠdÃ©mÃ©nagÃ©": 5309,
      "ĠÃ©crivain": 5310,
      "Ġcapitaine": 5311,
      "ĠdÃ©sire": 5312,
      "ĠannulÃ©": 5313,
      "Ġconstamment": 5314,
      "Ġsembla": 5315,
      "Ġ201": 5316,
      "Ġassurance": 5317,
      "ĠdÃ©pourvu": 5318,
      "Ġscientifique": 5319,
      "Ġclef": 5320,
      "Ġliquide": 5321,
      "Ġlicen": 5322,
      "ĠcoÃ¯ncid": 5323,
      "Ġbrouillard": 5324,
      "Aide": 5325,
      "cles": 5326,
      "gts": 5327,
      "ice": 5328,
      "ji": 5329,
      "lie": 5330,
      "ros": 5331,
      "vÃ©s": 5332,
      "Ġ9": 5333,
      "Ġos": 5334,
      "Ġdrap": 5335,
      "ĠsonnÃ©": 5336,
      "ĠmÃ©c": 5337,
      "Ġquar": 5338,
      "entendu": 5339,
      "Ġfirent": 5340,
      "isa": 5341,
      "isent": 5342,
      "Ġuns": 5343,
      "Ġrit": 5344,
      "Ġramen": 5345,
      "ina": 5346,
      "Ã©taient": 5347,
      "Ġchand": 5348,
      "ĠdÃ©fi": 5349,
      "aler": 5350,
      "ectÃ©": 5351,
      "Ġprodu": 5352,
      "Ġsieste": 5353,
      "lions": 5354,
      "Ġsurp": 5355,
      "Ġintr": 5356,
      "ĠindÃ©": 5357,
      "Laquelle": 5358,
      "Ġdemie": 5359,
      "dire": 5360,
      "Ã®le": 5361,
      "Ġexige": 5362,
      "Ġferons": 5363,
      "Ġcad": 5364,
      "Ġarrivent": 5365,
      "Ġdemandes": 5366,
      "Ġdemandais": 5367,
      "Ġpossession": 5368,
      "ĠtÃ©moin": 5369,
      "Ġportez": 5370,
      "ĠtroisiÃ¨me": 5371,
      "Ġmeilleures": 5372,
      "quip": 5373,
      "ĠremÃ¨de": 5374,
      "ĠdouÃ©": 5375,
      "Ġinst": 5376,
      "Ġquitte": 5377,
      "ieds": 5378,
      "Ġverti": 5379,
      "Ġmourut": 5380,
      "ĠdÃ©rangÃ©": 5381,
      "Ġsalade": 5382,
      "ĠreprÃ©s": 5383,
      "ĠÃ©vident": 5384,
      "Ġcharger": 5385,
      "Ġpapa": 5386,
      "Ġhauteur": 5387,
      "ĠvÃ©rifiÃ©": 5388,
      "Ġcambri": 5389,
      "Ġhorreur": 5390,
      "DÃ©solÃ©e": 5391,
      "mÃ©ric": 5392,
      "Ġmensonges": 5393,
      "Ġaimeriez": 5394,
      "Ġformulaire": 5395,
      "ĠconsidÃ©rÃ©": 5396,
      "ĠparticuliÃ¨rement": 5397,
      "article": 5398,
      "Ġjalouse": 5399,
      "ĠquantitÃ©": 5400,
      "ĠpossibilitÃ©s": 5401,
      "ĠÃ©nervÃ©": 5402,
      "Ġbaisser": 5403,
      "Ġpratiquement": 5404,
      "ĠsupplÃ©mentaire": 5405,
      "ĠpÃ©nÃ©trer": 5406,
      "Ġchauffeur": 5407,
      "Ġhurler": 5408,
      "ĠmÃ©decins": 5409,
      "Ġdocument": 5410,
      "Ġinstructions": 5411,
      "Ġparesseux": 5412,
      "Ġchandail": 5413,
      "Bon": 5414,
      "Ceux": 5415,
      "It": 5416,
      "Oui": 5417,
      "Tour": 5418,
      "die": 5419,
      "gÃ©t": 5420,
      "huit": 5421,
      "neur": 5422,
      "ow": 5423,
      "sc": 5424,
      "xte": 5425,
      "Ã©reux": 5426,
      "Ġlouer": 5427,
      "Ġsaut": 5428,
      "Ġajouter": 5429,
      "Ġmaman": 5430,
      "Ġvilles": 5431,
      "Ġpassi": 5432,
      "aison": 5433,
      "estomac": 5434,
      "teau": 5435,
      "Ġlampe": 5436,
      "Ġbasse": 5437,
      "Ġrang": 5438,
      "Ġride": 5439,
      "Ġrues": 5440,
      "inte": 5441,
      "armÃ©e": 5442,
      "ĠchÃ¨": 5443,
      "aud": 5444,
      "Ġparla": 5445,
      "aver": 5446,
      "cement": 5447,
      "Ġaurons": 5448,
      "Ġhe": 5449,
      "Ġheur": 5450,
      "ĠdÃ©velopp": 5451,
      "Ġrequ": 5452,
      "Ġprocu": 5453,
      "ĠvotÃ©": 5454,
      "urÃ©": 5455,
      "Ġinhabitue": 5456,
      "Ã©rÃ©s": 5457,
      "Ġcroyez": 5458,
      "Ġcriti": 5459,
      "appel": 5460,
      "Ġesprit": 5461,
      "Ġdirecteur": 5462,
      "Ġapporter": 5463,
      "ĠrestÃ©s": 5464,
      "Ġmalentendu": 5465,
      "Ġcourriel": 5466,
      "ades": 5467,
      "addition": 5468,
      "ĠfranÃ§aise": 5469,
      "ignez": 5470,
      "ĠmaniÃ¨res": 5471,
      "Ġpartage": 5472,
      "ĠmÃ©n": 5473,
      "ĠmÃ©pr": 5474,
      "imm": 5475,
      "Ġreviendra": 5476,
      "ĠgarÃ©": 5477,
      "aiderai": 5478,
      "Ġterr": 5479,
      "Ġproches": 5480,
      "PrÃ©s": 5481,
      "Ãītu": 5482,
      "utilise": 5483,
      "Ġchevaux": 5484,
      "Ġinsp": 5485,
      "ĠplanÃ¨te": 5486,
      "ĠrÃªver": 5487,
      "Ġapparence": 5488,
      "Apportez": 5489,
      "envoyer": 5490,
      "Ġcadeaux": 5491,
      "Ġordinateurs": 5492,
      "ĠrÃ©flÃ©chi": 5493,
      "Ġperdue": 5494,
      "Ġromans": 5495,
      "ĠdÃ©faut": 5496,
      "Ġdoigts": 5497,
      "Ġcamar": 5498,
      "Ġrempla": 5499,
      "Ġrempli": 5500,
      "Ġcorrect": 5501,
      "ĠemployÃ©s": 5502,
      "Ġclient": 5503,
      "Ġpoulet": 5504,
      "Ġaccompli": 5505,
      "ĠÃ©clair": 5506,
      "Ġnavig": 5507,
      "ĠcontrariÃ©e": 5508,
      "Continu": 5509,
      "Ġretrouver": 5510,
      "Ġmarchand": 5511,
      "ĠlibertÃ©": 5512,
      "DÃ©pÃª": 5513,
      "Ġtapis": 5514,
      "ĠcensÃ©e": 5515,
      "Assure": 5516,
      "Ġennemi": 5517,
      "Ġremercie": 5518,
      "herbe": 5519,
      "ĠdÃ©coll": 5520,
      "ĠblÃ¢mer": 5521,
      "Ġridicule": 5522,
      "Ġbaiser": 5523,
      "Ġpatronne": 5524,
      "ĠcoÃ¯ncidence": 5525,
      "..": 5526,
      "Mais": 5527,
      "Non": 5528,
      "Pendant": 5529,
      "Se": 5530,
      "bon": 5531,
      "pendant": 5532,
      "Ġ4": 5533,
      "ĠW": 5534,
      "ĠPourquoi": 5535,
      "Ġurgence": 5536,
      "Ġps": 5537,
      "Ġpois": 5538,
      "oue": 5539,
      "Ġsin": 5540,
      "Ġsain": 5541,
      "Ġscol": 5542,
      "Ġsoixante": 5543,
      "reuses": 5544,
      "Ġcardi": 5545,
      "Ġap": 5546,
      "ĠaussitÃ´t": 5547,
      "Ġtente": 5548,
      "Ġmas": 5549,
      "Ġnag": 5550,
      "Ġpauvres": 5551,
      "ĠfÃ»mes": 5552,
      "eule": 5553,
      "unes": 5554,
      "ili": 5555,
      "Ġenreg": 5556,
      "Ġparoles": 5557,
      "dem": 5558,
      "ĠdÃ©pos": 5559,
      "ĠcomitÃ©": 5560,
      "atte": 5561,
      "angez": 5562,
      "Ġquels": 5563,
      "Ġsurf": 5564,
      "enseign": 5565,
      "Ã©rateur": 5566,
      "apa": 5567,
      "opri": 5568,
      "Ġsavaient": 5569,
      "outons": 5570,
      "Ġtrouvent": 5571,
      "Ġparties": 5572,
      "Ġpassag": 5573,
      "Ġcauser": 5574,
      "Ã¢t": 5575,
      "Ġcontents": 5576,
      "Ã´ts": 5577,
      "Ġfaisiez": 5578,
      "ĠrÃ©parÃ©": 5579,
      "Ġvieill": 5580,
      "Ã©cart": 5581,
      "ĠcomprÃ©hens": 5582,
      "Ġdonnez": 5583,
      "Ġlaisses": 5584,
      "Ġmath": 5585,
      "Ġregardez": 5586,
      "ituer": 5587,
      "Ġgarant": 5588,
      "Ġtravaillons": 5589,
      "Ġapprend": 5590,
      "Ġconditions": 5591,
      "ĠhabillÃ©": 5592,
      "Ġmenteuse": 5593,
      "mire": 5594,
      "Ġtableaux": 5595,
      "Ġconcerne": 5596,
      "Ġonze": 5597,
      "Ġvenait": 5598,
      "Ġconfortable": 5599,
      "ĠÃ©trangÃ¨res": 5600,
      "Ġmoque": 5601,
      "ĠÃ©goÃ¯": 5602,
      "Ġagir": 5603,
      "ĠrÃ©frig": 5604,
      "Ġcontinua": 5605,
      "Ġtromper": 5606,
      "ĠmentionnÃ©": 5607,
      "Ġsuperbe": 5608,
      "ĠretirÃ©": 5609,
      "Ġpolit": 5610,
      "ifiques": 5611,
      "ĠvolontÃ©": 5612,
      "Ġnaturel": 5613,
      "Ġcherchais": 5614,
      "offe": 5615,
      "Ġlocuteur": 5616,
      "Ġpreuves": 5617,
      "ĠdÃ©licieux": 5618,
      "aka": 5619,
      "DÃ©pÃªche": 5620,
      "ĠscÃ¨ne": 5621,
      "Ġmiracle": 5622,
      "ĠdiplÃ´mÃ©": 5623,
      "aucun": 5624,
      "ĠamenÃ©": 5625,
      "Ġobjectif": 5626,
      "Ġlogique": 5627,
      "Ġcorriger": 5628,
      "Angleterre": 5629,
      "ĠmatiÃ¨re": 5630,
      "ĠingÃ©n": 5631,
      "Ġ2013": 5632,
      "Italie": 5633,
      "Ġhein": 5634,
      "ĠÃ©goÃ¯s": 5635,
      "Allemagne": 5636,
      "Du": 5637,
      "RÃ©p": 5638,
      "ctes": 5639,
      "frique": 5640,
      "gies": 5641,
      "itement": 5642,
      "Ġ:": 5643,
      "Ġpomp": 5644,
      "ĠpÃªche": 5645,
      "ailles": 5646,
      "ouff": 5647,
      "Ġlent": 5648,
      "ĠlÃ¢che": 5649,
      "Ġlignes": 5650,
      "Ã¨ce": 5651,
      "Ã¨ner": 5652,
      "itation": 5653,
      "inet": 5654,
      "orig": 5655,
      "oritÃ©": 5656,
      "Ġprati": 5657,
      "Ġchirurg": 5658,
      "choir": 5659,
      "Ġplant": 5660,
      "ascenseur": 5661,
      "agÃ©e": 5662,
      "ueil": 5663,
      "Ġsigner": 5664,
      "lÃ©ph": 5665,
      "ĠrÃ©col": 5666,
      "Commen": 5667,
      "dies": 5668,
      "Ġappuy": 5669,
      "Ġvirer": 5670,
      "Ġpartiel": 5671,
      "Ġmarteau": 5672,
      "Ġcommande": 5673,
      "ĠrÃ©par": 5674,
      "allon": 5675,
      "Ġretenir": 5676,
      "Ġbros": 5677,
      "udes": 5678,
      "ĠmÃ©chant": 5679,
      "accus": 5680,
      "obtenir": 5681,
      "Ġconseille": 5682,
      "Ġexpliqu": 5683,
      "Ġcroiss": 5684,
      "Ġdoulou": 5685,
      "lÃ¨ve": 5686,
      "aleine": 5687,
      "Ġouvrage": 5688,
      "Ġpersonn": 5689,
      "ĠvÃ©hi": 5690,
      "Ġalbum": 5691,
      "ĠretournÃ©": 5692,
      "ĠprÃ©venir": 5693,
      "ĠAmÃ©ric": 5694,
      "emporter": 5695,
      "Ġ16": 5696,
      "Ġgentils": 5697,
      "Ġsolaire": 5698,
      "Ġmoder": 5699,
      "Ġsourit": 5700,
      "Ġdessert": 5701,
      "Ġcrier": 5702,
      "Ġoffens": 5703,
      "envers": 5704,
      "Ġirons": 5705,
      "Ġressour": 5706,
      "ĠsupposÃ©e": 5707,
      "Ġpermet": 5708,
      "Trois": 5709,
      "Ãīcris": 5710,
      "ĠLune": 5711,
      "Ã©chec": 5712,
      "Ġsatisfaits": 5713,
      "ĠemployÃ©": 5714,
      "Ġconvaincue": 5715,
      "ĠprÃ©fÃ©rable": 5716,
      "Ġcuill": 5717,
      "Ġchangements": 5718,
      "Ġmouchoir": 5719,
      "ĠÃ©teindre": 5720,
      "Ġscience": 5721,
      "ĠbrÃ»lÃ©": 5722,
      "Ġmerveilleuse": 5723,
      "ĠfermÃ©s": 5724,
      "neuf": 5725,
      "Ġtalentu": 5726,
      "ĠmÃ©rit": 5727,
      "admets": 5728,
      "Espagne": 5729,
      "Ġmiroir": 5730,
      "abandonner": 5731,
      "aucune": 5732,
      "ĠÃ©puisÃ©": 5733,
      "Ã©tudiants": 5734,
      "ĠÃ©toiles": 5735,
      "Ġemmener": 5736,
      "ternet": 5737,
      "ĠinventÃ©": 5738,
      "ĠsupÃ©ri": 5739,
      "endormir": 5740,
      "Ġsoudainement": 5741,
      "Perm": 5742,
      "ĠcÃ©rÃ©monie": 5743,
      "Ġfleuve": 5744,
      "Ġblagues": 5745,
      "Ġmalchanc": 5746,
      "Ġmeubles": 5747,
      "Ġpassagers": 5748,
      "ĠrÃ©frigÃ©rateur": 5749,
      "CommenÃ§ons": 5750,
      "Gr": 5751,
      "Pres": 5752,
      "ates": 5753,
      "jection": 5754,
      "kets": 5755,
      "lit": 5756,
      "lant": 5757,
      "lÃ©s": 5758,
      "mor": 5759,
      "oler": 5760,
      "serv": 5761,
      "saka": 5762,
      "uff": 5763,
      "Ġout": 5764,
      "Ã©an": 5765,
      "Ġsitue": 5766,
      "Ġmiens": 5767,
      "ĠmÃ¨tres": 5768,
      "ĠfÃ©": 5769,
      "lettes": 5770,
      "esti": 5771,
      "Ġlab": 5772,
      "Ġrose": 5773,
      "ormer": 5774,
      "Ġprenons": 5775,
      "Ġchu": 5776,
      "Ġchoc": 5777,
      "Ġplomb": 5778,
      "Ġgants": 5779,
      "ĠdÃ©cev": 5780,
      "agnes": 5781,
      "agissait": 5782,
      "ĠÃ©qu": 5783,
      "ĠsurvÃ©": 5784,
      "ĠamitiÃ©": 5785,
      "Ġdissi": 5786,
      "ĠserrÃ©": 5787,
      "apporter": 5788,
      "Ġesc": 5789,
      "ĠexprÃ¨s": 5790,
      "Ġferma": 5791,
      "Ġfaisaient": 5792,
      "espace": 5793,
      "ĠÃ©crite": 5794,
      "Ġaccidents": 5795,
      "Ã©cl": 5796,
      "Åĵufs": 5797,
      "ĠfaÃ§ons": 5798,
      "ĠclÃ´": 5799,
      "Ġcesse": 5800,
      "Ġsensible": 5801,
      "Ġreviend": 5802,
      "Ġamical": 5803,
      "Ġrendra": 5804,
      "Ġimage": 5805,
      "ĠpiÃ¨ge": 5806,
      "Ġforts": 5807,
      "ĠtÃ©lÃ©phonÃ©": 5808,
      "Ġaffam": 5809,
      "Ġportent": 5810,
      "Prenons": 5811,
      "ĠvÃ©gÃ©t": 5812,
      "Ġforces": 5813,
      "rog": 5814,
      "Ġmission": 5815,
      "Ġconcours": 5816,
      "Ġinviter": 5817,
      "emprun": 5818,
      "Ġsecours": 5819,
      "Ġstri": 5820,
      "Ġexact": 5821,
      "Ġconfir": 5822,
      "Ġdisposais": 5823,
      "Ġrouges": 5824,
      "ĠamusÃ©s": 5825,
      "Ġfoudre": 5826,
      "Ġabsence": 5827,
      "Ġcharge": 5828,
      "Ġaimons": 5829,
      "Ġinterpr": 5830,
      "Ġtrompe": 5831,
      "apprends": 5832,
      "Ġjeta": 5833,
      "Ġretira": 5834,
      "Ġignore": 5835,
      "ĠsuggÃ©rÃ©": 5836,
      "Plusieurs": 5837,
      "Ġimpressionn": 5838,
      "ĠimpressionnÃ©e": 5839,
      "Ġfascin": 5840,
      "Ġtransp": 5841,
      "ĠprÃ©fÃ©rez": 5842,
      "Ġpleurait": 5843,
      "ĠÃ©lÃ¨ve": 5844,
      "Ġtickets": 5845,
      "Ġmordu": 5846,
      "Ġaliment": 5847,
      "Ġterriblement": 5848,
      "Ġprofonde": 5849,
      "ĠprÃ©tend": 5850,
      "Ġcollecti": 5851,
      "Ġannuler": 5852,
      "Ġgrossier": 5853,
      "ĠÃ©clata": 5854,
      "ĠdÃ©truit": 5855,
      "Ġcousin": 5856,
      "Ġplafond": 5857,
      "ĠfrÃ©quence": 5858,
      "appartient": 5859,
      "Ġjustice": 5860,
      "ĠmÃ©thode": 5861,
      "Ġdouzaine": 5862,
      "Aidez": 5863,
      "Ouvrez": 5864,
      "Ġinjuste": 5865,
      "Ġressources": 5866,
      "Presque": 5867,
      "ĠsurvÃ©cu": 5868,
      "Ouvre": 5869,
      "RÃ©": 5870,
      "Toi": 5871,
      "honnÃªte": 5872,
      "heures": 5873,
      "mÃ¨ne": 5874,
      "rin": 5875,
      "roid": 5876,
      "ych": 5877,
      "Ġ\"": 5878,
      "Ġ7": 5879,
      "ĠEst": 5880,
      "Ġpur": 5881,
      "Ġpist": 5882,
      "Ã©ant": 5883,
      "Ã©ducation": 5884,
      "Ġsonne": 5885,
      "Ġcat": 5886,
      "Ġtaux": 5887,
      "Ġtenez": 5888,
      "ana": 5889,
      "sept": 5890,
      "avaient": 5891,
      "onnÃ¨rent": 5892,
      "Ãªter": 5893,
      "Ġgout": 5894,
      "ĠÃ©tasun": 5895,
      "mpl": 5896,
      "uira": 5897,
      "anges": 5898,
      "ĠrÃ©v": 5899,
      "ĠfraÃ®": 5900,
      "ots": 5901,
      "Ġcroir": 5902,
      "ĠentrÃ©e": 5903,
      "Ġanti": 5904,
      "Ġvaches": 5905,
      "Ġpassez": 5906,
      "abilitÃ©s": 5907,
      "Ġcontinue": 5908,
      "ĠarrivÃ©es": 5909,
      "ĠrÃ©put": 5910,
      "admire": 5911,
      "allait": 5912,
      "Ġjouez": 5913,
      "essayais": 5914,
      "Ġfinanci": 5915,
      "Ġpleuve": 5916,
      "ĠmatÃ©ri": 5917,
      "Ġfausse": 5918,
      "Ġenvoyer": 5919,
      "Ġconser": 5920,
      "ĠconsidÃ©": 5921,
      "ĠdÃ©cour": 5922,
      "Ġpaye": 5923,
      "fiÃ©e": 5924,
      "ocÃ©an": 5925,
      "Ġrendent": 5926,
      "idÃ©es": 5927,
      "Ġenseigner": 5928,
      "ĠtÃ©lÃ©phoner": 5929,
      "Ġrencontres": 5930,
      "Ġmontrerai": 5931,
      "ĠforcÃ©e": 5932,
      "Ġforcer": 5933,
      "adorerais": 5934,
      "Ġembau": 5935,
      "Ġarriverait": 5936,
      "ĠsÃ©v": 5937,
      "Ġstupides": 5938,
      "Ġsecrets": 5939,
      "Ġsurvivre": 5940,
      "Ġtenter": 5941,
      "Ġsoign": 5942,
      "Ġbattu": 5943,
      "Ġinterdit": 5944,
      "Ġrattraper": 5945,
      "Ġjuger": 5946,
      "ĠFu": 5947,
      "Ġsouhaitez": 5948,
      "ĠinquiÃ¨te": 5949,
      "Lorsqu": 5950,
      "ĠinformÃ©": 5951,
      "Ġintent": 5952,
      "ĠintÃ©rÃªt": 5953,
      "Ġaimerait": 5954,
      "Ġtransf": 5955,
      "ĠappelÃ©e": 5956,
      "Ġviolence": 5957,
      "Ġculture": 5958,
      "Ġincroyablement": 5959,
      "ĠdÃ©mÃ©nager": 5960,
      "lexe": 5961,
      "Ġprononcer": 5962,
      "Ġadmettre": 5963,
      "ĠengagÃ©": 5964,
      "Ġplaces": 5965,
      "entendis": 5966,
      "Ġexcellente": 5967,
      "Ġdomicile": 5968,
      "Ġopportun": 5969,
      "Ġponctuel": 5970,
      "Ġcigarette": 5971,
      "ĠfantÃ´mes": 5972,
      "Ġenvisager": 5973,
      "Ġmyst": 5974,
      "Ġprotest": 5975,
      "ĠillÃ©gal": 5976,
      "Ġalentours": 5977,
      "Ġphysique": 5978,
      "Ġdistinguer": 5979,
      "Ġlicenci": 5980,
      "Mange": 5981,
      "cent": 5982,
      "hous": 5983,
      "ia": 5984,
      "ias": 5985,
      "lam": 5986,
      "va": 5987,
      "vez": 5988,
      "ville": 5989,
      "Ġlus": 5990,
      "Ġlut": 5991,
      "Ġsienne": 5992,
      "Ġamp": 5993,
      "Ġaper": 5994,
      "Ġallemand": 5995,
      "Ġmun": 5996,
      "Ġmiel": 5997,
      "Ġniv": 5998,
      "Ġquas": 5999,
      "ĠqualitÃ©": 6000,
      "ĠfÃªtes": 6001,
      "omis": 6002,
      "ĠÃ®": 6003,
      "Ġballon": 6004,
      "Ġralent": 6005,
      "Ã¨tre": 6006,
      "iteur": 6007,
      "inconvÃ©nient": 6008,
      "Ã©toffe": 6009,
      "Ãªtu": 6010,
      "ĠdÃ©te": 6011,
      "agir": 6012,
      "Ġaid": 6013,
      "Ġvole": 6014,
      "Ġvoter": 6015,
      "oind": 6016,
      "ĠÃ©lu": 6017,
      "ĠrÃ©gu": 6018,
      "ĠrÃ©chauff": 6019,
      "Ġconte": 6020,
      "apacitÃ©": 6021,
      "Ġdisais": 6022,
      "Ġappl": 6023,
      "Ġvache": 6024,
      "Ġperp": 6025,
      "Ġattitude": 6026,
      "assur": 6027,
      "Ġimpuiss": 6028,
      "Ġconnait": 6029,
      "Ġconnue": 6030,
      "Ġacteur": 6031,
      "ĠdÃ©saccord": 6032,
      "ignorer": 6033,
      "Ġpull": 6034,
      "ĠpayÃ©e": 6035,
      "Ġregardait": 6036,
      "Ġreviendrai": 6037,
      "Enfin": 6038,
      "intÃ©rÃªt": 6039,
      "Ġadmis": 6040,
      "issue": 6041,
      "issante": 6042,
      "Ġdouble": 6043,
      "ĠretardÃ©": 6044,
      "Ġchanteuse": 6045,
      "Ġfiable": 6046,
      "Ġinsul": 6047,
      "Ġeffet": 6048,
      "habituer": 6049,
      "Arriv": 6050,
      "ĠCD": 6051,
      "Ġinconn": 6052,
      "Ġconfront": 6053,
      "Ġdira": 6054,
      "Ġplaisante": 6055,
      "ĠsautÃ©": 6056,
      "Ġgueule": 6057,
      "Ġsurprises": 6058,
      "ĠsignÃ©": 6059,
      "Ġoffici": 6060,
      "Ġcasser": 6061,
      "incapacitÃ©": 6062,
      "ĠobligÃ©s": 6063,
      "Ġpleuvait": 6064,
      "Ġpapiers": 6065,
      "ĠpubliÃ©": 6066,
      "Ġnoirs": 6067,
      "ĠjetÃ©": 6068,
      "Ã¨vement": 6069,
      "Ġhumains": 6070,
      "Ġsuggestion": 6071,
      "ĠchoquÃ©": 6072,
      "Ġendormie": 6073,
      "ĠprÃ©pare": 6074,
      "ĠmÃ©tro": 6075,
      "ĠprivÃ©e": 6076,
      "Ġtrico": 6077,
      "Ġmillions": 6078,
      "ĠarrÃªtÃ©e": 6079,
      "Continue": 6080,
      "Ġressenti": 6081,
      "Ġdestination": 6082,
      "Ġlourde": 6083,
      "accompagner": 6084,
      "Ġcruel": 6085,
      "ĠdÃ©roulÃ©": 6086,
      "ĠgrossiÃ¨re": 6087,
      "ĠpÃ¢le": 6088,
      "Ġeffectuer": 6089,
      "Ġdrogue": 6090,
      "ĠamÃ©ricain": 6091,
      "ĠcoÃ»tera": 6092,
      "Ġprofessionnel": 6093,
      "ĠaisÃ©": 6094,
      "ĠmÃ©tÃ©o": 6095,
      "Ġpsych": 6096,
      "ĠÃ©goÃ¯ste": 6097,
      "ĠvÃ©gÃ©tar": 6098,
      "housias": 6099,
      "Di": 6100,
      "DÃ©": 6101,
      "Dieu": 6102,
      "Fumer": 6103,
      "Lis": 6104,
      "Maman": 6105,
      "Oh": 6106,
      "Pos": 6107,
      "allemand": 6108,
      "ber": 6109,
      "cre": 6110,
      "ctron": 6111,
      "lor": 6112,
      "ran": 6113,
      "rants": 6114,
      "til": 6115,
      "ym": 6116,
      "Ġpeau": 6117,
      "Ġpel": 6118,
      "Ġdot": 6119,
      "aides": 6120,
      "Ã©l": 6121,
      "Ġlois": 6122,
      "ĠsÃ¨": 6123,
      "Ġsonner": 6124,
      "Ġciv": 6125,
      "ĠcÃ´t": 6126,
      "Ġcuire": 6127,
      "ĠtÃ¢": 6128,
      "Ġnord": 6129,
      "Ġqualifi": 6130,
      "aises": 6131,
      "aules": 6132,
      "Ġpartez": 6133,
      "endue": 6134,
      "endrier": 6135,
      "tive": 6136,
      "chon": 6137,
      "chait": 6138,
      "Ġgam": 6139,
      "Ġlesque": 6140,
      "ĠdÃ©lic": 6141,
      "Ġrel": 6142,
      "Ġcomb": 6143,
      "Ġdiam": 6144,
      "Ġdevenus": 6145,
      "Ġquelcon": 6146,
      "Ġallais": 6147,
      "enseigne": 6148,
      "Ġgram": 6149,
      "ĠgrÃ¢ce": 6150,
      "Ġcroient": 6151,
      "applique": 6152,
      "emmen": 6153,
      "encre": 6154,
      "Ġpassage": 6155,
      "Ġbonjour": 6156,
      "Ġcaf": 6157,
      "Ġact": 6158,
      "Ã©crit": 6159,
      "essayez": 6160,
      "Ġfinit": 6161,
      "Ġacheta": 6162,
      "Ġmaterne": 6163,
      "Ġessayez": 6164,
      "Ġapproche": 6165,
      "Ġcherchez": 6166,
      "Ġbouge": 6167,
      "obe": 6168,
      "ĠvoyagÃ©": 6169,
      "ĠexpÃ©ri": 6170,
      "Ġexplications": 6171,
      "Ġdoux": 6172,
      "Ġsurprendre": 6173,
      "Ġblessure": 6174,
      "Ġcorresp": 6175,
      "Ġpassera": 6176,
      "ifier": 6177,
      "habiller": 6178,
      "ennuyer": 6179,
      "Ġdispute": 6180,
      "Ġcontraire": 6181,
      "Ġincor": 6182,
      "ĠcÃ´te": 6183,
      "attendait": 6184,
      "ĠrÃ©flex": 6185,
      "Ġverres": 6186,
      "explos": 6187,
      "Ġmangea": 6188,
      "Ġraf": 6189,
      "ĠapprÃ©cier": 6190,
      "Ġdessin": 6191,
      "ĠespÃ©rons": 6192,
      "Ġsalon": 6193,
      "Ġoptions": 6194,
      "Ġcalcu": 6195,
      "ĠSaint": 6196,
      "Ġorig": 6197,
      "Ġpleuvra": 6198,
      "oiseau": 6199,
      "ĠÃ©levÃ©s": 6200,
      "Ġbatterie": 6201,
      "Ġaimait": 6202,
      "Ġmoral": 6203,
      "Ġsortis": 6204,
      "Ġlisez": 6205,
      "Ġimpatience": 6206,
      "Ġtraduit": 6207,
      "Ġtraduction": 6208,
      "Ġcorrecte": 6209,
      "ĠeffrayÃ©e": 6210,
      "azz": 6211,
      "Ġattir": 6212,
      "Ġentendit": 6213,
      "ĠpoussÃ©": 6214,
      "excuse": 6215,
      "ĠdÃ©testent": 6216,
      "ĠignorÃ©": 6217,
      "Ġrespecte": 6218,
      "Ġmeurt": 6219,
      "ĠsÃ©journÃ©": 6220,
      "offre": 6221,
      "ĠrÃ©duire": 6222,
      "Ġprisonnier": 6223,
      "Juste": 6224,
      "ĠdÃ©terminÃ©": 6225,
      "ĠsupplÃ©mentaires": 6226,
      "ĠpÃ©tro": 6227,
      "humour": 6228,
      "Ġkilom": 6229,
      "ĠfÃ¢chÃ©": 6230,
      "ĠÃ©toile": 6231,
      "Ã©lectri": 6232,
      "ĠnaÃ¯f": 6233,
      "ĠInternet": 6234,
      "Ġvictime": 6235,
      "Ġcourageux": 6236,
      "Ġjaune": 6237,
      "ĠpÃ©riode": 6238,
      "Ġferez": 6239,
      "Ġgorge": 6240,
      "Ġtatou": 6241,
      "ĠrÃ©cupÃ©rer": 6242,
      "Ġsimilaire": 6243,
      "Ġconducteur": 6244,
      "Demandez": 6245,
      "Ġquarante": 6246,
      "ĠreprÃ©sent": 6247,
      "ĠFuji": 6248,
      "Ġniveau": 6249,
      "ĠÃ®le": 6250,
      "ĠcÃ´tÃ©s": 6251,
      "Ġquelconques": 6252,
      "Europe": 6253,
      "MÃ¨re": 6254,
      "PÃ¨re": 6255,
      "Papa": 6256,
      "RÃ©f": 6257,
      "clÃ©": 6258,
      "nons": 6259,
      "otÃ©": 6260,
      "tout": 6261,
      "vard": 6262,
      "ĠLe": 6263,
      "Ġoses": 6264,
      "ĠPrÃ©s": 6265,
      "Ġpy": 6266,
      "Ġsonna": 6267,
      "Ġcis": 6268,
      "quez": 6269,
      "quin": 6270,
      "Ġtas": 6271,
      "Ġtendu": 6272,
      "Ġvente": 6273,
      "ouss": 6274,
      "anÃ§a": 6275,
      "entiel": 6276,
      "iseur": 6277,
      "Ġboissons": 6278,
      "arvard": 6279,
      "ortes": 6280,
      "orient": 6281,
      "autÃ©": 6282,
      "Ġavancer": 6283,
      "Ġpourraient": 6284,
      "chÃ©es": 6285,
      "Ġhos": 6286,
      "ĠhÃ©s": 6287,
      "ueill": 6288,
      "amie": 6289,
      "Ġdiable": 6290,
      "Ġvoleurs": 6291,
      "ĠrÃ©di": 6292,
      "Ġdemeure": 6293,
      "ellement": 6294,
      "Ã§ait": 6295,
      "chement": 6296,
      "Ġexpos": 6297,
      "Ġallergique": 6298,
      "Ġvoient": 6299,
      "ĠpassÃ©es": 6300,
      "Ġattends": 6301,
      "Ġlibres": 6302,
      "ador": 6303,
      "Ġjouent": 6304,
      "Ġpersonnelle": 6305,
      "arrivera": 6306,
      "Ġpartons": 6307,
      "gument": 6308,
      "ctive": 6309,
      "Ġconsomm": 6310,
      "Ġclas": 6311,
      "Ġrevienne": 6312,
      "Ġemporter": 6313,
      "ĠemportÃ©": 6314,
      "Ġemplettes": 6315,
      "Ġappropri": 6316,
      "Ġcouple": 6317,
      "ĠcherchÃ©": 6318,
      "Ġpoll": 6319,
      "ulance": 6320,
      "istance": 6321,
      "Ġpromit": 6322,
      "ĠprÃ©sents": 6323,
      "Ġtrouverais": 6324,
      "Ġexprimer": 6325,
      "Ġdoutes": 6326,
      "Ġmontagnes": 6327,
      "Ġfortes": 6328,
      "Ġinstitutrice": 6329,
      "ĠÃ¢gÃ©es": 6330,
      "Ġpolici": 6331,
      "Ġproduise": 6332,
      "ĠdÃ©barrass": 6333,
      "Ġentrepr": 6334,
      "ĠÃ©paule": 6335,
      "ĠÃ©paules": 6336,
      "Ġincons": 6337,
      "Ġordre": 6338,
      "ĠsÃ»rement": 6339,
      "ĠrÃªvÃ©": 6340,
      "ĠÃ©tudes": 6341,
      "ĠinfirmiÃ¨re": 6342,
      "Regard": 6343,
      "iendrait": 6344,
      "ĠassistÃ©": 6345,
      "ĠnÃ©cessaires": 6346,
      "ĠchargÃ©": 6347,
      "Ġpani": 6348,
      "ĠdÃ©fin": 6349,
      "ĠrÃ©ussite": 6350,
      "Ġcentaines": 6351,
      "odeur": 6352,
      "raÃ®ch": 6353,
      "ĠÃ©pouser": 6354,
      "imagin": 6355,
      "ĠpublicitÃ©": 6356,
      "Ġpoule": 6357,
      "ĠdÃ©clarÃ©": 6358,
      "Ġpareil": 6359,
      "Ġadorent": 6360,
      "Ġadorable": 6361,
      "Ġcroyait": 6362,
      "important": 6363,
      "ĠdÃ©primÃ©e": 6364,
      "ĠorganisÃ©": 6365,
      "Ġtendit": 6366,
      "Ġfournir": 6367,
      "ĠconsacrÃ©": 6368,
      "ĠdÃ©brouiller": 6369,
      "ĠamÃ©liorÃ©": 6370,
      "Ġgrimper": 6371,
      "ĠdÃ©penser": 6372,
      "ĠachÃ¨te": 6373,
      "ĠrÃ©servation": 6374,
      "Ġassistance": 6375,
      "Ġsignification": 6376,
      "Ġbuvez": 6377,
      "Choisis": 6378,
      "oblige": 6379,
      "Ġressemblent": 6380,
      "Ġreprocher": 6381,
      "Heureusement": 6382,
      "Ġserpents": 6383,
      "Ġbombe": 6384,
      "Ġmarchandises": 6385,
      "ĠclÃ´ture": 6386,
      "Ġquasiment": 6387,
      "explosion": 6388,
      "Ġciseaux": 6389,
      "Cond": 6390,
      "Mangez": 6391,
      "NoÃ«l": 6392,
      "Rac": 6393,
      "Rends": 6394,
      "ament": 6395,
      "cut": 6396,
      "deur": 6397,
      "mos": 6398,
      "nÃ©s": 6399,
      "rud": 6400,
      "ĠElle": 6401,
      "Ġong": 6402,
      "Ġpes": 6403,
      "Ġcot": 6404,
      "ermÃ©": 6405,
      "Ġmirent": 6406,
      "Ġvague": 6407,
      "Ġnana": 6408,
      "Ġdettes": 6409,
      "Ġfar": 6410,
      "estation": 6411,
      "eul": 6412,
      "Ġjoie": 6413,
      "itables": 6414,
      "arma": 6415,
      "Ġsure": 6416,
      "organ": 6417,
      "Ġchic": 6418,
      "onnerai": 6419,
      "ries": 6420,
      "ricul": 6421,
      "Ġteint": 6422,
      "Ġtouchez": 6423,
      "ĠtuÃ©s": 6424,
      "ĠdÃ©n": 6425,
      "ositÃ©": 6426,
      "alarme": 6427,
      "atrice": 6428,
      "attrap": 6429,
      "Ġdiriez": 6430,
      "Ġaie": 6431,
      "Ġaient": 6432,
      "ĠÃ©lÃ©ph": 6433,
      "orth": 6434,
      "essai": 6435,
      "uisent": 6436,
      "Comm": 6437,
      "Ã©rait": 6438,
      "Ġsaisi": 6439,
      "Ġdiss": 6440,
      "Ġserions": 6441,
      "Ġpensons": 6442,
      "opÃ©": 6443,
      "Ġdirect": 6444,
      "Ġentour": 6445,
      "Ġentretenir": 6446,
      "Ġenthousias": 6447,
      "autom": 6448,
      "encer": 6449,
      "Ġpasses": 6450,
      "Ġmesures": 6451,
      "Ġcompliqu": 6452,
      "Ġfauteu": 6453,
      "ĠimpÃ´ts": 6454,
      "ĠrÃ©pand": 6455,
      "Ã©cout": 6456,
      "Avons": 6457,
      "ĠdonnÃ©e": 6458,
      "ĠdÃ©sert": 6459,
      "Ġmanques": 6460,
      "Ġsouvenez": 6461,
      "Ġprises": 6462,
      "ĠdÃ©tour": 6463,
      "ĠconsÃ©qu": 6464,
      "ĠdÃ©cla": 6465,
      "ĠmÃ©d": 6466,
      "ĠmÃ©ch": 6467,
      "idemment": 6468,
      "Ġrever": 6469,
      "Ġcommentaire": 6470,
      "Ġcondam": 6471,
      "Ġabat": 6472,
      "illons": 6473,
      "obsc": 6474,
      "Ġaiderai": 6475,
      "ĠhabillÃ©e": 6476,
      "Ġmoto": 6477,
      "Ġpoing": 6478,
      "Ġpointe": 6479,
      "Ġcarottes": 6480,
      "ĠÃ©tudiantes": 6481,
      "Ġlitt": 6482,
      "ĠintÃ©ressÃ©s": 6483,
      "Ġfile": 6484,
      "Ġmusicien": 6485,
      "Ġcaptu": 6486,
      "ĠtournÃ©": 6487,
      "Ġincendie": 6488,
      "ĠÃ©chang": 6489,
      "Ġroug": 6490,
      "Ġlangage": 6491,
      "ĠsucrÃ©": 6492,
      "Ġsaurait": 6493,
      "Ġinflu": 6494,
      "ĠcriÃ©": 6495,
      "Ġsales": 6496,
      "Ġsacs": 6497,
      "Ġattendent": 6498,
      "Ġviendrait": 6499,
      "Ġmoyenne": 6500,
      "Ġreproche": 6501,
      "Ġmagasins": 6502,
      "enfuir": 6503,
      "Ġtenta": 6504,
      "Attention": 6505,
      "Attrap": 6506,
      "Ġfolles": 6507,
      "ĠÃ©lectron": 6508,
      "ĠresponsabilitÃ©s": 6509,
      "Ġpann": 6510,
      "Ġpanier": 6511,
      "Ġplaintes": 6512,
      "oublier": 6513,
      "Trav": 6514,
      "Ġbarb": 6515,
      "ĠchoquÃ©e": 6516,
      "Ġfactures": 6517,
      "Ġstyle": 6518,
      "ĠinvitÃ©es": 6519,
      "Ġessai": 6520,
      "Ġmenace": 6521,
      "ĠpossÃ©d": 6522,
      "escal": 6523,
      "Ġindiff": 6524,
      "Ġaccomplir": 6525,
      "Ġcommuni": 6526,
      "Ġpronon": 6527,
      "Ġdivorcer": 6528,
      "Ġplacard": 6529,
      "Ġhautement": 6530,
      "ĠprÃ©tendu": 6531,
      "Ġvoisinage": 6532,
      "Ġancien": 6533,
      "Ġgratuit": 6534,
      "Oubli": 6535,
      "ĠlÃ¨vres": 6536,
      "ĠfrÃ©quent": 6537,
      "Remettez": 6538,
      "Ġlapin": 6539,
      "Ġexcitant": 6540,
      "Ġbanane": 6541,
      "Ġfavori": 6542,
      "Ġadultes": 6543,
      "Ġclimat": 6544,
      "Ġparcourir": 6545,
      "ĠallongÃ©": 6546,
      "Ġfurieux": 6547,
      "Ġdorment": 6548,
      "Ġambitieux": 6549,
      "ĠdÃ©tonation": 6550,
      "Continuez": 6551,
      "Ġcardiaque": 6552,
      "Ġmoderne": 6553,
      "ĠcuillÃ¨re": 6554,
      "Ġsoigneusement": 6555,
      "ĠrafraÃ®ch": 6556,
      "Ã©lectricitÃ©": 6557,
      "Ġtatouage": 6558,
      "ĠPrÃ©sident": 6559,
      "Ġclassique": 6560,
      "Bois": 6561,
      "Fr": 6562,
      "LÃ¢che": 6563,
      "Lisez": 6564,
      "Pard": 6565,
      "bo": 6566,
      "ck": 6567,
      "rut": 6568,
      "tage": 6569,
      "vis": 6570,
      "ving": 6571,
      "ĠTout": 6572,
      "Ġours": 6573,
      "ĠpitiÃ©": 6574,
      "aigner": 6575,
      "outu": 6576,
      "Ġlancer": 6577,
      "Ġsites": 6578,
      "Ġcuit": 6579,
      "Ġcab": 6580,
      "quÃ©s": 6581,
      "entez": 6582,
      "Ġfan": 6583,
      "Ġfain": 6584,
      "Ġfuite": 6585,
      "istÃ©": 6586,
      "istr": 6587,
      "ourdi": 6588,
      "Ġbaign": 6589,
      "Ġrum": 6590,
      "arrang": 6591,
      "Ġchaises": 6592,
      "Ġavert": 6593,
      "celle": 6594,
      "tiens": 6595,
      "char": 6596,
      "ĠÃ©tendu": 6597,
      "Ġtels": 6598,
      "tesse": 6599,
      "uirai": 6600,
      "Ġhall": 6601,
      "Ġrequis": 6602,
      "agez": 6603,
      "irais": 6604,
      "ĠÃªtres": 6605,
      "ĠidÃ©": 6606,
      "Ġmonte": 6607,
      "ĠsiÃ¨": 6608,
      "onnelle": 6609,
      "Celle": 6610,
      "Ġastu": 6611,
      "Ġsurm": 6612,
      "acquÃ©rir": 6613,
      "atives": 6614,
      "atifs": 6615,
      "oupes": 6616,
      "dieux": 6617,
      "Ġpensiez": 6618,
      "Ġenter": 6619,
      "Ġtrouvais": 6620,
      "ĠmalgrÃ©": 6621,
      "Ġcontient": 6622,
      "Monte": 6623,
      "huile": 6624,
      "Ġactions": 6625,
      "ĠdÃ©tendu": 6626,
      "Ġlongueur": 6627,
      "expos": 6628,
      "Ġconsom": 6629,
      "ĠdÃ©cor": 6630,
      "ĠdÃ©crire": 6631,
      "Ġcode": 6632,
      "accorder": 6633,
      "Ġcondition": 6634,
      "Ġconditi": 6635,
      "ĠpoÃ¨te": 6636,
      "Ġabe": 6637,
      "Ġrendrait": 6638,
      "Ġbougies": 6639,
      "Ġadress": 6640,
      "ulaires": 6641,
      "Ġtermes": 6642,
      "Ġprofit": 6643,
      "Ġprofiter": 6644,
      "Ġremet": 6645,
      "Ġcommences": 6646,
      "Ġcommencent": 6647,
      "Ġgrosses": 6648,
      "Ġnourr": 6649,
      "cepti": 6650,
      "ĠprÃ©voyez": 6651,
      "Ġimportance": 6652,
      "apprÃ©cient": 6653,
      "ennuie": 6654,
      "Ġ18": 6655,
      "Ġtouristes": 6656,
      "Ġstress": 6657,
      "Ġexacte": 6658,
      "Ġconfond": 6659,
      "Ġgardes": 6660,
      "Ġgenoux": 6661,
      "Ġreconnais": 6662,
      "Ġmodi": 6663,
      "ĠrÃªv": 6664,
      "Ġdessous": 6665,
      "ĠespÃ¨re": 6666,
      "Ġattendons": 6667,
      "ĠopÃ©ration": 6668,
      "Ġcalmes": 6669,
      "Ġsoins": 6670,
      "Ġaimable": 6671,
      "Ġresponsables": 6672,
      "Ġfourchette": 6673,
      "Ġsoli": 6674,
      "ĠrisquÃ©": 6675,
      "Ġpoussi": 6676,
      "Ġjupe": 6677,
      "ĠnettoyÃ©": 6678,
      "Ġhumide": 6679,
      "Ġsouhaiter": 6680,
      "Ġremplir": 6681,
      "alentin": 6682,
      "Ġatter": 6683,
      "Ġmiennes": 6684,
      "Ġattentif": 6685,
      "ĠconsidÃ¨re": 6686,
      "appelez": 6687,
      "Ġmilliers": 6688,
      "Ġcherchait": 6689,
      "Ġcirc": 6690,
      "ĠfermÃ©es": 6691,
      "Ġpoil": 6692,
      "Ġretrouv": 6693,
      "ĠverrouillÃ©e": 6694,
      "Ġmalheureuse": 6695,
      "ĠdivorcÃ©": 6696,
      "Ġtrahi": 6697,
      "Ġexaminer": 6698,
      "Ġconsacrer": 6699,
      "ĠcensÃ©s": 6700,
      "ĠdÃ©brouillÃ©": 6701,
      "ĠpersuadÃ©": 6702,
      "ĠbaissÃ©": 6703,
      "Assieds": 6704,
      "ĠdÃ©terminer": 6705,
      "Ġcanadien": 6706,
      "Ġcanadienne": 6707,
      "ĠsoulagÃ©": 6708,
      "ĠembarrassÃ©": 6709,
      "ĠprÃ©occupe": 6710,
      "Ġscientifiques": 6711,
      "Ġbrillant": 6712,
      "Ġmanuel": 6713,
      "ĠobÃ©ir": 6714,
      "Choisissez": 6715,
      "ĠmodÃ¨le": 6716,
      "Ġbananes": 6717,
      "Ġnatale": 6718,
      "Ġaverti": 6719,
      "Ġintime": 6720,
      "ĠadoptÃ©": 6721,
      "Ġsurveiller": 6722,
      "Ġprocurer": 6723,
      "DÃ©pÃªchez": 6724,
      "ĠfÃ©lic": 6725,
      "ĠfraÃ®che": 6726,
      "Ġgramm": 6727,
      "Ġmaternelle": 6728,
      "Ġcorrespond": 6729,
      "ĠkilomÃ¨tres": 6730,
      "Buv": 6731,
      "Serais": 6732,
      "US": 6733,
      "crit": 6734,
      "ip": 6735,
      "ieuse": 6736,
      "ril": 6737,
      "tait": 6738,
      "venir": 6739,
      "Ġpus": 6740,
      "ĠpÃª": 6741,
      "Ã©tez": 6742,
      "enais": 6743,
      "enver": 6744,
      "Ġste": 6745,
      "Ġtaire": 6746,
      "Ġtab": 6747,
      "Ġner": 6748,
      "Ġnue": 6749,
      "Ġdette": 6750,
      "Ġpat": 6751,
      "Ġfri": 6752,
      "univers": 6753,
      "isant": 6754,
      "Ġunes": 6755,
      "Ġjette": 6756,
      "Ġband": 6757,
      "Ġboite": 6758,
      "Ġrand": 6759,
      "Ġrenf": 6760,
      "itre": 6761,
      "Ġsuit": 6762,
      "ĠenquÃªte": 6763,
      "Ġpreniez": 6764,
      "Ã©tang": 6765,
      "endons": 6766,
      "cieuses": 6767,
      "Ġpourv": 6768,
      "Ġauraient": 6769,
      "rira": 6770,
      "ouvrez": 6771,
      "ĠgÃ©rant": 6772,
      "Ġtexte": 6773,
      "agent": 6774,
      "aly": 6775,
      "alÃ©": 6776,
      "Ġprog": 6777,
      "Ġdeviens": 6778,
      "Ġdevras": 6779,
      "ĠÃ©quip": 6780,
      "lÃ©b": 6781,
      "Ã©rent": 6782,
      "cope": 6783,
      "dix": 6784,
      "Ġserrure": 6785,
      "ota": 6786,
      "oyÃ©es": 6787,
      "Ġbesoins": 6788,
      "Ġvict": 6789,
      "ĠvoilÃł": 6790,
      "abe": 6791,
      "tence": 6792,
      "Ont": 6793,
      "Ġcompli": 6794,
      "Ġenfre": 6795,
      "Ġdemandai": 6796,
      "Ġsoucis": 6797,
      "Ġjouais": 6798,
      "Åĵuf": 6799,
      "Ġpersonnellement": 6800,
      "ĠmÃ©l": 6801,
      "Ġnuits": 6802,
      "Ġvisa": 6803,
      "Ġessaye": 6804,
      "Ġamic": 6805,
      "Ġpharma": 6806,
      "Ġboutique": 6807,
      "ĠdÃ©pit": 6808,
      "objet": 6809,
      "Ġrecrut": 6810,
      "ĠrÃ©sol": 6811,
      "Ġautrement": 6812,
      "ĠcouchÃ©": 6813,
      "Ġdouze": 6814,
      "Ġouvre": 6815,
      "Ġgagn": 6816,
      "Ġvoisine": 6817,
      "Ġconclu": 6818,
      "Ġconcern": 6819,
      "Ġappellerai": 6820,
      "olet": 6821,
      "ĠÃ©pic": 6822,
      "Ġconfiant": 6823,
      "Ġdisposes": 6824,
      "ĠamusÃ©es": 6825,
      "Ã¢teaux": 6826,
      "Ġagressi": 6827,
      "Ġsource": 6828,
      "Ġsoucier": 6829,
      "Ġoffrir": 6830,
      "Ġtypes": 6831,
      "Ġtentative": 6832,
      "Ġorange": 6833,
      "ĠobligÃ©es": 6834,
      "Ġdistrait": 6835,
      "Ġbataille": 6836,
      "ĠsuggÃ©": 6837,
      "Ġremarqu": 6838,
      "Ġsecondes": 6839,
      "Ġpermett": 6840,
      "ĠprÃ©parÃ©e": 6841,
      "Ġdevenues": 6842,
      "Ġmince": 6843,
      "Ġmignons": 6844,
      "Ġcollier": 6845,
      "Devine": 6846,
      "Ġmillion": 6847,
      "Ġsouvenirs": 6848,
      "ĠaugmentÃ©": 6849,
      "ĠsÃ©journer": 6850,
      "Ġoccas": 6851,
      "ĠpoignÃ©e": 6852,
      "Ġlibrai": 6853,
      "Ġveiller": 6854,
      "Ġsoldat": 6855,
      "Ġverrouiller": 6856,
      "Ġ50": 6857,
      "Ġdivorce": 6858,
      "Ġplaisanterie": 6859,
      "Ġchinoise": 6860,
      "ĠcuisiniÃ¨re": 6861,
      "Ġgaspiller": 6862,
      "veloppe": 6863,
      "ingues": 6864,
      "Ġcommerce": 6865,
      "ĠpÃ©trin": 6866,
      "Ġennemis": 6867,
      "hÃ©sitez": 6868,
      "ĠmaÃ®tre": 6869,
      "ĠdÃ©penses": 6870,
      "ĠAngleterre": 6871,
      "ĠmÃ©decine": 6872,
      "ĠCanada": 6873,
      "ĠdÃ©sespÃ©rÃ©": 6874,
      "ĠsecrÃ©taire": 6875,
      "ĠfantÃ´me": 6876,
      "Ġmaigre": 6877,
      "Ġguide": 6878,
      "ĠcÃ¢lin": 6879,
      "ĠbriÃ¨vement": 6880,
      "ĠnÃ©gligent": 6881,
      "Ġgrenier": 6882,
      "Reviens": 6883,
      "ĠfrontiÃ¨re": 6884,
      "ĠdÃ©robÃ©": 6885,
      "Asseyons": 6886,
      "ĠrenversÃ©": 6887,
      "ĠdÃ©lai": 6888,
      "achÃ¨terais": 6889,
      "Ġcriminel": 6890,
      "Ġtechn": 6891,
      "Ġintrod": 6892,
      "ĠheurtÃ©": 6893,
      "Ġpoison": 6894,
      "Ġmaths": 6895,
      "RÃ©pond": 6896,
      "Ġdouloureux": 6897,
      "ĠvÃ©hicule": 6898,
      "Ġdissim": 6899,
      "ĠtÃ¢ches": 6900,
      "Ġattirante": 6901,
      "ĠpÃ©trole": 6902,
      "RÃ©flÃ©ch": 6903,
      "automne": 6904,
      "obscuritÃ©": 6905,
      "ĠsiÃ¨cle": 6906,
      "ĠconditionnÃ©": 6907,
      "Ġpharmaci": 6908,
      "Bonne": 6909,
      "Rendez": 6910,
      "Util": 6911,
      "abl": 6912,
      "fort": 6913,
      "his": 6914,
      "ionn": 6915,
      "ky": 6916,
      "ker": 6917,
      "mÃ©s": 6918,
      "of": 6919,
      "rÃ¨rent": 6920,
      "ules": 6921,
      "yth": 6922,
      "ĠQue": 6923,
      "ĠSi": 6924,
      "Ġpen": 6925,
      "ĠpÃ©r": 6926,
      "Ġdon": 6927,
      "ĠlancÃ©": 6928,
      "rett": 6929,
      "ĠmÃ¨ne": 6930,
      "Ġna": 6931,
      "Ġnoire": 6932,
      "ousse": 6933,
      "Ġpattes": 6934,
      "Ġquart": 6935,
      "anitÃ©": 6936,
      "leure": 6937,
      "leman": 6938,
      "ĠÃĩa": 6939,
      "Ġjure": 6940,
      "Ġber": 6941,
      "Ġbol": 6942,
      "Ġbass": 6943,
      "Ġrusse": 6944,
      "Ã¨se": 6945,
      "Ã¨nes": 6946,
      "itif": 6947,
      "Ġsud": 6948,
      "Ã©tit": 6949,
      "Ã©tions": 6950,
      "Ġtra": 6951,
      "Ġchim": 6952,
      "aurions": 6953,
      "onst": 6954,
      "Ġparten": 6955,
      "ription": 6956,
      "Ġgel": 6957,
      "ĠÃ©tonnÃ©": 6958,
      "uies": 6959,
      "uivre": 6960,
      "Ġho": 6961,
      "Ġred": 6962,
      "Ġretenu": 6963,
      "Ġsep": 6964,
      "Ġseau": 6965,
      "agnÃ©": 6966,
      "ires": 6967,
      "amuse": 6968,
      "Ġprote": 6969,
      "ĠdurÃ©": 6970,
      "Ġsiff": 6971,
      "oins": 6972,
      "ĠÃ©co": 6973,
      "orta": 6974,
      "Ġodeur": 6975,
      "uisit": 6976,
      "uisse": 6977,
      "appelles": 6978,
      "Ġpouvaient": 6979,
      "cure": 6980,
      "auteur": 6981,
      "Ġtrouverai": 6982,
      "Ġvies": 6983,
      "Ġparlerai": 6984,
      "Ġvoici": 6985,
      "Ġattrib": 6986,
      "Ġassass": 6987,
      "Ġassurer": 6988,
      "Ã¢chez": 6989,
      "Ġcourus": 6990,
      "Ġpost": 6991,
      "ĠrÃ©pare": 6992,
      "Ġcompromis": 6993,
      "Ġfranchement": 6994,
      "Ġdonnes": 6995,
      "Ġjouets": 6996,
      "Ġregrett": 6997,
      "Ġmanche": 6998,
      "gues": 6999,
      "ĠachetÃ©e": 7000,
      "aremment": 7001,
      "ĠpayÃ©s": 7002,
      "ĠmÃ©mor": 7003,
      "Ġrevient": 7004,
      "phab": 7005,
      "institutrice": 7006,
      "ĠdÃ©pense": 7007,
      "Ġpromettre": 7008,
      "Ġtrouveras": 7009,
      "Ġcouche": 7010,
      "Ġsurprenant": 7011,
      "Ãīloi": 7012,
      "Ġnourri": 7013,
      "Ġaccent": 7014,
      "Rempl": 7015,
      "ĠprÃ©voir": 7016,
      "Ġobser": 7017,
      "rochÃ©": 7018,
      "Ġrespirer": 7019,
      "ĠAfrique": 7020,
      "Ġvive": 7021,
      "Ġvivez": 7022,
      "Ġfeuille": 7023,
      "Ġincomp": 7024,
      "cinq": 7025,
      "Ġvenais": 7026,
      "Ġdisposent": 7027,
      "Ġdisposez": 7028,
      "Ġgarderai": 7029,
      "Ġgentleman": 7030,
      "Ġtraversa": 7031,
      "Ġprofesseurs": 7032,
      "ouverte": 7033,
      "Ġabsente": 7034,
      "Ġsalu": 7035,
      "ĠoffensÃ©": 7036,
      "Ġattendez": 7037,
      "Ġoptim": 7038,
      "Ġjournaliste": 7039,
      "Ġsatisfaire": 7040,
      "ĠtÃ©lÃ©viseur": 7041,
      "Ġenseignants": 7042,
      "Ġreprises": 7043,
      "Ġintern": 7044,
      "Ġhumain": 7045,
      "Ġeffront": 7046,
      "ĠcamÃ©ra": 7047,
      "Trouve": 7048,
      "Ġessaies": 7049,
      "Ġbasket": 7050,
      "annÃ©es": 7051,
      "Ġdescendu": 7052,
      "ĠprÃªterai": 7053,
      "Ġmurs": 7054,
      "Ġcamper": 7055,
      "Ġtranquilles": 7056,
      "ĠlÃ©gÃ¨rement": 7057,
      "Ġpleura": 7058,
      "ĠbrÃ»le": 7059,
      "Exp": 7060,
      "ĠHarvard": 7061,
      "ĠdÃ©missionnÃ©": 7062,
      "Ġpatiente": 7063,
      "Ġcurieuse": 7064,
      "ĠGr": 7065,
      "Ġfantastique": 7066,
      "ĠOsaka": 7067,
      "Ġcollection": 7068,
      "Ġcraint": 7069,
      "Essaye": 7070,
      "Ġcandidature": 7071,
      "Ġgratuitement": 7072,
      "ĠeffectuÃ©": 7073,
      "Ġobjectifs": 7074,
      "Jouons": 7075,
      "ĠmaÃ®tr": 7076,
      "PrÃ©v": 7077,
      "Ġdocuments": 7078,
      "Ġjumeaux": 7079,
      "ĠsincÃ¨rement": 7080,
      "ĠsecrÃ¨te": 7081,
      "Finalement": 7082,
      "Ġdescendit": 7083,
      "Ġrecommanda": 7084,
      "Ġadulte": 7085,
      "ĠrejetÃ©": 7086,
      "ĠÃ©lectrique": 7087,
      "amÃ©liorer": 7088,
      "Ġgalerie": 7089,
      "ĠempÃªchÃ©": 7090,
      "Ġrassemb": 7091,
      "Ãīteins": 7092,
      "Ġsauta": 7093,
      "Ã©clair": 7094,
      "honnÃªtetÃ©": 7095,
      "Ġpistolet": 7096,
      "ĠmystÃ¨re": 7097,
      "Dix": 7098,
      "Ġpelouse": 7099,
      "Ġpyj": 7100,
      "Ġpoliciers": 7101,
      "Ġongles": 7102,
      "essaierai": 7103,
      "Ġpanneau": 7104,
      "Ġsteak": 7105,
      "Ġnerfs": 7106,
      "Ġoptimiste": 7107,
      ".Â»": 7108,
      "DÃ©b": 7109,
      "Serv": 7110,
      "Viv": 7111,
      "Voy": 7112,
      "aw": 7113,
      "ionnÃ©": 7114,
      "lait": 7115,
      "oter": 7116,
      "ple": 7117,
      "ram": 7118,
      "rine": 7119,
      "tÃ¨rent": 7120,
      "vaisse": 7121,
      "Ġ000": 7122,
      "ĠUS": 7123,
      "aigne": 7124,
      "ĠlanÃ§a": 7125,
      "Ġsh": 7126,
      "Ġscep": 7127,
      "ondu": 7128,
      "Ġcible": 7129,
      "quÃ©es": 7130,
      "eras": 7131,
      "Ġtom": 7132,
      "Ġtal": 7133,
      "Ġmouv": 7134,
      "Ġmoutons": 7135,
      "ĠvÃ´tres": 7136,
      "Ġnier": 7137,
      "ĠnÃ´tre": 7138,
      "anÃ§": 7139,
      "isage": 7140,
      "Ġlas": 7141,
      "Ġborde": 7142,
      "Ġray": 7143,
      "Ġrock": 7144,
      "Ġryth": 7145,
      "arg": 7146,
      "arriÃ¨re": 7147,
      "orn": 7148,
      "Ġprenne": 7149,
      "Ġprennes": 7150,
      "Ġtraitement": 7151,
      "Ġparliez": 7152,
      "endrai": 7153,
      "Ġplastique": 7154,
      "Ġgau": 7155,
      "Ġgym": 7156,
      "ĠdÃ©cevoir": 7157,
      "Ġreb": 7158,
      "Ġrecon": 7159,
      "ash": 7160,
      "iron": 7161,
      "ĠdansÃ©": 7162,
      "Ġdigne": 7163,
      "ĠdevinÃ©": 7164,
      "Ġdeviennent": 7165,
      "Ġdeviendra": 7166,
      "Ġvote": 7167,
      "urr": 7168,
      "lice": 7169,
      "ĠinÃ©v": 7170,
      "prouve": 7171,
      "acte": 7172,
      "Ġsonger": 7173,
      "Pourrions": 7174,
      "aper": 7175,
      "opinion": 7176,
      "otte": 7177,
      "Ġpartirai": 7178,
      "ĠprÃ©cip": 7179,
      "Ġvoies": 7180,
      "Ġmalheur": 7181,
      "abs": 7182,
      "ĠbondÃ©": 7183,
      "Ġenfui": 7184,
      "Ġfaisant": 7185,
      "Montez": 7186,
      "tro": 7187,
      "ĠouÃ¯": 7188,
      "Ġposition": 7189,
      "ĠrÃ©pÃ©t": 7190,
      "Ġjoueurs": 7191,
      "ĠdÃ©sorient": 7192,
      "Ġmicro": 7193,
      "essayerai": 7194,
      "Ġsouvient": 7195,
      "ĠpartagÃ©": 7196,
      "ĠdÃ©cÃ¨s": 7197,
      "Ġchaleure": 7198,
      "atta": 7199,
      "Ġregardais": 7200,
      "Ġtravaillais": 7201,
      "phÃ¨re": 7202,
      "Ġpoker": 7203,
      "Ġrendiez": 7204,
      "Ġboue": 7205,
      "ĠrÃ©sister": 7206,
      "Ġvoyons": 7207,
      "ĠtÃ©lÃ©phonerai": 7208,
      "Ġcouleurs": 7209,
      "issage": 7210,
      "ĠportÃ©e": 7211,
      "ĠintÃ©ressÃ©es": 7212,
      "Ġfamilles": 7213,
      "Ġchemises": 7214,
      "Ġretourn": 7215,
      "ĠprÃ©venue": 7216,
      "Ġobjet": 7217,
      "Ġtourn": 7218,
      "Ġquitta": 7219,
      "ĠdisposÃ©e": 7220,
      "Ã©paule": 7221,
      "Ġmoti": 7222,
      "Ġprudence": 7223,
      "Ġsourd": 7224,
      "Ġendroits": 7225,
      "anchement": 7226,
      "expliqu": 7227,
      "Ġfonctionn": 7228,
      "Ġattendit": 7229,
      "Ġballes": 7230,
      "Ġsurvenir": 7231,
      "ĠboÃ®tes": 7232,
      "Ġreprendre": 7233,
      "Ġtentation": 7234,
      "ĠcÃ©lÃ©b": 7235,
      "ĠfiertÃ©": 7236,
      "ĠchargÃ©e": 7237,
      "ĠfrappÃ©e": 7238,
      "ĠsupposÃ©s": 7239,
      "ĠÃ©coulÃ©": 7240,
      "Ġnia": 7241,
      "Ġsortons": 7242,
      "Ġdangereuse": 7243,
      "Ġremarquer": 7244,
      "Allume": 7245,
      "agnol": 7246,
      "ĠcoincÃ©": 7247,
      "ĠdÃ©guis": 7248,
      "Ġentendus": 7249,
      "Ġconstruire": 7250,
      "Ġneuve": 7251,
      "Ġchangea": 7252,
      "ĠpressÃ©e": 7253,
      "Ġvolontaires": 7254,
      "Ġmillionnaire": 7255,
      "olique": 7256,
      "Ġouvertes": 7257,
      "ĠlevÃ©e": 7258,
      "ĠadorÃ©": 7259,
      "ĠsoupÃ§": 7260,
      "ologue": 7261,
      "Ġpatients": 7262,
      "Ġcrayons": 7263,
      "Ġmanquent": 7264,
      "Ġmanquez": 7265,
      "ettons": 7266,
      "Ġinnocence": 7267,
      "ĠverrouillÃ©": 7268,
      "Ġfermement": 7269,
      "Ġassey": 7270,
      "Ġhabitudes": 7271,
      "Ġadvenu": 7272,
      "Ġsembler": 7273,
      "Ġressembles": 7274,
      "Ġcandidat": 7275,
      "Ġkilos": 7276,
      "Ġprofondeur": 7277,
      "Ġclefs": 7278,
      "approche": 7279,
      "Ġadolescent": 7280,
      "Ġcouverture": 7281,
      "ĠrÃ©server": 7282,
      "Ãīcoutez": 7283,
      "Ġmaigri": 7284,
      "Ġvisiteurs": 7285,
      "Ġvictimes": 7286,
      "Ġsoutien": 7287,
      "ĠpropriÃ©tÃ©": 7288,
      "Ġrembourser": 7289,
      "Ġfichier": 7290,
      "ĠparticipÃ©": 7291,
      "Ġsympathique": 7292,
      "ĠchÃ¨que": 7293,
      "Ġinhabituel": 7294,
      "immeuble": 7295,
      "Ġcamarades": 7296,
      "ĠdÃ©poser": 7297,
      "origine": 7298,
      "Permettez": 7299,
      "Ġmalchanceux": 7300,
      "Ġchuch": 7301,
      "oindrai": 7302,
      "ĠdotÃ©e": 7303,
      "emmener": 7304,
      "Ġactrice": 7305,
      "Ġinconsci": 7306,
      "ĠÃ©lectronique": 7307,
      "Ġrumeurs": 7308,
      "ĠpoussiÃ¨re": 7309,
      "Ġlibrairie": 7310,
      "Ġprotection": 7311,
      "vaisselle": 7312,
      "Ġrythme": 7313,
      "Br": 7314,
      "Rappelle": 7315,
      "Soit": 7316,
      "Valentin": 7317,
      "bler": 7318,
      "honneur": 7319,
      "imÃ©": 7320,
      "land": 7321,
      "nesse": 7322,
      "rÃ©t": 7323,
      "rÃªtes": 7324,
      "vÃ©es": 7325,
      "ĠY": 7326,
      "Ġorte": 7327,
      "ĠOÃ¹": 7328,
      "Ġoign": 7329,
      "Ã©reuse": 7330,
      "Ġlin": 7331,
      "Ġlux": 7332,
      "Ġsien": 7333,
      "Ġstr": 7334,
      "Ġsaurais": 7335,
      "ĠsÃ©p": 7336,
      "ĠsoÃ»": 7337,
      "Ġcauche": 7338,
      "quatre": 7339,
      "Ġmass": 7340,
      "Ġmenu": 7341,
      "Ġmonsieur": 7342,
      "ĠnoyÃ©": 7343,
      "ane": 7344,
      "Ġfaille": 7345,
      "Ġfrig": 7346,
      "istence": 7347,
      "Ġunif": 7348,
      "Ġjoy": 7349,
      "Ġjazz": 7350,
      "ilÃ©": 7351,
      "Ġbav": 7352,
      "Ġbud": 7353,
      "Ġbaleine": 7354,
      "ĠbÅĵuf": 7355,
      "Ġcell": 7356,
      "itÃ©e": 7357,
      "intes": 7358,
      "oritÃ©s": 7359,
      "Ġprier": 7360,
      "ĠchÃ´": 7361,
      "Ġchasse": 7362,
      "audit": 7363,
      "ĠavisÃ©": 7364,
      "Ġavril": 7365,
      "Ġplats": 7366,
      "Ġgosse": 7367,
      "Ġhom": 7368,
      "Ġhais": 7369,
      "agÃ¨res": 7370,
      "ames": 7371,
      "amies": 7372,
      "ension": 7373,
      "Ġdevra": 7374,
      "ĠÃ©vÃ©": 7375,
      "sier": 7376,
      "Ġindis": 7377,
      "ĠarmÃ©e": 7378,
      "Ġargument": 7379,
      "diction": 7380,
      "Ã®n": 7381,
      "Ã®t": 7382,
      "Ġcra": 7383,
      "Ġcro": 7384,
      "igme": 7385,
      "ĠMars": 7386,
      "ĠentrÃ©s": 7387,
      "aisser": 7388,
      "Ġperf": 7389,
      "Ġattaque": 7390,
      "Ġcomporter": 7391,
      "ormÃ©ment": 7392,
      "ĠarrivÃ¨rent": 7393,
      "Ġcommet": 7394,
      "Ġdemandait": 7395,
      "errement": 7396,
      "adap": 7397,
      "Ã©coutes": 7398,
      "Ġsouli": 7399,
      "allÃ©": 7400,
      "ĠpiquÃ©": 7401,
      "ĠtÃ©moi": 7402,
      "Ġfinie": 7403,
      "Ġbrosse": 7404,
      "ĠdÃ©cÃ©d": 7405,
      "ĠmÃ©di": 7406,
      "Ġregardant": 7407,
      "Ġjeunesse": 7408,
      "Ġbouill": 7409,
      "Ġaddit": 7410,
      "ulti": 7411,
      "ulÃ©e": 7412,
      "Ġtermine": 7413,
      "obilier": 7414,
      "Ġchangent": 7415,
      "Ġchambres": 7416,
      "Ġremets": 7417,
      "Ġentendues": 7418,
      "Ġimb": 7419,
      "Ġcoul": 7420,
      "ĠcoulÃ©": 7421,
      "Ġcarb": 7422,
      "Ġmentez": 7423,
      "Ġblessures": 7424,
      "mission": 7425,
      "Ġaccus": 7426,
      "Ġretourna": 7427,
      "Ġimportants": 7428,
      "Ġtrouverez": 7429,
      "Ġoublia": 7430,
      "ĠcapacitÃ©": 7431,
      "Ġvitre": 7432,
      "ĠÃ©chouer": 7433,
      "ĠprÃ©senta": 7434,
      "Ġmoquer": 7435,
      "Ġsaura": 7436,
      "ĠsÃ©rieuses": 7437,
      "rouille": 7438,
      "ouverture": 7439,
      "Ġmangeons": 7440,
      "Ġraff": 7441,
      "Ġcontentes": 7442,
      "ĠversÃ©": 7443,
      "Ġsuivante": 7444,
      "Ġviendrais": 7445,
      "Ġcalmer": 7446,
      "ĠSud": 7447,
      "Ġfrappe": 7448,
      "Ġfallut": 7449,
      "Ġdroits": 7450,
      "ĠaimÃ©e": 7451,
      "ĠrÃ©flÃ©chis": 7452,
      "Ġtrompes": 7453,
      "Ġromant": 7454,
      "Ã©trange": 7455,
      "ĠdÃ©fun": 7456,
      "Ġjuin": 7457,
      "othÃ¨se": 7458,
      "Ġsouffrir": 7459,
      "dessous": 7460,
      "Ã©vidence": 7461,
      "Ġperman": 7462,
      "Ġpolie": 7463,
      "ĠremportÃ©": 7464,
      "Ġendormis": 7465,
      "Ġporc": 7466,
      "Ġaimerions": 7467,
      "Ġconstruction": 7468,
      "Ġrecommencer": 7469,
      "ĠformÃ©": 7470,
      "imaginer": 7471,
      "ĠconsidÃ©ration": 7472,
      "Ġpaierai": 7473,
      "ĠlÃ©gal": 7474,
      "Devrions": 7475,
      "Ġnaturelle": 7476,
      "ĠpardonnÃ©": 7477,
      "ĠembrassÃ©e": 7478,
      "Ġident": 7479,
      "ĠrespectÃ©": 7480,
      "Ġnormale": 7481,
      "ĠRome": 7482,
      "ĠmÃ©ritez": 7483,
      "ĠdÃ©mÃ©nage": 7484,
      "ĠretrouvÃ©": 7485,
      "ĠcuriositÃ©": 7486,
      "Ġlimites": 7487,
      "ĠdÃ©jeune": 7488,
      "ĠrenvoyÃ©": 7489,
      "Ġimmeuble": 7490,
      "ophone": 7491,
      "ĠdÃ©roule": 7492,
      "Ġcraindre": 7493,
      "ĠÃ©clatÃ©": 7494,
      "udemment": 7495,
      "Ġaveug": 7496,
      "Ġamener": 7497,
      "ĠrÃ©vÃ©la": 7498,
      "hÃ©site": 7499,
      "Ġtracasse": 7500,
      "Oublie": 7501,
      "humanitÃ©": 7502,
      "Ġtortu": 7503,
      "timitÃ©": 7504,
      "ĠfÃ¢chÃ©e": 7505,
      "Ġsurvivants": 7506,
      "Ġbrillante": 7507,
      "Ġadolescents": 7508,
      "ĠCanadien": 7509,
      "ĠsincÃ¨re": 7510,
      "intÃ©ressant": 7511,
      "Ġsoulever": 7512,
      "tivitÃ©": 7513,
      "Soud": 7514,
      "Entrez": 7515,
      "Ġpilote": 7516,
      "ographe": 7517,
      "ĠhypothÃ¨se": 7518,
      "Promets": 7519,
      "Comprenez": 7520,
      "Trouvez": 7521,
      "Ġgravement": 7522,
      "Ġcharmant": 7523,
      "Ġsurpoids": 7524,
      "Ġrideau": 7525,
      "Assurez": 7526,
      "Ġsurface": 7527,
      "Ġpratiquer": 7528,
      "ĠrÃ©putation": 7529,
      "Arrives": 7530,
      "Ġlesquelles": 7531,
      "Ġincorre": 7532,
      "Ġorigin": 7533,
      "Ġhospital": 7534,
      "mosphÃ¨re": 7535,
      "ĠÃ©lÃ©phants": 7536,
      "ĠcondamnÃ©": 7537,
      "Ġgrammaire": 7538,
      "Ġenfreint": 7539,
      "Ġoignons": 7540,
      "Ġbudg": 7541,
      "AussitÃ´t": 7542,
      "Hab": 7543,
      "Ici": 7544,
      "LÃ¨ve": 7545,
      "Sal": 7546,
      "Soyons": 7547,
      "VÃ©ri": 7548,
      "adies": 7549,
      "ba": 7550,
      "lend": 7551,
      "lav": 7552,
      "lut": 7553,
      "mage": 7554,
      "mbl": 7555,
      "otions": 7556,
      "rÃ´": 7557,
      "ray": 7558,
      "rages": 7559,
      "roite": 7560,
      "tasun": 7561,
      "ug": 7562,
      "upp": 7563,
      "yg": 7564,
      "ymp": 7565,
      "ĠQu": 7566,
      "Ġpendu": 7567,
      "ĠpÃ¨se": 7568,
      "Ġdingues": 7569,
      "ouÃ©e": 7570,
      "Ã©que": 7571,
      "Ġcord": 7572,
      "Ġth": 7573,
      "Ġtint": 7574,
      "Ġtiendra": 7575,
      "Ġtira": 7576,
      "Ġmaux": 7577,
      "Ġvari": 7578,
      "Ġpag": 7579,
      "Ġfre": 7580,
      "Ġflot": 7581,
      "ĠÃ´": 7582,
      "eut": 7583,
      "ĠuniversitÃ©": 7584,
      "Ġjur": 7585,
      "Ġbel": 7586,
      "itive": 7587,
      "Ġpros": 7588,
      "Ġprinc": 7589,
      "Ġprudemment": 7590,
      "Ġchass": 7591,
      "ciation": 7592,
      "Ġpourra": 7593,
      "chite": 7594,
      "riers": 7595,
      "Ġplaire": 7596,
      "Ġge": 7597,
      "ĠgÃ¢teaux": 7598,
      "Ġhu": 7599,
      "Ġher": 7600,
      "atter": 7601,
      "Ġdevrez": 7602,
      "ĠÃ©du": 7603,
      "ĠÃ©prouv": 7604,
      "Ġinse": 7605,
      "ĠintÃ©": 7606,
      "ĠrÃ©ception": 7607,
      "actÃ©": 7608,
      "Ġvoulions": 7609,
      "Ġarrog": 7610,
      "Ġsaisir": 7611,
      "Ġdiscu": 7612,
      "oyen": 7613,
      "Ġvoulut": 7614,
      "ĠprÃ©cÃ©": 7615,
      "ĠprÃ©cieux": 7616,
      "Ġferont": 7617,
      "Ġmaladies": 7618,
      "Ġpassent": 7619,
      "Ġcompar": 7620,
      "Ġcomptes": 7621,
      "Ġcompose": 7622,
      "Ġimpoli": 7623,
      "Ġoublie": 7624,
      "adress": 7625,
      "iciens": 7626,
      "ĠacquÃ©rir": 7627,
      "Ġnomme": 7628,
      "race": 7629,
      "onger": 7630,
      "ĠtÃ©lÃ©char": 7631,
      "Ġbranche": 7632,
      "Ġsoirs": 7633,
      "Ġblo": 7634,
      "ĠdÃ©cisions": 7635,
      "gnÃ©s": 7636,
      "Ġcoc": 7637,
      "ĠmÃ©prise": 7638,
      "Ġclar": 7639,
      "Ġtravaillait": 7640,
      "Ġjeudi": 7641,
      "ĠpoÃ¨mes": 7642,
      "Ġabas": 7643,
      "idable": 7644,
      "Ġrich": 7645,
      "Ġrecord": 7646,
      "estement": 7647,
      "Ġconseiller": 7648,
      "ĠmariÃ©es": 7649,
      "Ġcaract": 7650,
      "Ġaffecte": 7651,
      "Ġcommencez": 7652,
      "Ġdormait": 7653,
      "Ġmentent": 7654,
      "usses": 7655,
      "Ãīv": 7656,
      "Ġconnaissiez": 7657,
      "Ġmises": 7658,
      "apprÃ©cier": 7659,
      "Arrivez": 7660,
      "Ġappelez": 7661,
      "ĠbiÃ¨res": 7662,
      "ĠÃ©poux": 7663,
      "Ġstatu": 7664,
      "Ġrouler": 7665,
      "Ġparvenue": 7666,
      "Ġparvenus": 7667,
      "Ġtravailleurs": 7668,
      "Ġamuser": 7669,
      "Ġreconnus": 7670,
      "Ġreconnue": 7671,
      "Ġsauce": 7672,
      "ĠguÃ©ri": 7673,
      "Ġagi": 7674,
      "Ġinformer": 7675,
      "Ġreporter": 7676,
      "ĠespÃ©rait": 7677,
      "ĠNon": 7678,
      "Ġviendras": 7679,
      "Ġcalendrier": 7680,
      "Ġchangera": 7681,
      "Ġsatisfaites": 7682,
      "envie": 7683,
      "Ġrepris": 7684,
      "Ġgagnera": 7685,
      "Ġirait": 7686,
      "Ġiras": 7687,
      "ĠÃ©vanou": 7688,
      "Ġacceptable": 7689,
      "Ġtempor": 7690,
      "Ġraconte": 7691,
      "Ġdiminu": 7692,
      "ĠMont": 7693,
      "ĠniÃ©": 7694,
      "Ġpousse": 7695,
      "identitÃ©": 7696,
      "Ġsecond": 7697,
      "Ġavocate": 7698,
      "Ġavocats": 7699,
      "Ġignorer": 7700,
      "ĠbÃ¢timents": 7701,
      "affaires": 7702,
      "Ġtimbre": 7703,
      "ĠÃītasun": 7704,
      "Ġemployer": 7705,
      "Ġpresser": 7706,
      "ĠrÃ©el": 7707,
      "Ġvolontiers": 7708,
      "Ġzone": 7709,
      "Ġindique": 7710,
      "Ġpardon": 7711,
      "Ġaccompagner": 7712,
      "ĠaccompagnÃ©": 7713,
      "ĠpauvretÃ©": 7714,
      "Ġceris": 7715,
      "Ġjalous": 7716,
      "ĠdÃ©clen": 7717,
      "ĠdÃ©clara": 7718,
      "ĠarrÃªta": 7719,
      "Ġmeurent": 7720,
      "Ġallumette": 7721,
      "Ġmorceaux": 7722,
      "ĠÃ©moti": 7723,
      "Ġlocal": 7724,
      "ĠdÃ©licieuse": 7725,
      "Ġpoign": 7726,
      "Ġdiplom": 7727,
      "Ġadmir": 7728,
      "ĠÃ©veillÃ©e": 7729,
      "ĠmÃ©rites": 7730,
      "Ġdomaine": 7731,
      "Ġprincipal": 7732,
      "Ġpoursuivre": 7733,
      "ĠdÃ©pourvue": 7734,
      "ĠentraÃ®nÃ©": 7735,
      "Ġmagazines": 7736,
      "uivez": 7737,
      "Ġsoulage": 7738,
      "ĠsuicidÃ©": 7739,
      "Ġtremp": 7740,
      "PrÃ©p": 7741,
      "ĠcompÃ©tition": 7742,
      "Ġpneus": 7743,
      "ĠnaÃ¯ve": 7744,
      "Ġassistant": 7745,
      "ĠsoulevÃ©": 7746,
      "Souh": 7747,
      "Ġlapins": 7748,
      "Ġnatation": 7749,
      "Ġexplosion": 7750,
      "Ġterrifi": 7751,
      "ĠpropriÃ©taire": 7752,
      "ĠprocÃ©der": 7753,
      "Ġexigences": 7754,
      "Ġraccour": 7755,
      "ĠachevÃ©": 7756,
      "ustrie": 7757,
      "Asseyez": 7758,
      "Promettez": 7759,
      "Comprends": 7760,
      "Ġloge": 7761,
      "ĠÃ©crasÃ©": 7762,
      "Ġcommercial": 7763,
      "Ġbruyant": 7764,
      "ĠmÃ©can": 7765,
      "Ġenregistre": 7766,
      "Ġexpliqua": 7767,
      "ĠpersonnalitÃ©": 7768,
      "ĠsupÃ©rieur": 7769,
      "GrÃ¢ce": 7770,
      "ĠdÃ©cevant": 7771,
      "Ġintentions": 7772,
      "assurance": 7773,
      "ĠsÃ¨che": 7774,
      "Ġdiamant": 7775,
      "Ġabattu": 7776,
      "Ġprononciation": 7777,
      "vingt": 7778,
      "enverrai": 7779,
      "Ġconcernant": 7780,
      "ĠincompÃ©t": 7781,
      "Ġpyjama": 7782,
      "ĠUSA": 7783,
      "ĠchÃ´mage": 7784,
      "Ã®nmes": 7785,
      "Ã©quemment": 7786,
      "50": 7787,
      "Ab": 7788,
      "DÃ©t": 7789,
      "DÃ©g": 7790,
      "Eff": 7791,
      "LÃ¢chez": 7792,
      "Resp": 7793,
      "Suivez": 7794,
      "aci": 7795,
      "can": 7796,
      "fait": 7797,
      "hir": 7798,
      "iz": 7799,
      "iÃ©s": 7800,
      "iff": 7801,
      "iendrez": 7802,
      "otes": 7803,
      "shir": 7804,
      "trait": 7805,
      "up": 7806,
      "yd": 7807,
      "ÃĶ": 7808,
      "ĠEn": 7809,
      "Ġdau": 7810,
      "oule": 7811,
      "Ġsaign": 7812,
      "ontez": 7813,
      "Ġcerv": 7814,
      "quent": 7815,
      "quant": 7816,
      "erte": 7817,
      "Ġtig": 7818,
      "Ġmand": 7819,
      "Ġvends": 7820,
      "ĠvÃ©cut": 7821,
      "Ġnus": 7822,
      "ĠnÃ©s": 7823,
      "Jette": 7824,
      "entrez": 7825,
      "Ġfoir": 7826,
      "ĠflÃ¨": 7827,
      "uns": 7828,
      "Ġbre": 7829,
      "Ġbande": 7830,
      "Ġranger": 7831,
      "ince": 7832,
      "inions": 7833,
      "incol": 7834,
      "Ġence": 7835,
      "Ġprirent": 7836,
      "Ġprennent": 7837,
      "Ġtristes": 7838,
      "ĠchaÃ®": 7839,
      "ĠchÃ¨vre": 7840,
      "Ġpartes": 7841,
      "Ġparaiss": 7842,
      "ende": 7843,
      "ĠgÃ¨re": 7844,
      "Ġjeans": 7845,
      "Ġtue": 7846,
      "Ġhar": 7847,
      "ĠdÃ©gu": 7848,
      "ago": 7849,
      "ĠiP": 7850,
      "amitiÃ©": 7851,
      "Ġdanseur": 7852,
      "aliste": 7853,
      "atoire": 7854,
      "Ġprover": 7855,
      "Ġaig": 7856,
      "ĠaidÃ©e": 7857,
      "urant": 7858,
      "Ġallant": 7859,
      "Ġallumer": 7860,
      "uisait": 7861,
      "Ġsonge": 7862,
      "Compar": 7863,
      "Ã©rÃ©es": 7864,
      "Ġfrites": 7865,
      "ĠfrÃ©quemment": 7866,
      "Ġgron": 7867,
      "Ġgris": 7868,
      "Ġgras": 7869,
      "Ġserrer": 7870,
      "appareil": 7871,
      "Ġanx": 7872,
      "Ġtrouvez": 7873,
      "Ġpartiez": 7874,
      "Ġrestait": 7875,
      "ĠmangÃ©e": 7876,
      "emm": 7877,
      "abli": 7878,
      "Ġdemanderai": 7879,
      "Ġcourts": 7880,
      "allai": 7881,
      "ĠdÃ©sas": 7882,
      "ĠdÃ©sag": 7883,
      "ĠlaissÃ©es": 7884,
      "ÃĬtre": 7885,
      "Ġsimples": 7886,
      "gnez": 7887,
      "attendu": 7888,
      "Ġregardent": 7889,
      "Ġvisible": 7890,
      "Ġrevenus": 7891,
      "Ġphares": 7892,
      "insul": 7893,
      "ĠrÃ©side": 7894,
      "Ġexpri": 7895,
      "Ġcoule": 7896,
      "isses": 7897,
      "ĠcommencÃ¨rent": 7898,
      "Ġouvriers": 7899,
      "Ġrencontriez": 7900,
      "Ġsurprend": 7901,
      "PrÃªte": 7902,
      "Ġendomm": 7903,
      "Ãītant": 7904,
      "ĠannoncÃ©": 7905,
      "Ġaccoutu": 7906,
      "Ġrefroid": 7907,
      "ĠprÃ©voit": 7908,
      "Ġvivants": 7909,
      "Ġvenons": 7910,
      "ommÃ©e": 7911,
      "Ġutiles": 7912,
      "ĠutilitÃ©": 7913,
      "Ġgenou": 7914,
      "Ġvolant": 7915,
      "ĠvolÃ©e": 7916,
      "Ġvolume": 7917,
      "ĠgÃ©nÃ©reux": 7918,
      "Ġfondu": 7919,
      "ĠÃ©glise": 7920,
      "ĠÂ».": 7921,
      "uya": 7922,
      "exprimer": 7923,
      "Ġrepose": 7924,
      "iendras": 7925,
      "Ġabsor": 7926,
      "Ġabsur": 7927,
      "Ġversion": 7928,
      "Ġdessiner": 7929,
      "Ġespion": 7930,
      "ĠrÃ©veil": 7931,
      "Ġoffrit": 7932,
      "Ġattrapa": 7933,
      "Ġtyphon": 7934,
      "ĠÅĵuf": 7935,
      "oÃ»t": 7936,
      "Ġsymb": 7937,
      "Ġirresp": 7938,
      "ĠbÃ©bÃ©s": 7939,
      "Ġoranges": 7940,
      "ĠÃ©levÃ©e": 7941,
      "Ġintelligents": 7942,
      "Ġperdez": 7943,
      "ĠnuclÃ©": 7944,
      "Ġpublique": 7945,
      "Ġconscien": 7946,
      "ĠsauvÃ©e": 7947,
      "ĠprÃ©fÃ¨rerais": 7948,
      "Ġvalait": 7949,
      "Ġvalable": 7950,
      "embrass": 7951,
      "Ã©viter": 7952,
      "ĠcommenÃ§ons": 7953,
      "Ġhorloge": 7954,
      "Ġouverts": 7955,
      "Ġrecherches": 7956,
      "ĠrÃ©gion": 7957,
      "Ġmena": 7958,
      "Ġraconta": 7959,
      "Ġimpressionnant": 7960,
      "Ġemplois": 7961,
      "Ġatteignit": 7962,
      "infirmiÃ¨re": 7963,
      "ĠmÃ©tier": 7964,
      "Ġtrib": 7965,
      "ĠindiquÃ©": 7966,
      "Ġcerf": 7967,
      "ĠbrÃ»ler": 7968,
      "Ġfortement": 7969,
      "ĠarrÃªtÃ©s": 7970,
      "ambition": 7971,
      "ĠallumÃ©e": 7972,
      "Ġbienvenus": 7973,
      "Ġdisputent": 7974,
      "rigez": 7975,
      "accepte": 7976,
      "Ġfonds": 7977,
      "ĠÃ©motions": 7978,
      "ĠrÃ©cente": 7979,
      "ĠrÃ©comp": 7980,
      "ĠorganisÃ©e": 7981,
      "Ġrejoint": 7982,
      "ĠdÃ©sirez": 7983,
      "Ġambulance": 7984,
      "ĠrÃ©duit": 7985,
      "Ġespoirs": 7986,
      "Ġpierres": 7987,
      "Ġusine": 7988,
      "Ġfourni": 7989,
      "ĠgÃ¢cher": 7990,
      "Ġscand": 7991,
      "Ġadvienne": 7992,
      "Ġdomest": 7993,
      "Ġrompre": 7994,
      "Ġconstitu": 7995,
      "Ġprincipale": 7996,
      "ĠattaquÃ©": 7997,
      "ĠdiplÃ´me": 7998,
      "Disposes": 7999,
      "Ġhorriblement": 8000,
      "Ġsuicider": 8001,
      "ĠamÃ©lior": 8002,
      "ĠamÃ©liorer": 8003,
      "Ġchauffage": 8004,
      "ĠdÃ©cÃ©dÃ©e": 8005,
      "ĠemmenÃ©": 8006,
      "ruption": 8007,
      "ĠrÃ©servÃ©": 8008,
      "Ġcigarettes": 8009,
      "Ġfigure": 8010,
      "ĠcoopÃ©rer": 8011,
      "Ġgliss": 8012,
      "Ġindiv": 8013,
      "Ġcommander": 8014,
      "ĠimpliquÃ©e": 8015,
      "ĠforcÃ©s": 8016,
      "Retourne": 8017,
      "ĠtraÃ®ner": 8018,
      "ĠÃ©lÃ©gant": 8019,
      "Descends": 8020,
      "Descendez": 8021,
      "Ġarranger": 8022,
      "Ġconclusion": 8023,
      "Ġinterrompre": 8024,
      "Ġreligion": 8025,
      "ĠenlevÃ©": 8026,
      "Cherchez": 8027,
      "Ġramener": 8028,
      "Ġcambrio": 8029,
      "ĠdÃ©fauts": 8030,
      "Ġscolaire": 8031,
      "enseignant": 8032,
      "ueilli": 8033,
      "ĠrÃ©colte": 8034,
      "Ġtalentueux": 8035,
      "Ġoutils": 8036,
      "Ġplombier": 8037,
      "Ġconserver": 8038,
      "ĠlicenciÃ©": 8039,
      "Ġperplexe": 8040,
      "ĠrÃ©flexion": 8041,
      "Ġpollution": 8042,
      "Conduis": 8043,
      "Raconte": 8044,
      "orthographe": 8045,
      "ĠindiffÃ©rent": 8046,
      "Franchement": 8047,
      "Ġcirconst": 8048,
      "Ġcompliment": 8049,
      "Ġintroduit": 8050,
      "Ġpharmacie": 8051,
      "Ġinternation": 8052,
      "Servez": 8053,
      "Ġtomates": 8054,
      "Ġmouvement": 8055,
      "Ġorteils": 8056,
      "Ġlinge": 8057,
      "Ġluxe": 8058,
      "Ġfrigo": 8059,
      "Soudain": 8060,
      "Ġbudget": 8061,
      "Ġcordes": 8062,
      "Ġpagaille": 8063,
      "Ġprincesse": 8064,
      "PrÃ©pare": 8065,
      "incoln": 8066,
      "?Â»": 8067,
      "Cor": 8068,
      "Fi": 8069,
      "Gri": 8070,
      "Kyoto": 8071,
      "Ple": 8072,
      "Portez": 8073,
      "cs": 8074,
      "gation": 8075,
      "grÃ©s": 8076,
      "joute": 8077,
      "lymp": 8078,
      "mÃ©es": 8079,
      "monnaie": 8080,
      "otion": 8081,
      "over": 8082,
      "rati": 8083,
      "sa": 8084,
      "tages": 8085,
      "vers": 8086,
      "vier": 8087,
      "Ġer": 8088,
      "ĠLa": 8089,
      "ĠLes": 8090,
      "Ġdus": 8091,
      "oua": 8092,
      "ouest": 8093,
      "Ã©prouve": 8094,
      "eng": 8095,
      "enable": 8096,
      "Ġlion": 8097,
      "Ġlaid": 8098,
      "Ġagent": 8099,
      "Ġatro": 8100,
      "quit": 8101,
      "erons": 8102,
      "Ġtiers": 8103,
      "Ġtiennent": 8104,
      "Ġtitre": 8105,
      "ĠmÃ¢": 8106,
      "Ġvan": 8107,
      "Ġvig": 8108,
      "Ġpal": 8109,
      "entes": 8110,
      "Ġfie": 8111,
      "Ġfid": 8112,
      "ĠfÃ»t": 8113,
      "Ġjudi": 8114,
      "Ġlav": 8115,
      "Ġlatin": 8116,
      "ĠbÃ»": 8117,
      "Ġbottes": 8118,
      "Ġrass": 8119,
      "ital": 8120,
      "orange": 8121,
      "Ġench": 8122,
      "Ġchers": 8123,
      "aurez": 8124,
      "auras": 8125,
      "auraient": 8126,
      "ĠparaÃ®tre": 8127,
      "avÃ©ra": 8128,
      "tivement": 8129,
      "rimin": 8130,
      "ĠgÃ©rÃ©": 8131,
      "ĠÃ©tant": 8132,
      "delÃł": 8133,
      "Ġtuy": 8134,
      "Ġha": 8135,
      "ĠhaÃ¯": 8136,
      "Ġhamb": 8137,
      "Ġhonneur": 8138,
      "Ġrepar": 8139,
      "astr": 8140,
      "assion": 8141,
      "osses": 8142,
      "agan": 8143,
      "ppe": 8144,
      "ensable": 8145,
      "ator": 8146,
      "Ġdut": 8147,
      "Ġpeuple": 8148,
      "acitÃ©s": 8149,
      "Ġarra": 8150,
      "Ã»te": 8151,
      "Ġfrot": 8152,
      "Ġfrustr": 8153,
      "ĠgrÃ¨ve": 8154,
      "Ġseraient": 8155,
      "agea": 8156,
      "ĠpensÃ©es": 8157,
      "Ġpensions": 8158,
      "opÃ©ra": 8159,
      "apporte": 8160,
      "apparti": 8161,
      "Ġsachant": 8162,
      "Ġexer": 8163,
      "Ġvides": 8164,
      "Ġjustement": 8165,
      "Ġmarque": 8166,
      "Ġmarron": 8167,
      "Ġattendant": 8168,
      "Ã¢ts": 8169,
      "Ġcompassion": 8170,
      "ĠcontÃ©": 8171,
      "assistance": 8172,
      "Ġarrivait": 8173,
      "ĠarrivÃ¢mes": 8174,
      "Ġposez": 8175,
      "Ã©criv": 8176,
      "Ġdonnent": 8177,
      "Ġjouet": 8178,
      "Åĵuvre": 8179,
      "Asie": 8180,
      "Ġmanip": 8181,
      "Ġpartent": 8182,
      "ĠdÃ©tend": 8183,
      "Ġblond": 8184,
      "ancÃ©e": 8185,
      "Ġsentent": 8186,
      "image": 8187,
      "Ġsuppli": 8188,
      "Ġsupplie": 8189,
      "Ġrevue": 8190,
      "Ġrevint": 8191,
      "Ġessayait": 8192,
      "Ġessayons": 8193,
      "Ġcoupa": 8194,
      "Ġaboyer": 8195,
      "Ġrendons": 8196,
      "iditÃ©": 8197,
      "ĠtombÃ©s": 8198,
      "Ġremonte": 8199,
      "Ġcouler": 8200,
      "Ġaffreuse": 8201,
      "Ġdouce": 8202,
      "Ġportail": 8203,
      "verrou": 8204,
      "ĠintÃ©ressantes": 8205,
      "Ġdurs": 8206,
      "acebo": 8207,
      "ĠproposÃ©": 8208,
      "icago": 8209,
      "Ġnourris": 8210,
      "ĠfiÃ¨res": 8211,
      "ĠfianÃ§": 8212,
      "ĠalitÃ©": 8213,
      "Pars": 8214,
      "Ġobst": 8215,
      "roche": 8216,
      "habille": 8217,
      "ennuis": 8218,
      "ArrÃªt": 8219,
      "ĠcapacitÃ©s": 8220,
      "Ġparfum": 8221,
      "Ġtourna": 8222,
      "Ġquittez": 8223,
      "Ġconfus": 8224,
      "ĠÃ©tranges": 8225,
      "Ġdisposition": 8226,
      "ĠreconnaÃ®tre": 8227,
      "Ġemboute": 8228,
      "Ġdangers": 8229,
      "Ġsauve": 8230,
      "attendez": 8231,
      "Ġsouciez": 8232,
      "Ġapparent": 8233,
      "ĠsÃ©d": 8234,
      "Ġcria": 8235,
      "Ġcrie": 8236,
      "Ġsacri": 8237,
      "Apparemment": 8238,
      "ĠrÃ©veille": 8239,
      "Ġattendais": 8240,
      "Ġsuivie": 8241,
      "Ġsuivrai": 8242,
      "Ġoption": 8243,
      "Ġopinions": 8244,
      "ĠSh": 8245,
      "ĠirrÃ©": 8246,
      "Ġchoisit": 8247,
      "ĠÃ©vitÃ©": 8248,
      "Ġserviettes": 8249,
      "Ġfourmis": 8250,
      "Ġperdus": 8251,
      "Ġweekend": 8252,
      "ĠMonsieur": 8253,
      "Ġremarques": 8254,
      "Ã©vanou": 8255,
      "Ġpianiste": 8256,
      "Ġsouhaitons": 8257,
      "ĠcommenÃ§ais": 8258,
      "agnole": 8259,
      "Ġhoraire": 8260,
      "Ġfaciles": 8261,
      "Ġrechercher": 8262,
      "ĠrÃ©glÃ©": 8263,
      "Ġdescends": 8264,
      "ĠdÃ©gÃ¢ts": 8265,
      "ĠeffrayÃ©s": 8266,
      "ĠdÃ©butant": 8267,
      "Ġformidable": 8268,
      "ĠcollÃ¨ge": 8269,
      "ĠhonnÃªtetÃ©": 8270,
      "Ġtransm": 8271,
      "ĠennuyÃ©": 8272,
      "ĠzÃ©ro": 8273,
      "Ġpardonnerai": 8274,
      "Ġbouteilles": 8275,
      "Ġsangu": 8276,
      "Ġsuspici": 8277,
      "ĠChicago": 8278,
      "Ġbagu": 8279,
      "Ġpossibles": 8280,
      "Ġfermier": 8281,
      "ĠlycÃ©": 8282,
      "ĠrÃ©clam": 8283,
      "ĠdÃ©marrÃ©": 8284,
      "Ġmarchant": 8285,
      "effond": 8286,
      "ĠgÃ¢chÃ©": 8287,
      "Ġobjection": 8288,
      "Ġdommages": 8289,
      "ĠcensÃ©es": 8290,
      "ĠmÃ©ritÃ©": 8291,
      "ĠgÃ©niale": 8292,
      "Ġrug": 8293,
      "inviter": 8294,
      "ĠcoÃ»tent": 8295,
      "Surveille": 8296,
      "Ġcrainte": 8297,
      "ĠdÃ©Ã§us": 8298,
      "ĠÃ©chapper": 8299,
      "abandonne": 8300,
      "Ġanciens": 8301,
      "ĠpÃ©nÃ©trÃ©": 8302,
      "Ġchiff": 8303,
      "ĠrÃ©vÃ©lÃ©": 8304,
      "ĠrÃ©vÃ©ler": 8305,
      "ĠamÃ©ricaine": 8306,
      "horreur": 8307,
      "horloge": 8308,
      "ĠAnglais": 8309,
      "Ã©lection": 8310,
      "approcher": 8311,
      "Ġdisponibles": 8312,
      "Finissons": 8313,
      "ĠbÃ©nÃ©v": 8314,
      "ĠÃ©coutez": 8315,
      "Ġattirant": 8316,
      "ĠcoopÃ©ration": 8317,
      "ĠrÃ©ponds": 8318,
      "ĠdÃ©placer": 8319,
      "Ġrelations": 8320,
      "ĠaÃ®nÃ©e": 8321,
      "ĠaÃ®nÃ©": 8322,
      "Ġsoutiens": 8323,
      "Ġrembourserai": 8324,
      "Ġassiette": 8325,
      "ĠexigÃ©": 8326,
      "Ġplaisanteries": 8327,
      "ographie": 8328,
      "Ġpoursuivi": 8329,
      "Ġeurent": 8330,
      "Ġplaignent": 8331,
      "Ġmoustiques": 8332,
      "ĠopposÃ©": 8333,
      "industrie": 8334,
      "Ġsemblables": 8335,
      "Ġdrapeau": 8336,
      "Ġvertige": 8337,
      "Tourne": 8338,
      "Tournez": 8339,
      "Ġinspiration": 8340,
      "...": 8341,
      "demain": 8342,
      "Ġcroissance": 8343,
      "ĠaffamÃ©": 8344,
      "Ġconfirmer": 8345,
      "Ġcollectionner": 8346,
      "ĠconsidÃ©rer": 8347,
      "Ġmunitions": 8348,
      "ĠrÃ©guli": 8349,
      "Ġcontemp": 8350,
      "Ġgamin": 8351,
      "Ġfauteuil": 8352,
      "ĠconsÃ©quences": 8353,
      "ĠmÃ©chante": 8354,
      "ĠlittÃ©rature": 8355,
      "ĠÃ©changÃ©": 8356,
      "Oubliez": 8357,
      "Ġbaignoire": 8358,
      "Ġsurmonter": 8359,
      "Ġsolide": 8360,
      "ĠrandonnÃ©e": 8361,
      "Ġpostale": 8362,
      "Ġbordel": 8363,
      "Ġromantique": 8364,
      "ĠÃītasuniens": 8365,
      "ĠfoirÃ©": 8366,
      "Ġenceinte": 8367,
      "Ġscandale": 8368,
      "acebook": 8369,
      "ĠfianÃ§ailles": 8370,
      "ArrÃªtons": 8371,
      "Aussi": 8372,
      "Cons": 8373,
      "Lire": 8374,
      "Nul": 8375,
      "bons": 8376,
      "cez": 8377,
      "ceur": 8378,
      "cents": 8379,
      "fique": 8380,
      "king": 8381,
      "lande": 8382,
      "mie": 8383,
      "not": 8384,
      "ov": 8385,
      "ola": 8386,
      "pas": 8387,
      "sol": 8388,
      "teurs": 8389,
      "uez": 8390,
      "uÃ©e": 8391,
      "ĠI": 8392,
      "Ġis": 8393,
      "ĠItalie": 8394,
      "ĠpÃ©": 8395,
      "Ġpend": 8396,
      "Ġpue": 8397,
      "Ġpure": 8398,
      "Ġdin": 8399,
      "aidiez": 8400,
      "ouge": 8401,
      "ouilles": 8402,
      "ouiller": 8403,
      "Ã©lÃ©": 8404,
      "Ã©puis": 8405,
      "Ġlien": 8406,
      "ĠlouÃ©": 8407,
      "onz": 8408,
      "Ġcy": 8409,
      "Ġcuir": 8410,
      "ĠtolÃ©": 8411,
      "Ġther": 8412,
      "Ġvom": 8413,
      "Ġvirent": 8414,
      "ĠvÃ®mes": 8415,
      "ĠdegrÃ©s": 8416,
      "Ġfeux": 8417,
      "Ġfout": 8418,
      "Ġflex": 8419,
      "Ġquere": 8420,
      "Ġjoign": 8421,
      "ilos": 8422,
      "ĠblÃ©": 8423,
      "Ġbaisse": 8424,
      "Ġronf": 8425,
      "itter": 8426,
      "iture": 8427,
      "inez": 8428,
      "inrent": 8429,
      "arant": 8430,
      "ariste": 8431,
      "Ġenqu": 8432,
      "ĠestimÃ©": 8433,
      "Ġpresse": 8434,
      "aurons": 8435,
      "Ġparais": 8436,
      "Ġparking": 8437,
      "cien": 8438,
      "cipe": 8439,
      "tier": 8440,
      "Ġpourras": 8441,
      "rirai": 8442,
      "llent": 8443,
      "Ġpluv": 8444,
      "Ġplate": 8445,
      "ouvant": 8446,
      "ouvrit": 8447,
      "Ġgosses": 8448,
      "ĠhÃ¢": 8449,
      "ĠdÃ©verrou": 8450,
      "Ġrecev": 8451,
      "Ġredire": 8452,
      "uel": 8453,
      "amus": 8454,
      "amÃ¨ne": 8455,
      "enser": 8456,
      "alif": 8457,
      "alphab": 8458,
      "atÃ©": 8459,
      "atti": 8460,
      "atmosphÃ¨re": 8461,
      "ĠeÃ»mes": 8462,
      "Ġdig": 8463,
      "Ġdevrons": 8464,
      "Ġdevenait": 8465,
      "Ġaida": 8466,
      "ĠÃ©b": 8467,
      "Celles": 8468,
      "sive": 8469,
      "Ġiniti": 8470,
      "aces": 8471,
      "Ġyen": 8472,
      "ĠallÃ¢mes": 8473,
      "Ġamer": 8474,
      "Ġgrotte": 8475,
      "Ã§ant": 8476,
      "Ġdisant": 8477,
      "Ġdisque": 8478,
      "Ġserra": 8479,
      "Ġservent": 8480,
      "ĠpensÃ©e": 8481,
      "Ã®tres": 8482,
      "Ġcrut": 8483,
      "Ġcramp": 8484,
      "Ġbiens": 8485,
      "Ġappuyer": 8486,
      "olÃ©s": 8487,
      "Ġentends": 8488,
      "Ġexh": 8489,
      "Ġtrouvaient": 8490,
      "ĠprÃ©cieuse": 8491,
      "Ġjusque": 8492,
      "Ġsemestre": 8493,
      "ĠrestÃ©es": 8494,
      "Ġpasserai": 8495,
      "tenez": 8496,
      "Ġcaus": 8497,
      "Ġcacha": 8498,
      "Ġcomptable": 8499,
      "Ġcontag": 8500,
      "assis": 8501,
      "assister": 8502,
      "Ġcommets": 8503,
      "Ġtache": 8504,
      "Ġpostu": 8505,
      "chets": 8506,
      "Ġcompreniez": 8507,
      "Ġjouions": 8508,
      "Ġretent": 8509,
      "Ġlaissent": 8510,
      "ĠlaissÃ©s": 8511,
      "Ġquesti": 8512,
      "Ġavantage": 8513,
      "Ġenvoya": 8514,
      "Ġconstat": 8515,
      "Ġmoments": 8516,
      "Ġsensation": 8517,
      "fice": 8518,
      "Ġreviennes": 8519,
      "ĠgarÃ©e": 8520,
      "Ġphras": 8521,
      "Ġphilos": 8522,
      "Ġempire": 8523,
      "Puisque": 8524,
      "Ġconduirai": 8525,
      "Ġrestera": 8526,
      "ĠprofitÃ©": 8527,
      "Ġtrouverons": 8528,
      "Ġvoyiez": 8529,
      "ĠtÃ©lÃ©phonique": 8530,
      "Ġcoudre": 8531,
      "ĠcarriÃ¨re": 8532,
      "ministr": 8533,
      "ĠvÃ©ritables": 8534,
      "Ġdoucement": 8535,
      "ication": 8536,
      "ĠannulÃ©e": 8537,
      "Ġeffecti": 8538,
      "Parles": 8539,
      "habit": 8540,
      "Ġrespiration": 8541,
      "ennuy": 8542,
      "ĠarrÃªtiez": 8543,
      "Ġchauve": 8544,
      "ĠexcÃ¨s": 8545,
      "ĠexcusÃ©": 8546,
      "ĠAlice": 8547,
      "Ġinvest": 8548,
      "Discut": 8549,
      "Ġprendrais": 8550,
      "Ġconfondu": 8551,
      "Ġsouhaites": 8552,
      "ĠprioritÃ©s": 8553,
      "ĠordonnÃ©": 8554,
      "Ġembar": 8555,
      "Ġcomptez": 8556,
      "Ġserveur": 8557,
      "Ġverte": 8558,
      "Ġradi": 8559,
      "ĠapprÃ©cient": 8560,
      "ĠespÃ©": 8561,
      "Ġcrimes": 8562,
      "Ġchaussure": 8563,
      "Ġdrag": 8564,
      "Ġsatisfais": 8565,
      "ĠSuisse": 8566,
      "Ġcasquette": 8567,
      "Ġdollar": 8568,
      "Ġmiles": 8569,
      "Ġdistances": 8570,
      "ĠarrÃªtÃ©es": 8571,
      "Ġsoll": 8572,
      "Ġtrompette": 8573,
      "ĠMex": 8574,
      "Ġnoter": 8575,
      "Ġnettoya": 8576,
      "ĠimaginÃ©e": 8577,
      "ĠFacebook": 8578,
      "Ġinquiets": 8579,
      "ĠinquiÃ©tez": 8580,
      "Ġremarqua": 8581,
      "Ġbulle": 8582,
      "ĠsouhaitÃ©": 8583,
      "Ġretire": 8584,
      "Ġhorri": 8585,
      "Ġtaxis": 8586,
      "ĠcoincÃ©e": 8587,
      "Ġrecherchent": 8588,
      "Ġstylos": 8589,
      "Ġmessages": 8590,
      "annonce": 8591,
      "Ġjaponaises": 8592,
      "Ã©cile": 8593,
      "liquez": 8594,
      "Ġparlaient": 8595,
      "ĠentendÃ®mes": 8596,
      "Ġsentiras": 8597,
      "Ġextra": 8598,
      "Ġrecommande": 8599,
      "Ġressemblez": 8600,
      "Ġmett": 8601,
      "ĠglacÃ©e": 8602,
      "Ġdossier": 8603,
      "Ġcomprendrais": 8604,
      "ĠparticuliÃ¨re": 8605,
      "Ġflam": 8606,
      "ĠdÃ©testes": 8607,
      "ĠdÃ©testait": 8608,
      "Ġennuyeuse": 8609,
      "Ġcherchent": 8610,
      "Ġappels": 8611,
      "Ġblancs": 8612,
      "Ġpeinte": 8613,
      "ĠdÃ©clar": 8614,
      "Ġemm": 8615,
      "Ġgrippe": 8616,
      "Ġcompagnon": 8617,
      "Ġrenard": 8618,
      "Ġsubir": 8619,
      "Ġmarchait": 8620,
      "Retire": 8621,
      "Ġtrembler": 8622,
      "ĠGu": 8623,
      "Ġvein": 8624,
      "Ġhabits": 8625,
      "Ġtape": 8626,
      "Ġtaper": 8627,
      "invitation": 8628,
      "ĠsemblÃ©": 8629,
      "Ġexempl": 8630,
      "Ġcousine": 8631,
      "ĠÃ©conomique": 8632,
      "ĠÃ©conomiser": 8633,
      "MalgrÃ©": 8634,
      "Ġmajeure": 8635,
      "ĠmajoritÃ©": 8636,
      "Jouez": 8637,
      "Ġpuissant": 8638,
      "ĠvirÃ©e": 8639,
      "Ġponctuelle": 8640,
      "Remets": 8641,
      "entraÃ®nement": 8642,
      "ĠrÃ©serve": 8643,
      "Ġjugement": 8644,
      "obligez": 8645,
      "Ġreproduire": 8646,
      "Ġressemblait": 8647,
      "Ġautomatique": 8648,
      "Ġjaunes": 8649,
      "ĠmenacÃ©": 8650,
      "Acc": 8651,
      "Compare": 8652,
      "Ġcommerciale": 8653,
      "Apprendre": 8654,
      "Ġphotographie": 8655,
      "Ġexigea": 8656,
      "averti": 8657,
      "appelait": 8658,
      "ĠmÃ©nagÃ¨res": 8659,
      "Ġterrain": 8660,
      "Ġsinge": 8661,
      "Ã¨nerai": 8662,
      "Ġchirurgien": 8663,
      "Ġbrosser": 8664,
      "ĠoffensÃ©e": 8665,
      "Ã©checs": 8666,
      "Ġlabeur": 8667,
      "emprunter": 8668,
      "Ġstrict": 8669,
      "ĠimpressionnÃ©s": 8670,
      "ĠopportunitÃ©": 8671,
      "ĠaperÃ§u": 8672,
      "credi": 8673,
      "ĠrelÃ¢": 8674,
      "ĠcompliquÃ©e": 8675,
      "Attrape": 8676,
      "ĠfainÃ©ant": 8677,
      "ĠidÃ©al": 8678,
      "Ġconsommer": 8679,
      "Buvez": 8680,
      "Ġrenfor": 8681,
      "Ġvictoire": 8682,
      "Ġsiffler": 8683,
      "cureu": 8684,
      "Remplissez": 8685,
      "Ġtalents": 8686,
      "Ġrecond": 8687,
      "Ġcauchemar": 8688,
      "Ġuniforme": 8689,
      "Ġjoyeux": 8690,
      "Salut": 8691,
      "chitecte": 8692,
      "ĠhuÃ®tres": 8693,
      "Ġstatue": 8694,
      "shirt": 8695,
      "Ġdauph": 8696,
      "ĠdÃ©sastre": 8697,
      "Ġirrespons": 8698,
      "Ġcambrioleur": 8699,
      "lympiques": 8700,
      "ĠcramponnÃ¨rent": 8701,
      "Ġphrases": 8702,
      "Ġphilosoph": 8703,
      "Cal": 8704,
      "Em": 8705,
      "Faut": 8706,
      "Jouer": 8707,
      "Leurs": 8708,
      "Nett": 8709,
      "Pose": 8710,
      "TÃ´t": 8711,
      "bib": 8712,
      "cÃ©s": 8713,
      "cations": 8714,
      "fici": 8715,
      "idiot": 8716,
      "niques": 8717,
      "oll": 8718,
      "ocier": 8719,
      "pÃ©": 8720,
      "raine": 8721,
      "Ĭtes": 8722,
      "ession": 8723,
      "Ã©cu": 8724,
      "Ã©der": 8725,
      "enquÃªte": 8726,
      "enveloppe": 8727,
      "Ġloy": 8728,
      "Ġsir": 8729,
      "Ġsaine": 8730,
      "ony": 8731,
      "Ġcic": 8732,
      "erse": 8733,
      "Ġtiss": 8734,
      "Ġtaill": 8735,
      "Ġtiendrai": 8736,
      "ĠtÃªtu": 8737,
      "Ġmu": 8738,
      "Ġmeurs": 8739,
      "Ġvrais": 8740,
      "Ġvap": 8741,
      "Ġventre": 8742,
      "ĠvÃªtu": 8743,
      "ĠnÃ´tres": 8744,
      "anim": 8745,
      "Ġfal": 8746,
      "ĠfÃ©ri": 8747,
      "Ġfoyer": 8748,
      "Ġfisc": 8749,
      "omie": 8750,
      "ĠÃĬtes": 8751,
      "isons": 8752,
      "istique": 8753,
      "tembre": 8754,
      "Ġunivers": 8755,
      "ila": 8756,
      "Ġbagnole": 8757,
      "Ġrag": 8758,
      "Ġrirent": 8759,
      "Ã¨nent": 8760,
      "itann": 8761,
      "arpe": 8762,
      "Ġsueur": 8763,
      "ori": 8764,
      "ormes": 8765,
      "usion": 8766,
      "ĠprÃªtre": 8767,
      "Ã©tend": 8768,
      "Ġpari": 8769,
      "tueux": 8770,
      "cir": 8771,
      "cieusement": 8772,
      "onnÃªtes": 8773,
      "Ġpluies": 8774,
      "ouvrage": 8775,
      "Ġtoux": 8776,
      "Ġtoubib": 8777,
      "Ġtua": 8778,
      "Ġhant": 8779,
      "ĠredÃ©": 8780,
      "astron": 8781,
      "ageux": 8782,
      "Ġdevions": 8783,
      "Ġailes": 8784,
      "lable": 8785,
      "illet": 8786,
      "ortons": 8787,
      "ortÃ©e": 8788,
      "Ġsurmen": 8789,
      "lÃ©es": 8790,
      "ĠrÃ©con": 8791,
      "Ġotages": 8792,
      "ĠarrÃªte": 8793,
      "ĠarrÃªtes": 8794,
      "Ġgratte": 8795,
      "Ġdistr": 8796,
      "Ġpensa": 8797,
      "oyait": 8798,
      "Ġapplication": 8799,
      "Ġsavon": 8800,
      "Ġsavions": 8801,
      "ĠexÃ©cut": 8802,
      "Ġange": 8803,
      "ĠtrouvÃ¨rent": 8804,
      "Ġjustesse": 8805,
      "ayons": 8806,
      "Ġmalins": 8807,
      "Ġmaligne": 8808,
      "Ġtrains": 8809,
      "aÃ®tr": 8810,
      "Ġperde": 8811,
      "Ġbonhomme": 8812,
      "Ġbonbons": 8813,
      "Ġcaches": 8814,
      "Ã¢ne": 8815,
      "ĠcomparÃ©": 8816,
      "assons": 8817,
      "assade": 8818,
      "Ġarrives": 8819,
      "Ġtaqu": 8820,
      "Ġimprud": 8821,
      "ĠÃ©criture": 8822,
      "Ġacte": 8823,
      "Ġacquis": 8824,
      "Ġcomprise": 8825,
      "Ġcomprennes": 8826,
      "Ġnombres": 8827,
      "ĠdÃ©sobÃ©": 8828,
      "umÃ©": 8829,
      "Ġretrait": 8830,
      "Ġbran": 8831,
      "Ġbriser": 8832,
      "Ġbrave": 8833,
      "Ġbritann": 8834,
      "parents": 8835,
      "ĠdÃ©taill": 8836,
      "guÃ©e": 8837,
      "Ġblanches": 8838,
      "Ġbluff": 8839,
      "dule": 8840,
      "Ġenvah": 8841,
      "ĠenvoyÃ©e": 8842,
      "ĠenvoyÃ©es": 8843,
      "ĠdÃ©couverte": 8844,
      "gna": 8845,
      "Ġchamps": 8846,
      "Ġcloch": 8847,
      "ĠBe": 8848,
      "Ġchienne": 8849,
      "Ġrevenue": 8850,
      "Ġpartirons": 8851,
      "Enf": 8852,
      "ĠderniÃ¨rement": 8853,
      "ĠcoupÃ©e": 8854,
      "Ġrendes": 8855,
      "illages": 8856,
      "Ġbouc": 8857,
      "ĠdÃ©passe": 8858,
      "ĠtombÃ©es": 8859,
      "Ġtrouvera": 8860,
      "Ġaidera": 8861,
      "Ġhabiter": 8862,
      "Ġexpul": 8863,
      "Ġcoutume": 8864,
      "impressi": 8865,
      "Ġaffai": 8866,
      "Ġgross": 8867,
      "Ġouvrages": 8868,
      "Ġmentalement": 8869,
      "Ġrencontra": 8870,
      "ĠrentrÃ©s": 8871,
      "Ġmonta": 8872,
      "Ġchantes": 8873,
      "mbler": 8874,
      "Ġaccueill": 8875,
      "Ġaltern": 8876,
      "Ġinsist": 8877,
      "ĠinsensÃ©": 8878,
      "Ġpoliment": 8879,
      "Ġproduira": 8880,
      "Ġconcer": 8881,
      "ĠdÃ©bord": 8882,
      "ĠcuisinÃ©": 8883,
      "Ġcuisines": 8884,
      "Ġvivaient": 8885,
      "ĠdÃ©cidÃ©e": 8886,
      "Ġlundis": 8887,
      "Ġ17": 8888,
      "ĠÃ©pais": 8889,
      "Ġprendrait": 8890,
      "ĠonÃ©reux": 8891,
      "Ġstade": 8892,
      "Ġdisposait": 8893,
      "Ġdiscutons": 8894,
      "ĠembÃªt": 8895,
      "Ġgentiment": 8896,
      "Ġsolitaire": 8897,
      "ĠsÃ©rie": 8898,
      "ĠguÃ©rir": 8899,
      "Ġagis": 8900,
      "Ġagac": 8901,
      "Ġsourc": 8902,
      "Ġsourn": 8903,
      "Ġconnaissances": 8904,
      "iendront": 8905,
      "Ġraquette": 8906,
      "Ġsignes": 8907,
      "ApprÃ©ci": 8908,
      "Ã©roÃ¯": 8909,
      "Ġattendait": 8910,
      "Ġattendue": 8911,
      "ogram": 8912,
      "ĠÅĵuvres": 8913,
      "Ġsurvenait": 8914,
      "Ġmercredi": 8915,
      "Ġsyn": 8916,
      "Ġsituations": 8917,
      "Ġrobinet": 8918,
      "Ġamoureuses": 8919,
      "enfuit": 8920,
      "Ġcommencement": 8921,
      "Ġfalloir": 8922,
      "Ġrestaurants": 8923,
      "ĠautoritÃ©": 8924,
      "Ġperdant": 8925,
      "Ġfusil": 8926,
      "Ġniche": 8927,
      "ĠdÃ©fense": 8928,
      "ĠvÃ©rifi": 8929,
      "Ġremarque": 8930,
      "ieuses": 8931,
      "Ġsouffert": 8932,
      "Ġhumaine": 8933,
      "ĠgÃ©nÃ©rale": 8934,
      "Ġbizarres": 8935,
      "Ġselfie": 8936,
      "Ġministre": 8937,
      "dÃ©jeu": 8938,
      "ĠgoÃ»tÃ©": 8939,
      "Ġdivers": 8940,
      "Ġguitariste": 8941,
      "Ġeffrayant": 8942,
      "Ġpopulaires": 8943,
      "Ġatom": 8944,
      "Ġpoussa": 8945,
      "ĠrÃ©ussira": 8946,
      "excus": 8947,
      "Ġidiots": 8948,
      "ĠprÃ©cis": 8949,
      "ĠspÃ©ciale": 8950,
      "ĠspÃ©cialitÃ©": 8951,
      "ĠdÃ©tester": 8952,
      "ĠdÃ©testais": 8953,
      "Ġsucreries": 8954,
[...]
